#version: 0.2 - Trained by `huggingface/tokenizers`
a n
c h
t a
q a
l l
u n
a y
p i
Ġ k
i n
a q
un a
m a
i s
p a
Ġ s
w a
k una
u y
m i
r i
Ġ ll
t i
Ġ h
Ġ p
ch a
y a
m an
ll a
Ġk a
k u
Ġll aq
Ġ wa
Ã ±
k a
Ġ q
Ġ (
Ġ a
Ġ n
Ġ r
Ġllaq ta
u q
is qa
Ġ ch
u r
u k
u s
q an
k i
Ġ m
w an
Ġ ma
Ġs i
r u
Ġn isqa
Ġ pa
a p
uy u
Ġ d
man ta
Ġwa ta
Ġ 1
a s
an qa
ch i
Ġ t
Ġ i
Ġsi mi
Ġ Ã±
Ġh uk
a r
n in
Ġ ri
w i
a m
l i
Ġs uyu
Ġk i
r qan
Ġr una
Ġnisqa qa
o n
i q
Ġk ay
r a
s qa
ru w
y uq
Ġma ma
pa s
Ġ ya
k un
t u
Ġq h
Ġs u
s i
p aq
Ġllaqta pi
in a
u ma
Ġh a
Ġ -
Ġ 2
i ll
e s
Ġch ay
y u
ch u
Ġ pi
ta q
c o
Ġ j
ch ay
ĠÃ± iq
e r
in s
Ġ man
u l
e n
ĠÃ±iq in
l a
Ġki lla
Ġ wi
q u
t in
ruw ins
Ġsimi pi
Ġ b
ruwins ya
m ay
Ġ qa
â Ģ
kuna ta
Ġwata pi
Ġp ruwinsya
o s
an a
Ġkilla pi
Ġ ta
Ġq ill
k uy
r isqa
Ġ c
Ġqill qa
s ti
ap aq
Ġq u
Ġ y
Ġllaqta m
Ġsu ti
k ay
g u
Ġka rqan
Ġllaq t
is t
Ġd e
Ġk an
w ay
cha w
ka ma
t un
sti lla
o r
Ġll am
Ġ1 9
Ġ ay
Ġa s
us qa
ay uq
Ġsuti yuq
Ġllam k
ch is
p uy
y an
h a
ist ri
0 0
Ġman a
cha sqa
Ġ an
w s
r ay
Ġ uma
d i
Ã± a
Ġ l
) .
Ġd istri
Ġ âĢ
Ġllaqt anqa
co m
Ġha wa
Ġpa cha
a l
m on
Ġi cha
Ġ ti
e l
Ġk aq
ri ya
Ġp u
Ġ mi
Ġruna kuna
Ġ in
c i
ap uy
Ġka ws
is pa
t o
h i
Ã ¡
Ġsuyu pi
com mon
n i
common s
Ġpa qa
Ġa ll
k ch
Ġ cha
ch wa
Ġdistri tu
ti gu
tigu riya
kun ayuq
Ġ g
aq ta
k an
ur a
in ki
Ġha tun
an ta
d ya
kuna pi
chi k
kunayuq mi
Ġs a
Ġ ur
p u
Ġqa lla
Ġm ul
puy nin
l in
ti mi
Ġka puynin
p ay
ĠÃ± a
Ġqh i
Ġmul timi
Ġmultimi dya
Ġkapuynin kunayuqmi
Ġm ay
Ġ _
Ã Ń
Ġ 3
ll u
ll an
Ġwa Ã±
Ġpaqa risqa
Ġm un
ka stilla
r una
r o
Ġpi ruw
is i
Ġr ur
d ar
ta m
yan u
Ġp ay
lin dar
Ġi ma
Ġka lindar
h u
Ġr u
Ġ is
r an
s qan
s pa
Ġn i
ll aqta
s a
Ġ "
Ġh ina
kuna qa
r e
Ġka ma
u ti
k in
Ġri kch
Ġ f
Ġas wan
lla m
w ya
Ġs an
Ġqh apaq
Ġqu cha
v i
Ġ li
s h
Ġkalindar yu
Ġ u
Ġ wan
un chaw
Ġya chay
c a
ch in
d o
Ġall in
uk uy
Ã ³
ri y
t e
Ġqhi chwa
p an
m pa
Ã ©
Ġma r
r qa
d a
t an
Ġpruwinsya pi
Ġruna qa
Ġqh a
n a
ll i
Ġri may
ĠÃ±a w
l u
chi y
ch an
Ġqalla risqa
ki pi
Ġd i
chaw wan
Ġch i
u li
Ġkalindaryu kama
) ,
ku q
Ġ1 8
Ġh u
Ġ 5
llam k
Ġch un
Ġ /
Ġt u
Ġwa r
Ġka stilla
Ġ un
Ġn ispa
Ġya cha
Ġwata qa
0 1
ch kan
ch aq
Ġp uk
Ġ la
di ya
h as
m aq
Ġa ma
kun an
ĠwaÃ± usqa
Ġ( *
Ġpa r
kuna p
ka tiguriya
kipi diya
Ġt ukuy
ay mi
Ġmay u
pi qa
Ġh ul
Ġ uy
man a
Ġki ti
ĠâĢ İ
Ġllaqta yuq
Ġh ay
p un
isi p
Ġp uq
p e
Ġwi kipidiya
kuna m
Ġhul yanu
isip yu
Ġwata m
uli wya
Ġll i
y ki
y ta
Ġka tiguriya
Ġ way
Ġk un
Ġwi lla
ay a
r is
as qa
Ġ w
Ġmun isipyu
Ġ ,
pi s
chi q
Ġr aymi
Ġh in
o l
u t
Ġwa k
ray ku
Ġk uti
Ġis kay
has ku
1 9
Ġch hasku
Ġ yu
Ġ 4
ch us
lla chasqa
Ã³ n
Ġh an
Ġpuq uy
ta qa
Ġ v
Ġ e
ll ay
g o
ri ka
Ġkaws ay
ma r
s uyu
ta wan
an ku
Ġp us
an i
Ġwa si
Ġri ku
Ġ2 00
k h
ar a
m p
o q
Ġllaqta p
Ġa ti
Ġr e
ch ka
Ġqillqa kuna
u lla
Ġb uliwya
inki kuna
kuna manta
un t
Ġy ura
d e
Ġj es
a ll
â Ĩ
Ġdi os
Ġr a
w qa
Ġchun ka
i ti
ti ku
Ġur qu
l e
Ġm us
ll iq
Ġ2 01
Ġll a
r in
h uk
k wa
Ġ :
p tin
Ġh am
Ġllaqt an
ni yuq
Ġay llu
m in
ch un
h ina
Ġ o
pa mpa
Ġri man
Ġin ti
Ġ 6
Ġkatiguriya pi
q i
Ġ co
Ġhan aq
âĨ Ĳ
nin mi
u m
Ġ( âĨĲ
may u
Ġ es
Ġmama llaqta
Ġan cha
li tiku
Ġa mi
qa y
Ġwar mi
Ġpuk yu
d ur
Ġg ri
l an
Ġa r
ur u
Ġrunakuna m
Ġ Â
Ã± i
Ã º
Ġk us
ay ki
Ġqillqa sqa
ĠâĢ ĵ
Ġcha s
Ġti yan
un qa
Ã± ay
ur in
Ġuma lliq
ll ka
Ġami rika
Ġhuk llachasqa
Ġsuyu kuna
wi ki
Ġj u
Ġn in
us qu
l o
s an
Ġ uk
as pa
ku spa
Ġmi t
r aq
kunata m
Ġr o
Ġpu litiku
ch isqa
ma ma
h in
rqan ku
Ġyu pay
Ġch in
Ġ )
Ġpukyu ta
ay nin
Ġta r
an paq
ta pas
k ray
Ġhay t
i l
kuna wan
Ġa l
Ġnisqa pi
b a
uy uq
s in
Ġm una
Ġri ma
q h
ch Ã¡
ru m
Ġj a
Ġmi kh
Ġk anqa
ni y
Ġm is
Ġwata manta
ma ra
llan wa
l is
s un
ch ina
lu ta
m un
Ġas tawan
Ġp ha
ap usqa
a ri
g ur
Ġlli w
Ġ1 5
Ġ 7
k is
an t
wa r
Ġwak llanwa
Ã¡ n
Ġq an
Ġmar ka
ĠÃ±aw paq
b o
ll qa
pa cha
i ya
k ra
kuna pas
kuna paq
Ġru wa
Ġsu tin
j a
us pa
Ġqh ulla
Ġ 9
Ġli ma
pi n
Ġ vi
Ġan ta
Ġta ki
z a
Ġs in
Ġi may
2 00
ta l
Ġsa ch
ci a
k isqa
Ã± u
kwa dur
Ġri q
Ġs e
c e
Ġ 8
g a
Ġgri gur
v e
Ġllaqtan mi
Ġ1 7
Ġqu lla
Ġy uy
s e
may uq
Ġs ay
nin pi
ch e
is qan
Ġkaws a
Ã±a w
r as
y ay
ta pi
Ġa chka
Ġc a
Ġk u
Ġp un
Ġchay manta
n e
aq u
ri rqan
Ġpus aq
Ġgrigur yanu
kuna man
t er
1 8
y un
h an
v a
ta kuna
q o
lla taq
Ġya la
Ġpar ki
ana kuy
anqa man
un chay
Ġp ro
lla pa
č Ċ
m ur
t ina
b i
Ġay a
Ġs aq
Ġka chkan
Ġrur aq
qh apaq
uy a
Ġqulla suyu
Ġhuk chasqa
Ġya ku
1 0
Ġh ap
lla pi
Ġn a
) :
Ġq usqu
Ġqillqa q
d u
ĠâĢ ł
ÃŃ a
Ġcha kra
b li
pi pas
e c
yuq mi
Ġ1 2
Ġllaqta qa
Ġta ri
Ġkaws aq
chu a
Ġi kwadur
Ġa t
Ġtu ku
h o
qan ku
Ġman am
s u
Ġ [
Ġr an
si mi
ap an
. .
Ġdistri to
Ġwa wa
qu e
) "
m uq
" ,
Ġqucha manta
Ġka ru
un i
llan u
aq mi
Ġdistritu m
Ġpacha pi
Ġqha way
Ġta yta
Ġ 0
m o
Ġka sti
ki chis
Ġ1 4
g i
Ġkun an
Ġwata p
Ġ ispa
ta j
Ġp e
li man
Ġri maq
Ġmus uq
m e
Ġan ti
Ġicha qa
Ġpha takuna
Ġin ka
Ġka sqan
i r
Ġkasti llanu
Ġkiti lli
Ġmit rum
hi ku
q uy
chkan ku
an chay
h un
r wa
w w
nin ta
kch unqa
Ġch uq
an an
qu cha
k aq
Ġs uy
b er
Ġ1 6
pun i
kunata pas
is pi
pe ci
Ġwa t
unt ur
ku s
Ġd y
ill ay
Ġka mayuq
ta y
Ġch an
ri q
Ġ1 0
Ġn o
Ġuy wa
Ġ uq
Ġrimay kuna
kuy kuna
Ġdistritu pi
p h
1 5
pi ruw
Ġwata kama
wi kis
peci es
Ġs untur
anqa yuqmi
ll ur
Ġa wya
wikis pecies
Ġka rqa
i y
or g
Ġsuyu m
Ġa wqa
Ġka p
apusqa kuna
s apaq
Ġs anta
a ma
ĠÃ±aw pa
Ġall pa
r us
Ġkama chi
b ya
ay ku
Ġde l
Ġkan ta
Ġka sh
1 2
m u
is a
ur aq
Ê ¼
Ġni rqan
Ġsu t
âĢ ı
Ġl u
Ġch u
ra l
Ġya chaq
taq mi
Ġq uy
Ġm u
Ġkawsa chkanku
e a
Ġka ll
Ġy ana
1 7
Ġ1 3
ayki paq
i t
Ġ19 9
Ġk m
c en
Ġ .
Ġki m
t ri
Ġk Ã±
Ġb a
p us
ll un
Ġkaq manta
t on
Ġ19 8
m us
q hi
x i
pa sqa
1 6
Ġch ani
Ġriman ku
as qan
ana kuna
Ġqillqa sqan
Ġll an
tu wa
Ġllaqtapi qa
k e
Ġki chwa
Ġman an
Ġp h
Ġpi luta
g en
Ġay mara
a qa
t h
Ġl aya
ci on
Ġk ris
manta m
wi tu
Ġw aq
si ya
mana kuy
qa qa
Ġ *
Ġsa pa
Ġrunakuna p
Ġwakllanwa tam
Ã± iq
tal ya
Ġki kin
pa r
anqa kuna
Ġkanta ray
âĢ ¡
ĠâĢİ âĢ¡
anqa manta
1 4
os Ã©
1 3
pa ta
wqa r
Ġpiruw pi
ĠÂ ¿
Ġh un
Ġma s
kun aq
chis qan
an cha
Ġsi q
isi rwa
ni yki
Ġ ).
Ġa liman
Ġkan ku
a cha
Ġ gu
Ġb i
00 0
Ġqha wa
ti q
v in
Ġsi tuwa
qu wiki
Ġp er
Ġ2 0
w ru
Ġ19 4
Ġhina llataq
ĠwaÃ± u
ku ta
Ġr isirwa
Ġchani yuq
2 0
Ġa tin
ki y
i ma
uy lla
Ġchay qa
Ġwa ll
Ġ19 7
uq si
Ġa k
Ġy an
Ġ el
Ġtar puy
Ġlliw manta
Ġ chaw
pi m
Ġpa wqar
Ġka s
er n
Ġdios pa
ay llu
Ġti kray
Ġuy ar
Ġch ur
ri a
Ġwa kin
i k
Ġn e
Ġkama chiy
Ġ1 1
ch ana
as ka
Ġqu e
Ġ us
Ġs un
Ġl e
chu ka
ku rqan
Ġispa Ã±a
t ur
Ġ19 6
p o
da d
u cha
Ġr un
Ġqhi paq
Ġwi Ã±
Ġj ina
Ġqu ll
ch uk
Ġc ar
âĢ İ
Ġtiyan ku
w aq
Ġquy llur
w k
ta s
Ġsu maq
Ġsa llqa
ri way
Ġur u
hin tina
Ġllaqta kuna
Ġwi Ã±ay
Ġqalla rirqan
q un
Ġchay mi
Ġruraq pa
Ġi talya
in kisqa
ci Ã³n
iya pu
mar ka
Ġjes us
Ġpu chuka
v er
j u
k ha
ku chu
Ġc on
inki muq
Ġtikray kuna
Ġllan k
Ġwa ray
Ġti ya
l as
pa qa
s uti
inkimuq kuna
ur qan
Ġq i
Ġkan tun
mur ay
di a
ki kin
b e
Ġchay pi
Ġa ri
Ġm aq
huk llachasqa
pa m
Ġawqa q
Ġk h
iti kuna
Ġru mi
Ġlla pa
Ġruna p
anku paq
ay ta
is ta
tu p
Ġay muray
f i
qa q
Ġya puy
Ġsin chi
ĠÃ± u
ayllu paq
ar k
Ġati y
c u
Ġll apan
Ġ19 5
Ġay riway
Ġpa mpa
Ġ2 4
ll aq
s ay
an o
Ġur in
d ro
i m
man u
Ġpuchuka rqan
Ġm o
Ġuk hu
qhi chwa
Ġk ur
Ġruna m
Ġqillqa y
. ,
Ġmis hiku
n o
Ġ en
Ġ2 2
Ġa w
Ġriman apaq
Ġnisqa kunaqa
Ã±aw ra
Ġpro vin
Ġc re
anan kuna
a kuykuna
ku sqa
Ġq ispi
may ninpi
qa lla
ras il
kuy uylla
Ġmarka pi
sa ch
Ġriku riy
1 1
uy an
Ġ2 5
lis h
Ġprovin cia
ar qan
mar q
Ġkim sa
Ġham pi
Ġsi min
Ġti k
Ġruna simi
Ġta wa
Ø §
an chik
ti kray
ar aq
Ġ2 3
tikray nin
is k
m uy
Ġhu Ã±
Ġyala pi
Ġm in
c as
a ti
Ġqa tiq
Ġ3 1
Ġaya marq
wa si
Ġp ur
Ġka spa
m b
ch qa
Ġ19 3
i ta
Ġa ran
Ġqa rqan
Ġpu chuk
ÃŃ n
i i
uk un
en to
Ġruna kunata
Ġru way
Ġyuy ay
Ġka ptin
am p
i o
. [
anqa qa
Ġpi si
i cha
k o
Ġ3 0
Ġa pu
Ġmun an
j o
Ġk uyu
Ġc u
Ġl o
che j
Ġ2 8
Ġli cen
Ġchuq iyapu
uq ta
Ġwa qa
on a
Ġf a
b el
p ura
Ġkris tup
t is
kun ku
Ġc as
Ġumalliq nin
Ġran siya
2 5
wi llka
Ġpruwinsya m
u ku
y uyuq
Ġh unt
Ġpa s
ĠÃ±aw pan
Ġque chua
s isqa
ĠâĢ ¢
Ġkanqa ku
Ġkalindar yuyuq
r un
Ġs on
Ġwa man
unchaw ninmi
c ar
ku sqan
Ġicha taq
Ġpu ka
j ina
d or
Ġka sqa
Ġllaqta kunapi
Ġri t
en a
Ġun quy
Ġhin aspa
m pi
ya pi
kama m
chis pa
Ġju an
r es
Ġs al
anqa pi
Ġkuti tam
Ġ anqa
pu bli
sh ar
Ġati pa
Ġq o
Ġrur asqa
3 1
ti yay
Ġsuyu p
Ġpa chan
Ġr ap
Ġch anta
Ġm e
Ġpuchuk aynin
y aq
Ġj e
Ġn isqan
Ġch urin
as wan
Ġchas k
tri b
z o
Ġchay rayku
a kuna
Ġj osÃ©
h e
v o
ka s
ri tu
Ġya pasqa
unchaw qa
pa j
Ġn is
Ġpun u
f a
Ġchan in
Ù Ħ
Ġpi n
Ġjes usqa
Ġch aq
Ġ2 1
g e
ĠÃ±a wi
Ġ z
Ġya w
Ġaran way
pi kchunqa
Ġk ul
aq tin
Ġb o
Ġru wan
Ġkalindaryu pi
Ã «
uy chi
ĠÃ± an
Ġman araq
Ġdy us
a ta
Ġre publi
pi luta
Ġn ina
kuy nin
Ġ2 6
Ġ commons
ki q
qi pa
er o
Ġwi llay
Ġn u
Ġar hintina
Ġpuchukaynin kama
r ist
wan mi
Ġkan ayuq
Ġsaq illay
li ku
Ġyacha chiy
ll o
Ġya war
Ġallin ta
Ġi Ã±i
kuy ta
ha tun
Ġwilla kuna
Ġlicen se
Ġp hi
Ã± or
Ġsimi ta
Ġlli mp
uyan chasqa
Ġkay nin
Ġhin an
2 8
Ġp o
Ġ2 9
Ġwilla sun
Ġco r
Ġper Ãº
i a
Ġchask inki
â ĸ
Ġqillqa taqa
ati ve
2 7
k s
Ġllaqta manta
Ġsu Ã±ay
Ġhukchasqa kuna
Ġcre ative
Ġrunakuna qa
uti on
Ġun i
t t
li ke
Ġrepubli ka
Ġwi llka
kunata qa
Ġurqu m
inkisqa pi
Ġwillasun aykipaq
apuy paq
Ġat trib
Ġphatakuna chÃ¡
ea like
shar ealike
Ġsaqillay kamam
Ġattrib ution
unchaw pi
Ġwar anqa
2 4
2 01
5 0
Ġt o
mayu kuna
Ġwakllanwa tapi
Ġ2 7
s o
en e
Ġb u
kuna taq
lla ta
Ġi llapa
Ġchay ta
p s
ka r
Ġd o
am pa
Ġll u
ch uq
Ġya chan
g ar
in o
en t
Ġchaw pi
Ġhin am
Ġka cha
Ġm uyu
wa Ã±
wa ta
Ġama ru
ki lla
Ġb rasil
al an
inki kunata
4 00
Ġs o
Ġch e
Ġriq sisqa
d es
t ukuy
Ġa p
Ġrur u
Ġf ran
3 0
Ġp an
man mi
âĸ º
2 2
ri o
Ġh ark
Ġj isk
Ġpay ta
) âĢİ
m is
Ã© n
d en
Ġb e
Ġ or
ch o
Ġyupay kuna
Ġwa qay
Ġqha ri
Ġkalindaryukama taq
ri kch
ill u
Ġb ar
ta r
Ġpi chqa
.. .
Ġt uk
Ġpaqa ri
Ġqull qi
li a
sa pa
Ġ200 1
Ġt anta
Ġpi kchunqa
Ġtik si
anqa kunam
ĠÃ± o
Ġman cha
kama sqa
Ġchin chay
ww w
2 1
f e
ut uqsi
2 6
i ka
Ġsuyu kunapi
Ġmikh un
Ġqa r
ti on
Ġma Ã±a
manta qa
ay mara
wru pa
] [
a pi
w in
Ġsimi manta
Ġkilla chawwan
r ÃŃ
Ġinti chawwan
ha wa
bo t
Ġwa sin
Ġa pa
Ġd a
Ġj an
Ġa hina
Ġpa ra
as a
Ġtaki q
aska chawwan
ta ta
Ġy uraq
Ġall i
niy oq
Ġanti kunapi
uychi chawwan
Ġk rus
ti a
Ġquyllur chawwan
Ġillapa chawwan
d ri
n u
Ġwa ki
Ġqan chis
Ġatipa chawwan
Ġin di
Ġaliman ya
2 9
que chua
ĠiÃ±i y
q ill
ap ay
ti r
ci o
Ġla tin
Ġy ay
yki chis
2 3
Ġpay qa
Ġchi li
Ġs uqta
Ġha ll
Ġa ra
Ġsimi kunatam
Ġj uk
Ġsuy un
Ġt e
Ġri k
Ġqillqay pi
ru wan
qalla riy
Ġama chaq
pun ku
ll ana
Ġm on
Ġqh e
ĠÃ±a k
a riy
ch uy
Ġay llun
inki mun
ĠÂ ·
Ġtari pay
paqa risqa
l es
Ã ¶
Ġpe dro
t ura
ti lla
Ġkasqan ta
Ã± am
chi rqan
Ġan d
Ġwan ka
Ġwarmi qa
t or
Ġma ll
Ġpacha k
Ġja tun
Ġimay na
Ġanqa sh
Ã© s
Ġkus i
Ġkash an
c k
o sqa
q usqu
Ġkan anpaq
Ġpacha kwa
Ġbuliwya pi
anqaman qa
kuna pa
Ġje ho
c ul
s is
Ġi Ã±u
chin apaq
Ġwa lla
Ġwata kuna
ri manakuy
Ġya qa
d on
Î ±
ku ra
er e
b uliwya
t ra
Ġti yaq
c is
l os
u Ã±i
Ġsay witu
q e
Ã ¤
Ġpay kunata
Ġaswan ta
Ġari qipa
y ana
ll wa
Ġkan man
Ġchas ki
Ġwall tay
a pa
Ã ¼
Ġpa ta
Ãº s
" .
way i
Ã± an
cion al
par tam
Ġma chu
Ġt ant
Ġri manakuy
Ġpi s
Ġj all
Ġse Ã±or
waÃ± usqa
b u
gu a
Ġu taq
q in
ruwan u
ma s
is kay
as pan
Ġmun ay
pus apusqa
pi taq
Ġyacha chiq
Ġpuk llay
g el
m pu
v ar
Ġama chasqa
e z
nin tin
nin qa
Ġruna s
ins uyu
kay mi
p ur
t uy
Ġmaq anakuy
ap u
os a
Ġwa w
Ġt in
Ġrur ay
Ġa ch
Ġkan cha
Ġ Ø
Ġpu ri
Ġhu cha
all pa
g ra
lla sqa
Ġka chun
istri tu
tam pu
Ġchun wa
Ġpachan tin
Ġtant anakuy
Ġpa pa
ku pi
Ġkay ta
la tir
t us
in lish
Ġmunisipyu pi
Ġur alan
Ġpay kunaqa
Ġkap chiy
Ġamaru mayu
partam ento
en i
Ġqa y
Ġy ur
h am
ku man
t es
Ġs ap
an apaq
Ġi wrupa
ĠwaÃ± uy
Ġtar inki
Ġson qo
Ġs am
Ġmi llay
a ki
ur qu
Ġpi ruwanu
ÃŃ o
Ġu j
8 0
Ġkan i
Ġes ta
Ġriq si
ta ri
Ġk uy
ti y
Ġpi pas
Ġkan ki
latir ra
Ġ x
Ġpiruw pa
Ġpuk llaq
Ġjall p
g us
kun qa
Ġ ),
Ġnin chik
Ġrima sqa
Ġsuyu kunata
b re
Ù Ĭ
er to
Ġro manu
wan pas
Ġj unt
Ġpay kuna
Ġo f
Ġllimp h
Ġindi hina
t r
Ġwa llapi
Ġta wan
Ġ19 0
Ġkama sqa
Ġway ra
Ġw in
Ġuyar ina
katiguriya kuna
Ġmikh una
t ro
Î ¿
Ð ¸
wan a
Ġyana pa
mus uq
Ġp urin
Ġl os
Ġdy uspa
ver si
, [
g al
ch kaq
in ti
manta pas
Ġkan an
Ġmis k
c al
p ruwinsya
co s
kan tin
Ġkap uq
tia go
lan d
Ġhun u
Ġma wk
Ġde partamento
Ġchi qa
ku wan
Ġkul um
ar in
l ay
k uyu
un ya
Ġr us
âĢ Ļ
Ġta y
p ana
Ġj o
c on
Ġpu riy
Ġun u
r am
ll in
tin pi
ama chasqa
Ġbi bli
Ġrap hi
Ġa u
Ġruna llaqta
el qa
Ġg a
Ġkay mantam
h ay
ta d
Ġqill qan
Ġro ma
Ġuyarina kunatapas
di os
Ġgri gu
er qa
Ġlla ki
Ð °
Ġc ant
Ġ18 9
Ġlli ka
mi r
Ġni yta
Ġp hu
as pi
Ġman u
Ġy un
ol o
ti qaqa
Ġima ta
Ġchun kantin
Ġjes Ãºs
Ġchas kisqa
Ġh ur
Ġwa mp
nin kuna
en os
Ġqucha pampa
4 0
6 0
a k
m uyu
w ri
is h
ku r
Ġwi ki
Ġpis qu
t insuyu
ya chay
Ġka r
Ġqa qa
Ġpruwinsya p
Ġkama chiq
kunan paq
Ġkur ku
Ġkulum bya
t hu
ĠÃ± it
la tin
19 9
dri d
d istritu
aq kuna
Ġkaws an
Ġre y
amp usqa
in ka
Ġnisqa taq
Ġrur asqan
Ġmar ÃŃa
Ġdi osqa
Ġ200 7
ĠwiÃ± aq
say witu
ma wk
Ġp or
Ġqa m
Ġkan chu
Ġpu riq
vi a
Ġkall pan
Ġahina taq
b lo
Ġpus ampusqa
Ġima rayku
Ġmamallaqta pi
e d
Ġh o
li ma
gu el
Ġwasi pi
t ana
Ġra ki
Ġa ir
Ġsi r
ĠÃ±iq i
os qo
ar qa
3 8
f or
Ġka us
Ġa b
Ġchin ka
e t
Â ¿
Ġ com
Ġs hi
chin ku
Ġhall ch
) ;
/ /
ki chu
Ã±aw paq
Ġh i
ya ku
Ã± o
Ġwatapi s
ha llka
ris qan
Ġv al
Ġsuntur nin
wan qa
Ġpi rqa
chis paq
in g
ka may
Ġri mana
r ur
à ¤
ka ws
Ġpi k
Ġqhi pa
Ġair es
t os
Ġm ur
Ġhu Ã±u
Ġhin aspan
Ø§ ÙĦ
Ġpa kay
qu i
Ġu t
e ra
k ana
Ġas h
Ġ201 3
lan tilla
Ġimay mana
: //
Ġ taq
Ġchunka wata
aqu cha
rist o
Ġesta do
ll is
Ġwa wan
uq u
Ġwata kunaqa
Ġay cha
Ġyachay kuna
pe dia
Ġsun qu
b ur
Ġj am
an g
Ġan ton
chiy ta
ik r
Ġus a
3 5
Ġwata yuq
Ġruna ta
Ġpar ti
4 7
u chu
ku rqa
ĠâĢ ĺ
cis co
Ġkay pi
Ġin lis
Ġkas ha
p er
Ġka may
Ġcha llwa
o j
Ġin latirra
Ġkama chin
p or
cha s
4 5
n aq
w ra
man chu
on i
3 9
Ġp ul
Ġ18 7
3 2
r os
y oq
an do
âĢ ¢
Ġf i
ina kuy
chan apaq
u ta
Ġqucha m
e mp
h tt
Ġq un
chin chay
Ġruwa sqa
Ã±iq i
i ru
ta taq
Ġr in
Ġpa la
Ġin ter
Ġu ku
3 6
Ġnisqa manta
Ġchay am
Ġw is
as uyu
Ġf ern
Ġvi lla
i ku
lla s
Ġ201 8
ĠhuÃ± una
Ġwaman i
Ġanton io
s anta
t si
Ð ¾
ll pa
ki m
Ġg ar
Ġuy ari
Ġkiti m
Ġna cional
an mi
as h
Ġha wan
Ġja ch
Ġuni versi
Ġcant Ã³n
Î ¹
Ġs ar
Ġma drid
pan ku
Ġhu ch
Ġhun in
d al
an ti
Ġll uqsi
chi ri
hu a
Ġway na
Ġno bel
s al
t Ã¡
pay a
Ġhay k
Ġtaki chaq
pa k
Ã± ul
tin mi
Ġc i
thu liku
Ġ xi
ka ra
Ġwilla kuy
Ġ ana
Ġhuk lla
Ġkaws anku
p ro
q si
r ispa
an ka
Ġwa ti
Ġsimi tam
Ġri kuy
Ġsuti chasqa
Ġmikh uq
k ta
ay kuna
ku rqanku
Ġllaqta man
us qan
ra ta
Ġmunisipyu piqa
ol ÃŃ
Ġruwa sqan
Ġqillqaq mi
Ġmas t
7 0
p si
q ha
Ġs ara
wa s
Ġwa s
way a
b ar
n am
Ġn as
as ta
nin manta
ul u
Ġc am
lan da
Ġuk hun
Ġwanka willka
Ġimarayku chus
htt ps
" )
r y
ma ri
chi killa
Ġsutiyuq qa
Ġsan tu
d y
j osÃ©
l or
u c
Ġ =
Ġpa tapi
Ġri kun
paq mi
Ġwak cha
4 6
w u
ta wa
ll anta
Ã± uq
Ġsan tiago
in i
is uy
ri may
Ġka chka
uq ucha
Ġwan uku
Ġmayu m
g ri
p ha
q on
chay mi
Ġan ka
ber to
4 9
a llam
f o
Ġq ur
Ġnisqa wan
Ġnisqa pas
Ġchay wan
s uy
Ġ Î
man qa
Ġnisqa m
Ġmana Ã±a
Ã¡ s
j e
j es
Ġk in
ti yanu
Ġkiti pi
Ġ aq
Ġ on
an d
Ġs er
Ġll uq
Ġman chay
Ġ18 6
c el
e o
kuna s
uk si
ĠÃ±iq pi
Ġas kha
lu b
kunan ku
Ġkun ti
chun ka
Ġkamachi kuy
Ġpachakwa ta
Ġchaski rqan
3 3
m en
Ġka chi
Ġd is
Ġmun i
b le
s on
Ġk uraq
Ġt un
Ġf e
Ġrun aq
Ù ħ
ka cha
Ġt or
Ġmi guel
Ġ18 8
19 8
Ġpe ru
Ġpik chu
g an
Ð ²
ay niy
Ġwa ran
Ġmana taq
te o
qucha kuna
4 4
Ù Ĩ
wa k
us a
go v
Ġwillka chasqa
p urqan
t s
y ku
an ay
Ġka thuliku
Ġnisqa ta
wi kuna
gen us
Ġjeho va
e i
g os
ti ya
cha qa
chay manta
Ġsay wa
ta yta
ĠÃ± isqa
la w
hi ka
Ġukhu pi
ri maq
Ġhu wan
Ġmall kiq
pi o
Ġka w
200 6
j i
p hi
r ina
u mir
Ġpa pam
piruw pi
a chi
c er
k hu
Ï ģ
Ġj ap
zo o
i may
k ina
an chan
ka m
Ġq elqa
Ġa pay
Ġm or
nin ku
Ġy aya
Ġsan to
qay ku
Ġaya kuchu
llis in
Ġima tapas
re z
Ġkun ka
Ġne w
l am
t en
z ar
chay uq
Ġin lish
Ġni rqa
Ġkall pa
ĠÃ±o qa
a kun
Ø ¯
Ġa m
ar an
Ġqa ra
kay pi
Ġti tiqaqa
Ġkaq ta
Ġancha ta
org e
b as
ka chi
nin wan
es pi
Ġpruwinsyapi qa
Ġyacha chisqan
yki ta
Ġ200 9
Ġrunasimi pi
4 8
pa ra
Ġr am
Ġma ki
on g
Ġqu i
Ġmin ist
Ġmuni ci
llisin chi
a w
Ù Ī
Ġwa ri
Ġsi chus
Ġi Ã±
ar is
Ġwi k
Ġb er
Ġpuk ll
Ġjesus ta
c an
d as
Ã± as
Ġan gel
Ġes pi
i kwadur
u pa
Ð µ
ku sh
ar do
allam pa
wa t
paq pas
Ġta kin
Ġkarqan ku
Ġl as
Ġmi ray
Ġaswan pas
Ġllimph iq
7 8
Ġd ere
Ġmar kus
isuy la
v en
Ġh er
Ġnisqa p
ar qanku
Ġti emp
Ġhina qa
Ġyachay wasi
Ġun q
Ġispa Ã±ul
Ġbu enos
Ġyur am
g na
u ch
Ġ201 6
4 1
d er
Ġka Ã±
Ġm os
Ġqu ri
Ġ200 8
âĨ ĳ
Ġ201 0
ay tu
Ġt he
Ġtu ta
all in
Ġchan ka
q en
in e
chay ta
Ġkus a
Ġfran cisco
mis hiku
i pi
p usqa
Ã £
Ġ Ï
Ġk ura
Ġp p
cha sqan
Ġt us
Ġqu llqa
Ġy or
Ġpu erto
kunapi qa
Ġjes uspa
Ġchin cha
Ġimay ay
qill qa
' '
4 3
Ġs aya
Ġh ara
Ġli pis
Î ½
Ġp anta
lis ta
200 5
Ġtiya chkan
a t
m aqta
Ġk um
Ġr ÃŃo
Ġ18 5
Ġkus ka
Ġlu is
Ġpin chikilla
Ġtawan tinsuyu
0 9
6 5
v al
Ġs uni
lla wan
Ġi man
ÃŃ as
aya li
bo o
Ġiwrupa pi
ay paq
Ġpa ka
wi Ã±ay
Ġcha ki
Ġdo min
_ _
a liman
o ta
Ï Ĥ
ri pi
ti ka
qan qa
all e
raq mi
f ran
mi lia
Ġa bya
Ġma si
chi li
chi kun
Ġt ur
os e
Ġ3 5
Ġchi ri
Ġfern ando
t re
Ġsu pay
kunapi pas
Ġchi m
Ġ201 4
Ġinlis ya
Ġkasha marka
b an
p una
Ġch ura
Ġis qun
Ġkawsay kuq
cha kuq
ar hintina
Ġg o
Ġkama china
Ġwasi kuna
Ġriku sqa
Ġ201 5
Ġkh uy
cul tad
ikr asqa
s ta
Ġs apan
Ġll oq
Ġpacha man
Ġni hun
Ġpar is
ju an
Ġfa cultad
9 9
m er
r ap
Ġwa psi
Ġsimi kuna
kun chu
Ġc ru
ĠÃ±awi rin
Ã ¯
ma la
cha spa
Ġma kin
Ġra kin
Ġnin ku
a c
b al
d an
y n
Ġa ws
Ġa le
ru chiri
en cia
kaws ay
Ġpukll aqmi
á ĥ
Ġiskay niyuq
Ġ200 6
war mi
Ġtuku rqan
a kuy
Ġr ura
wan ka
Ġb eni
Ġ201 7
Ġumalliq ninmi
wiki pedia
Ġyan ap
ĠwiÃ± an
Ġjan pi
olÃŃ var
Ø ¨
Ġka ran
Ġpa tan
en o
kuy chis
Ġc er
Ġku pa
Ġcar los
a e
v an
Ð º
Ġ aqu
ta chus
Ġa si
Ġr es
Ġwilla Ã±iqi
han aq
Ġrimaq niyuq
ĠÃ±u qa
ĠÃ±u Ã±uq
e y
e la
un ku
Ġpa ul
Ġpacha manta
Ġkawsay nin
Ġham uq
Ġham ut
Ġkitilli pi
Ġllu mpa
Ġk ana
ya sqa
man pas
Ġis ra
Ġyacha chi
Ã±aw pa
Ġpun ku
i kunayuqmi
man i
tu pi
Ġhina ta
Ġmar tin
Ġun riya
ĠÂ ¡
Ġparti du
Ġmunici pio
boo ks
a chisqa
Ġi Ã±iq
Ġpi liku
er us
pay ki
pun in
Ġe di
6 8
g as
Ï Ħ
Ġh e
Ġqa wa
Ġni r
Ġchas kin
Ġkris tiyanu
Ġchaq llisinchi
ĠiÃ±u ku
p uq
s am
Ġ Ø§ÙĦ
ri ca
uk i
Ġl aq
Ġhina taq
vi d
ris ya
Ġyu pan
Ġlu ritu
Ġdomin go
) [
3 4
j ta
n an
ta sqa
in qa
Ġll ap
Ġpu Ã±
Ġli b
chin cha
Ġkun anqa
h ar
w is
z i
ka mayuq
Ġpa l
Ġchi qan
0 4
h n
s ha
in ec
Ġwi llan
âĢ ĺ
chaw pi
Ġwar min
Ġun ay
d is
p uk
ay u
Ġpa w
kunapi m
Ġu p
lli w
raq ucha
7 9
a man
c tor
t ÃŃn
Å į
Ġll ulla
Ġm uy
Ġma t
Ġt h
Ġcha k
ris ti
ĠÃ±awirin aykipaq
b am
Ð ½
Ñ Ģ
Ġs us
Ġp uma
Ġsi pi
ha k
Ġham un
chun wa
Ġmuna sqan
muy un
d un
s aq
s ut
w isa
ri t
Ġa ph
Ġi i
ar y
ĠwaÃ± un
tan ka
Ġrimay mi
Ġe du
ĠÂ «
Ġuyar ispa
Ġyaw yu
Ġbibli a
Ġshi mi
à ¦
Ġ os
ta ra
Ġka wa
Ġi r
ra do
Ġsu maqta
Ġru waq
Ġkun tur
Ġra kiy
iy i
Ġyor k
3 7
i wa
Î »
pa ri
en te
Ġmi ll
Ġanti kuna
0 7
u ri
Ġch ina
us aq
Ġsi pas
Ġsuyupi qa
ni a
ne t
0 6
e b
i chu
ku sun
Ġsu ma
di o
Ġpacha ta
el o
Ġ3 6
Ġche qaq
Ġjeho v
Ġkancha r
Ġau gus
. )
i ra
j an
Ġpa t
wi ya
to ri
Ġdios ta
Ġninchik mi
Ġtiemp o
s iq
Ø ±
Ġk lub
Ġp re
ap ur
tu m
Ġl on
Ġima pas
Ġrimay ninmi
rika pi
Ġkawsay ta
Ġyura kuna
mun isipyu
Ġkitilli piqa
g una
Ġka lla
wi k
Ġl ampa
Ġg e
aya kuchu
0 3
g ro
ay niyki
Ġs ur
Ġka maq
wan chik
es t
Ġwi Ã±a
Ġl in
Ġqalla ri
Ġmay pi
Ġju ch
mur qan
Ġrimaq kuna
Ġchaw pin
Ġk ins
man tan
Ġka pun
us i
Ġma ra
Ġmay qin
Ġqucha pi
Ġiskay nintin
Ġre gi
Ġes pa
Ġtuku kun
5 9
g er
Ġr osa
Ġt ra
Ġti yay
d os
f f
t y
ch en
chi kuq
Ġri kh
li o
kun anqa
chay kamay
way uq
pu litiku
Ġpay mi
Ġkama risqa
kura china
Ġsap si
Ġwin isuyla
erus al
5 1
g h
t ral
an am
un chik
Ġs hu
ku manta
Ġq on
qan chis
Ġpa blo
tu gal
tin qa
Ġis a
de z
icha ka
allpa manta
y kuna
kuna lla
Ġka rum
Ġwa tan
qan ta
Ġma ri
manta pacha
Ġt hu
es a
Ġrimay kunap
Ġchi ki
Ġv el
Ġsaq ra
Ġrik hu
Ġtay tan
a j
b ra
d el
an chaq
ku ptin
Ġm uru
Ġsi wikuna
Ġkay mi
qu lla
Ġpaqa rin
ĠÃ±aw in
Ġkichwa pi
Ġwaqa china
c to
i chana
o ra
s hi
Ï ĥ
ch anta
Ġp unchaw
ki chwa
Ġb us
âĢ Ķ
or qa
Ġas yapi
Ġsuyupi pas
chin qa
Ġway llu
yun mi
Ġak lla
imay na
d yu
un ki
wa wa
wa ra
Ġp ana
lla qa
Ġa f
wi kipidiya
Ġsuyu kunap
Ġruna kunaq
co l
Ġrunakuna man
Ġg re
Ã© r
Ġyura kunap
Ġphi Ã±a
Ġmanu el
Ġpul unya
4 2
u llu
Ġh ar
Ġch iq
ap una
tu kuna
Ġc al
Ġsuti paq
Ġni rqanku
Ġli w
Ġ201 1
cion es
Ġkin ray
5 6
z e
Â »
Ġqalla riy
ÃŃ s
b rasil
ay qa
Ġwa ruchiri
Ġq e
Ġa jina
Ġhuk kunapas
Ġl an
ispa Ã±a
Ġqalla rin
ran s
ce ae
Ġpro fe
ber t
Ġmaq ana
Ġapu rimaq
Ġbo li
wi t
en s
Ġllam p
Ġcha ka
Ġkama chisqan
Ġchi mpa
Ġar ÃŃ
Ġmuna spa
Ġmas k
Ġak llasqa
Ġhunu chÃ¡
kuyu chisqa
Ġtaq na
r on
ta ki
Ġh is
Ġp lantilla
cha r
cha kuna
Ġq espi
Ġma man
as u
Ġchay lla
ul a
Ġrur un
Ġrur ana
Ġun ancha
Ġwaq lli
Ġrun an
tuy is
Ġuniversi dad
Ġnas yun
7 5
n es
Ġk o
ya w
nin chik
Ġsuyu qa
Ġqh es
chis ta
Ġmi ra
19 6
Ġsir k
b ri
h ka
Ã §
Ñ ģ
Ġk uru
Ġwata kunapi
as co
chis chu
Ġkaws ari
chin chik
Ġchi k
Ġjes uc
Ġlon don
Ġwayllu kuq
0 8
d re
i p
Â ¡
is ya
ka p
Ġn una
tu l
ayuq mi
Ã±a chu
Ġur asuyu
Ġpay pa
Ġpruwinsyapi pas
Ġqha li
Ġmus i
a u
c es
ll e
ri da
Ġp aq
Ġn or
Ġpa chaykamay
nin si
Ġc risto
Ġqu ta
Ġkan mi
Ġrur an
201 0
Ġwaran iyi
Ġdere ch
Ġhara wi
Ġpaw lu
. "
0 5
8 5
y s
Ġs as
Ġp la
qan chi
chi rqa
Ġt er
ĠâĢ Ķ
Ġ200 3
qill qaq
Ġayllun mi
bam ba
l d
Â °
ya cha
Ġq os
uq yay
Ġd u
Ġj ay
Ġwi raqucha
Ġb an
Ã¡ r
Ġyu pa
Ġrima sqan
Ġriq sin
Ġwawa kuna
aqtin mi
Ġkuy uy
Ġyun ka
0 2
c ri
c re
e ri
q osqo
Ġs apaq
ka ru
us illu
wan ku
Ġwar ma
Ġmuna sqa
Ġran ti
Ġuru wayi
Ġpatan pi
a la
Ð »
ta sa
nin kunata
Ġb olÃŃvar
Ġur ma
Ġtu llu
Ġ200 5
san tin
Ġchaymanta taq
Ġkamayuq nin
tion ary
Ġpukllay kuna
Ġqaqa tampu
bur g
kim sa
a kuq
m Ã¡n
Ä ģ
Ġs h
Ġa d
Ġllaqta ta
uma lliq
Ġc an
kama risqa
kan cha
Ġpay man
llaqta kuna
Ġmuna kuy
Ã±iq iq
Ġda vid
kunanku paq
9 0
j as
Ġ Ġ
Ġa me
Ġj erusal
tin ku
Ġg ra
Ġwan ku
Ġat uq
Ġbi ble
ĠispaÃ±a pi
Ġmishiku pi
ĠhuÃ± usqa
Ġkum un
Ġkins a
a wya
f t
f ec
r Ã©s
ay pi
Ġn iq
Ġch uk
ill an
Ġchay na
chay rayku
Ġb uli
Ġis pi
asqa kuna
unchay pi
Ġjesus taq
Ġrus iya
r ka
r ana
Ġ æ
ti ca
man an
ur qa
Ġsimi m
Ġg er
Ġpar l
Ġkus isqa
Ġchanin chasqa
5 5
7 1
n iq
ti llo
Ġq ol
Ġri o
way lla
Ġg ene
Ġis h
Ġriku spa
Ġpusaq ninqa
gi o
ancha r
cu a
Ġpisi lla
' ,
f re
i x
p lantilla
Î º
Ñ ĩ
wa ri
ar e
Ġri ki
ray kun
Ġpacha mama
Ġmi cha
Ġrunakuna paq
lu m
Ġ201 2
Ãº n
aynin ta
200 8
Ġkasqan rayku
Ġwall qanqa
Ġkantun pi
Ġson qon
Ġbrasil pi
Ġara bya
Ġach kha
i ri
wa sh
ur o
us co
Ġma ch
Ġi landa
kun man
Ġl or
kan i
Ġu chuy
Ġmayu kuna
Ġv er
Ġpachakwa tapi
Ġkallpan chaq
Ã£ o
Ġyupan ki
a ka
m ripi
ch q
pi ta
wa sqa
ki ya
anqa kunata
ar d
Ġkay qa
tu cha
es pa
Ġta k
Ã±a wi
Ġ3 4
Ġf o
Ġli wru
ptin mi
Ġyachaq si
7 6
l ap
p en
p anta
q us
r en
t ru
y o
Ġp aqta
Ġm el
Ġsimi qa
on e
on z
Ġya rqa
Ġwi ra
Ġb il
may o
Ġqa llu
Ġwatapi qa
Ġrunakuna pas
ci al
ĠwaÃ± urqan
ari o
200 1
pus aq
Ġkantun mi
Ġach kiy
Ġisra el
a kunam
à ¸
ch anqa
Ġn erqa
Ġn anay
ki ta
ap uni
manta q
as llapi
nin man
Ġchay man
way ku
kama qa
chik paq
vi er
Ġ4 0
Ġ200 4
dur as
ĠâĢĵ Â¿
Ġmikh uy
Ġca li
ne y
simi kuna
Ġwaq ya
i lla
n g
t uyuq
in ta
Ġq osqo
Ġwi kch
Ġta ta
or o
Ġkaq kunata
pu ka
Ġrur anapaq
Ġkiti p
ut h
Ġra w
Ġurqu kuna
Ġuk ayali
Ġllapa llan
Ġaw qan
ukun ayuq
Ġwaqa chiq
Ġmancha ri
Ġchiqa p
Ġqhes wa
8 9
i ch
i man
q ispi
Î µ
Ġ ura
Ġp una
ru mi
nin chis
pas pa
Ġur ay
Ġqha wan
Ġpus apuna
Ġkaptin mi
olo g
Ġwati mala
7 2
n as
r uru
u tu
ma chu
wa kin
Ġllaqta y
Ġu ch
chan ku
Ġyacha chin
ani el
no bel
Ġpichqa yuq
Ġqar q
a manta
m Ã³n
Ġs ha
ti tu
ka ta
Ġpa Ã±a
ar ani
iq tay
si p
Ġwi t
Ġb al
Ġ3 3
Ġ200 2
Ġre q
uni dad
Ġno qa
ĠwiÃ±ay paq
e go
m usqa
cha rqan
ki chik
Ġm en
kun mi
vi lla
Ġ199 0
Ġmikhun chik
Ġimayna tachus
Ġs ol
ri ma
ku si
Ġm er
Ġma riya
ru ma
Ġt ri
Ġsuyu manta
Ġki ki
co r
co cha
mama llaqta
Ġph uyu
Ġsun qun
Ġlo ay
Ġrap hin
fa milia
8 8
i Ã±i
s en
t uq
w t
is uyu
wa man
wa rqan
ti k
ku ru
chi kuy
paq qa
ist an
Ġpacha ku
Ġqalla wa
Ġpay kunaman
ran i
Ġcu er
Ġkacha ri
Ġqhe pa
Ġespi ritu
Ġloay za
a kunata
Ġ 000
Ġi llan
ĠÃ± uq
Ġkay kunatam
Ġl ar
Ġ3 2
chin am
Ġkiti piqa
Ġv a
wiki books
it uy
Ġkikin pa
gri gu
Ġcru z
Ġrikh urin
tral ya
t uk
ta chu
kuna chus
ri k
lla manta
Ġch hi
Ġma sin
ap un
ar o
si r
es ta
Ġc ul
kama chiq
ni hun
Ġf u
Ġyacha chisqa
Ġdios manta
Ġco l
Ġro ck
Ġgu a
Ġtakiq mi
ĠhuÃ±una kuy
] ,
d ra
Ġ '
ma l
cha ta
Ġ( "
us h
qan tin
ap tin
Ġi ii
Ġchay ri
Ġchay kunata
Ġay ll
al es
Ġkaq lla
pu ri
pan mi
Ġpuq u
de o
Ġqan kuna
Ġqan chi
kaq pi
ĠØ ¹
u chun
in as
Ġs uq
Ã± un
ill im
Ġj uli
qu ia
Ġin dya
Ġkus kan
se Ã±or
va do
Ġpuka ra
fa el
llin mi
Ġchaywan pis
Ġram Ã³n
Ġmos oq
muyun tinpi
Ġgene ral
a chinku
c ÃŃa
g n
g un
i mi
qa ku
un kichis
ka maq
Ġm uq
Ġm uksi
Ġt an
Ġchay si
er ra
Ġwi ll
Ġqillqa p
Ġy anqa
or d
Ġpu li
riy ta
niy oj
qucha pampa
ama ru
Ġyaw li
c ay
m uspa
Ġ ;
pi na
ma si
Ġll ut
us ta
Ã±a taq
Ġpacha qa
al ma
runa kuna
Ġdios mi
ari qipa
Ġyaw ri
Ġtuk ri
Ġtawan tin
dios pa
Ġqol qe
m pis
an chis
Ġkay kuna
yu pi
Ġman as
Ã±a ri
Ġtu paq
china kuna
ter o
Ġkaptin qa
Ġanqa s
ĠsuÃ±ay tas
Ġkalla waya
d am
t hi
u wa
Ã ¨
Î ·
lla rqan
ku l
Ġwa ch
Ġr uk
pas qan
Ġsu wa
Ġmana Ã±am
Ġu man
Ġe mp
ayki chispaq
Ġand rÃ©s
ros o
cel ona
gna cio
e li
m os
Ġ +
ch qantin
ma sin
Ġs ina
mi li
Ġa cha
ap o
Ġsimi man
Ġkan chik
Ġkan kichis
Ġla guna
Ġhan an
Ġmamallaqta p
Ġchaq r
for nia
tsi k
Ġkumun ista
a mi
una paq
Ġh uq
man am
ka chay
Ġr ayku
am pi
Ġha w
Ġcha qa
Ġwar as
anku ta
Ġ200 0
chka ptin
Ġkus ituy
Ġrima rirqan
Ġpara wayi
5 8
a wqa
e x
g re
i kuna
k isi
Î ¼
cha ki
Ġt ru
Ġc amp
Ġkaq wan
Ġcha cha
Ġg i
Ġg ran
Ġg onz
llan ku
Ġyachay ta
Ġpar kipi
Ġkiti llinmi
Ġmunisipyu p
Ġmis h
Ġanta Ã±iqiq
llataq mi
Ġikwadur pi
Ġrimaq ninmi
Ġinka kunap
Ġmu ch
Ġ198 0
6 4
g on
ll anakuy
Ġwa ka
Ã± in
Ġa Ã±a
ill aymi
sti riya
ist e
kunapi s
Ġ3 8
da e
mar ca
Ġati q
iti pi
ĠÃ±awpaq ta
mur qa
quy llur
Ġkim santin
Ġatin chu
Ġruway ta
aliman ya
b il
d ru
q uq
u p
z co
Ġk una
Ġs isa
Ġp uy
Ġp ru
cha m
ya qa
Ġwa l
Ġpi la
âĢ ĵ
Ġc ara
Ġqillqa rqan
Ġkaq qa
Ġpu tu
Ġmi khu
pay kunaqa
Ġmay ta
Ġqucha p
Ġrimay pi
mp ur
Ġsutin ta
qhi paq
tis uyu
Ġllu mp
Ġwalltay pi
Ġwaw qe
Ġunq usqa
5 3
7 4
i pa
k aqta
y manta
Ġ å
Ġ ins
in t
ri l
Ġma Ã±
chi qa
yu pay
Ġj ose
Ġqu chu
Ġy ayku
Ġan tanka
Ã³ r
te ra
pe z
Ġway las
ol e
que z
Ġsuy ukunayuq
Ġallpa manta
llun ku
Ġaliman yapi
chuq iyapu
Ġtuk tuyuq
Ġpala ma
kara wa
Ġon qo
tiya kuynin
Ġsus ya
Ġmaypi chus
Ġpana ma
c ana
h ul
i rqan
q ur
x a
Î ¯
Ø ©
an as
an ayuq
ll uq
pi wan
is mo
cha kuy
ki tu
Ġ1 00
Ġt es
ar es
Ġha ma
ill e
kay uq
Ġsa ma
Ġsan am
suyu kuna
ayki chis
Ġtayta kura
Ġsun quy
Ġpur tugal
Ġpaqari chisqan
kur ku
Ġwis q
Ġser vi
Ġsas acha
a lli
d us
u ju
is mu
Ġr os
kay ta
Ġmana taqmi
chik ta
Ġ3 9
hu wan
Ġni taq
Ġli bre
Ġyura kunam
Ġmit ru
niy ku
sun chik
Ġkall pacha
Ġph aq
Ġ194 7
Ġhampi kamayuq
Ġnu qa
Ġbe la
Ġchili pi
Ġminist ru
Ġliw rum
1 00
5 4
a b
a chka
b all
m or
p ayuq
Ġ za
Ġk hu
aq ha
pa l
Ġs huk
Ġs uya
Ġch hika
Ġd es
Ġhuk niyuq
wi d
kun i
Ġta rin
Ġqu tu
Ġan ima
Ġallin chu
Ġqhichwa pi
Ġwarmi kuna
Ġchu ku
Ġyan apan
icha qa
Ġaph rikapi
ĠÃ±uq anchik
a kisqa
i talya
o p
u pi
Ġ Ð
qa s
ri llo
Ġwa way
ka pun
Ġma may
Ġsi k
Ġki tu
Ġwi chq
Ġqa si
Ġkaq kuna
llan taq
Ġf lo
Ġway ta
tawan tinsuyu
Ġju cha
kunawan mi
Ġruwa kun
ral es
kas ha
Ġsuqta yuq
Ġmall ki
Ġamachasqa m
Ġvel asco
Ġemp res
8 1
e p
e v
o t
z u
Å «
É µ
Î ¬
Ġ manta
pa ka
wa ka
Ġq us
ur wi
wan chu
Ġma g
Ġki ll
la ta
Ġb ern
Ġwatapi m
Ġc ent
Ġmi c
Ġqalla rispa
Ġmun ani
Ġru man
do l
Ġallin mi
Ġhay Ã±i
all qa
Ġchin u
Ġchin chi
va dor
bi r
Ġcon tra
rist oq
Ġrik cha
Ġphu kuna
Ġukhun pi
Ġkana da
Ġjehov Ã¡
Ġboli via
Ġillan chay
urwi ga
a wan
b r
Ġk ha
ku ma
Ġch ill
ur an
Ġya pa
Ġllaqtapi pas
Ġqa ti
Ġta mpu
Ġcha r
Ġpay wan
Ġqucha kuna
Ġmar tÃŃn
kuq kuna
Ġre qsi
kunamanta qa
Ġmus ika
lliq i
ptin qa
Ġju d
Ġyaku pi
ber g
Ġ198 4
niyki chis
Ġqhawa ri
Ġqhawa riy
Ġak llanakuy
Ġrikhu ri
e m
ch Ã¶
pi l
Ġk is
Ġk hi
Ġp uru
ur qanku
Ġma cha
Ġpa z
manta taq
Ġruna man
Ġqa ri
Ġc usco
kay u
chik pi
Ġmun aq
Ã³ ni
na ta
Ġrimay nin
Ġe x
Ġro d
Ġkitilli m
Ġuru pampa
Ġqispi qanchi
Ġpur tuyis
Ġmon te
urqu kuna
pruwinsya piqa
Ġash kha
a ve
ti yki
Ġp l
man jina
ka kuna
Ġq ura
Ġm ina
chi ku
Ġri rqan
Ġllaqtapi m
chay pi
tin kurachina
Ġb as
Ġas lla
Ġkaq pi
to l
Ġg risya
chan i
Ġtu kuspa
Ġyachaq kuna
Ġhinaspa taq
Ġor qo
Ġtiksi muyu
Ġrimanakuy ninpi
Ġtakichaq mi
Ġwanku risqa
amaru mayu
Ġsanam pam
d f
m una
p ul
u kuna
ll uma
ll uqucha
un man
Ġs asa
ri mana
Ġp Ê¼
Ġwa m
Ġsi l
Ġb ra
Ġb en
Ġkaq tin
Ġdistritu pipas
ran ku
Ġni y
Ġqha tu
Ġrimay kunapi
Ġ5 0
Ġkuti ri
200 7
buliwya pi
rimay kunap
Ġaws tralya
h ark
m y
p l
p tu
s ar
t anta
u i
qa sqa
ti co
ti en
Ġsimi p
nin pa
nin kuta
li k
Ġya lap
ran sis
spa qa
Ġtu ll
Ġway ll
Ġv e
Ġurqu pi
rqanku chu
che z
Ġ198 1
be t
mpi ku
Ġmuyu riq
Ġsuyun mi
Ġlloq si
Ġlib ro
munisipyu piqa
Ġderech on
5 7
6 9
t una
u d
w li
Ï ħ
an anpaq
qa m
Ġh or
lla Ã±a
Ġka j
Ġka su
Ġn apay
Ġt s
ĠÃ± uk
Ġqh as
Ġqa rwa
kunata wan
Ġrur anchik
Ġf or
sh an
Ġe d
Ġwasi man
niyuq mi
Ġkunan kama
Ġwatakama m
th e
Ġ194 5
Ġhinallataq mi
Ġcor d
Ġtanta sqa
Ġjo hn
Ġut c
Ð¾ Ð²
lor es
Ġkawa llu
cto ria
Ġjesuc risto
Ġmel gar
kisi wi
e to
s isqan
Ø ³
Ù ģ
ch hu
un chu
Ġk Ê¼
Ġh as
ya qaqa
Ġwa j
Ġa j
Ġa ta
Ġa gu
Ġi gnacio
ar ispa
yu p
ul o
Ġc risti
Ġf c
vi i
chin anpaq
Ġmayu tata
Ġway lla
Ġw eb
le y
sin ru
Ġtari kun
Ġllimp hi
Ġhawan pi
k m
u e
u is
v as
Ä «
pa rin
lla chu
Ġwa ra
Ã± ez
Ġr ay
Ġllaqta kunap
kun anta
gu ez
Ġhina chu
Ġkama ri
Ġrimay kunaman
all ta
unchay kunapi
cen te
Ġyan apay
Ġrun tu
Ġqi chwa
Ġwaman qa
Ġyun kay
Ġkulumbya pi
Ã±awpaq nin
rur asqan
Ġish kay
mpur asu
c ur
y uraq
Ġllaqta kunamanta
Ġm Ã©
anqa sh
Ġt ukun
Ġi ka
wi l
li le
es co
Ġrunakuna wan
pay qa
llan pi
sqan ta
Ġriku chi
Ġal berto
Ġimay nan
200 4
bi a
Ġran tin
Ġchu ri
Ġ199 3
pur qanku
6 1
8 2
b les
j p
p ÃŃ
t su
an kuna
Ġp ri
lla p
lla pas
Ġka Ã±ari
Ġllaqta q
manta wan
ar ro
rqan i
Ġha llka
Ġchay kuna
Ġpi wra
chay qa
Ġb el
Ġta w
kay qa
Ã¡ y
pay ta
Ġmay qen
ro quia
ca li
ca ciÃ³n
mana chu
Ġv alle
Ġmus iku
Ġayllu man
qh ay
Ġyuy aynin
Ġ199 1
ii i
Ġcu zco
Ġnisqan ta
Ġsap hi
Ġllimph isqan
uch qu
tori al
7 7
9 3
a hina
e du
f lo
p hu
u a
Å ¡
in cha
ti tiqaqa
ku m
ka ran
Ġa z
Ġa la
wan ki
ĠÃ± ispa
nin kunaqa
Ġya r
ill era
Ġqillqa ta
Ġpacha piqa
Ġkaq pas
kan u
Ġrur anku
sa llqa
Ġrimay ta
Ġati rqan
Ġvi r
Ġku ba
kichis chu
Ġ199 2
xi a
ima rayku
Ġwall pa
Ġmo is
car do
Ġtiksi muyuntinpi
Ġimata chus
ĠaÃ±a ki
jp g
9 8
b ara
c um
g le
m Ã©
s ayuq
u j
an pi
aq pas
Ġr is
anqa ta
chi wa
Ġt uma
li wru
on es
Ġpi chqantin
Ġb or
Ġuma lli
Ġpu tina
Ġdistritu piqa
Ġhatun mi
Ã³ pez
Ġhu an
Ġlli k
suyu pi
Ġuywa kunam
Ġ198 6
Ġ197 6
Ġ196 9
Ġfa mili
Ġbar celona
Ġhall p
Ġgar cÃŃa
wanka willka
Ġgre go
hul yanu
9 6
c in
p to
u ll
w e
Ġ Ã
ch inki
Ġp rado
ki ti
Ġt r
am e
qu ll
Ġas ya
chik chu
Ġni ran
Ġni ykichis
Ġni karawa
Ġun anchan
has pa
Ġra fael
ptin si
Ġes te
san tiago
Ġpulitiku pas
Ġpusaq mi
Ġchuq ichaka
kus ya
Ġ199 8
Ġsinchi ta
Ġnu e
Ġnu w
rÃŃ guez
Ġqay lla
payki qa
Ġklub mi
Ġcali fornia
h is
i la
y qa
y in
Ñ ĥ
Ġ ?
pi chqa
us pi
Ġma teo
chi lla
Ġruna pas
Ġta wayuq
Ġc l
Ġpay pi
ran siya
Ġf aris
Ġli yun
Ġmar cos
chiq inqa
Ġkawsay pi
kunamanta pas
chun ku
Ġmis ti
Ã¡n dez
ja ch
Ġkim sayuq
Ġba uti
xi co
Ġkuyu chisqa
Ġpas tasa
gra du
Ġuku cha
Ġkhuy apay
Ġame ri
5 2
9 2
a kunapi
g s
p on
Ġs hina
Ġma ria
Ġnisqa man
Ġri y
Ġki cha
en qa
kunata taq
Ġl Ã³pez
lin g
do za
Ġla ri
maq ucha
kunan tin
Ġpar roquia
Ġmayu p
Ġtiyan an
che q
ne z
bi bli
kus ka
Ġkamachi rqan
Ġ199 6
Ġ194 2
Ġ197 5
Ġpas qu
Ġto m
Ġsaywa chi
bas ti
Ġchim las
Ġchhi kan
b n
b iya
e di
i c
i z
i da
p x
Ġ %
ta rio
pa chan
Ġs Ã¡n
Ġka chkaq
Ġr ispa
Ġllaqta pas
Ġt una
Ġt Ê¼
wi lla
Ġki chka
Ġya ll
kun ka
Ġqa ta
os o
ha ma
Ġmana qa
Ġ3 7
runa simi
Ġkama rirqan
Ġli ber
Ġpuq un
Ġway q
Ġwilla sqa
Ġiskay nin
Ġ4 3
Ġe t
kunamanta m
Ġo c
Ġnin mi
hin tin
Ġqillqaq si
Ġph rans
Ġ197 0
Ġ197 3
Ġ197 4
Ġyuyay niyoq
Ġnis h
Ġjehova qa
cer do
Ġber lin
apur una
wik tionary
Ġprofe ta
Ãºn de
Ġanima l
c ciÃ³n
i wrupa
t ha
un ta
mi kh
cha ka
Ġq uya
Ġa li
Ġch h
ur asuyu
Ġma ter
as qanku
Ġhuk nin
ra hu
ill i
Ġta mayo
Ġsuti cha
Ġay qi
Ġkaq kunaqa
ni yta
Ġall qu
pu erto
re a
Ġu pa
te m
kunap ura
chiq kuna
Ġdios man
Ġes tu
Ġyupay chasqa
Ġriq yunmi
Ġkamachi kuq
Ġmu chu
Ġ196 4
Ġmin k
Ġpata man
Ġanka sh
Ġpaka sqa
puk yu
roso ft
Ġmish ki
Ġsasacha kuy
Ġrod rÃŃguez
ĠsÃ¡n chez
5 00
b ana
c ara
e u
j tin
k tu
p re
s uqta
Ġ Ã¡
Ġh oq
Ġp Ã©
Ġq unqa
Ġd aniel
Ġri pu
wi y
Ġsu wisa
Ġsu wit
Ġ19 28
yan mi
Ġrunakuna manta
Ġpaqa risqan
Ġcha ll
ran ya
ca do
Ġmayu man
Ġhin as
oq ta
Ġkawsa chkan
llapi m
Ġ198 9
Ġ194 9
Ġitalya pi
Ġqi ru
Ġkur kun
Ġen tien
Ġaw u
Ġor e
Ġraphi yuq
Ġpiliku la
qulla w
Ġmuq iwa
Ġbela Ãºnde
b ay
m uk
u w
z on
Ø ª
qa ra
Ġk ut
ma teo
ti vo
Ġp en
ku pas
Ġa wa
us t
Ġma l
Ġsi t
ru pi
ap h
kun ki
Ġwi llaq
Ġb ri
kuy chu
Ġti qsi
Ġin kisiwi
llan mi
Ġhina tam
niyki ta
Ġ194 6
tur al
Ġsal vador
bu enos
Ġhucha lli
Ġwiki pedia
Ġinter na
Ġinter net
__ __
Ġcer ro
ĠØ¹ Ø¨
ave dra
6 6
k ris
n or
o o
s k
an chispaq
mi y
Ġp on
ka wa
Ġt han
Ġi l
Ġkay man
Ġj us
la xia
Ġwi r
âĢ ²
kunata s
Ġta risqa
Ġsuti yki
ci e
ci en
unchaw kunapi
pe dro
Ġlla ma
qay lla
Ã¡n gel
Ġqan kunaqa
Ġtaki kuna
Ġsuntur kuna
Ġak llay
dor o
Ġnisqan qa
Ġuyari q
llanta y
Ġpanta y
Ġpiliku lam
Ġfaris eo
7 3
a chay
i v
v g
kuna rayku
mi l
ya p
Ġwa cha
Ġwa san
Ġa pan
wan uku
Ġsi ll
Ġt uy
nin a
wi llay
am pay
li pe
Ġruna paq
Ġruna kunan
Ġkay lluma
Ġqa yan
Ġta puy
Ġkan anta
Ġrunakuna pa
Ġg al
anta ta
anta sqa
rqa ku
Ġtu pa
Ġw aqta
ol d
Ġbuliwya p
Ġyura kunamanta
Ġlla k
Ġo ve
Ġku ta
ne si
Ġchu llunku
Ġne vado
Ġkamachiy ta
Ġle y
201 1
den cia
Ġapay ka
Ġchawpin pi
Ġregi Ã³n
Ġmic rosoft
rurasqan kuna
8 3
b ul
b ol
h illu
k orqa
o ma
Ñ Ĥ
Ġ ...
an u
an man
Ġk Ã«
in di
kuna tan
ri co
wan chis
ar aqmi
wi r
taq na
kay man
Ġay Ã±i
di ktu
Ġkaq nin
Ġsa cerdo
ÃŃ os
Ġkama chisqa
Ġqha war
na qa
na wa
Ġyacha kuq
Ġuy ariy
pe ru
ja ma
Ġpun ta
puni m
Ġ198 3
Ġchanta pis
Ġpin yin
ini diktu
jes us
ei ro
Ġmen doza
! "
? "
a kiy
b or
e q
wa ki
wa dur
ri c
ya war
ka sqa
Ġi v
Ġqh elqa
si k
chu ku
Ġwi l
qu ri
Ġsuti kuna
Ġmi la
Ġsa avedra
Ġqhapaq suy
Ġmar su
tan i
Ġv o
oq o
200 2
me dia
hun in
âĢı âĢİ
Ġ198 2
Ġrun ayuq
Ġlo ja
res o
chinapaq mi
rap ura
lliw manta
awqa q
a kin
g risya
h er
i yuq
t anakuna
y ura
Ä į
Ì ģ
Ï Į
Ø Ń
ch urin
un pi
un chis
un da
un duras
Ġk riy
uy ta
ka ray
us ka
Ġma qa
am ora
on so
iq ta
si a
en ta
Ġkilla pampa
Ġc e
Ġpacha m
Ġpacha taq
Ġkaq man
Ġmun anku
Ġis ku
ran pi
vi ii
Ġtu pi
Ġw ww
Ġriku chin
rin i
Ġja vier
Ġvi cente
gi a
Ġuywa m
xi i
Ġbi bles
Ġ196 3
Ġ193 9
Ġchanta qa
ÙĦ ÙĬ
wri qucha
Ġkallpan chay
Ġab ra
Ġdis ney
ayniy ku
Ġsaywa pi
Ġqhali ya
Ġispi ritu
Ġpusapuna kuna
Ġchaqr usqa
a lla
b Ã¡
i qa
t ÃŃ
v es
y pi
Ġ Ùħ
man os
lla k
ku chun
Ġa man
Ġa pam
Ġm es
Ġpa m
Ġkay manta
tu ta
tu ri
chu pa
Ġj os
Ġta ra
kuy uq
ist o
Ġpacha kamaq
hi r
Ġall wiya
chik qa
Ġru ph
Ġway uq
Ġv ene
min k
Ġvi ctoria
Ġtaki y
aqu llu
han inka
unchay ta
su maq
Ġwawa s
Ġqi ris
fi cial
Ġ193 0
Ġche q
Ġvilla r
bar ra
van ni
Ġaugus t
Ġwinisuyla pi
Ã³r do
wid suyu
9 5
e blo
g y
h ara
i kan
j ch
m unqa
n t
u el
ti c
ku chkan
ka ri
Ġn apu
Ġch o
Ġma chiqinqa
as ya
Ġri ch
Ġj orge
Ġkan ankupaq
Ġas un
ws ha
di c
Ġpacha p
Ġcha la
runa p
Ġrur arqan
Ġima chus
vi e
vi deo
Ġqha wana
Ġchi chas
Ġyacha spa
Ġe cua
go b
Ġwasi kunapi
de a
Ġmuna s
bi o
Ġsut isuyu
Ġba lli
Ġ195 4
tr on
Ġqillqan a
Ġjam pi
dal ena
Ġsaya ri
olog nesi
h el
r ayuq
t k
ch aqta
ta pis
pi lla
in latirra
aq way
aq tanakuna
pa pas
Ġka tari
Ã± ap
Ġa c
Ġr uq
Ġm ut
Ġnisqa kuna
Ġpa ray
ap tinmi
as t
ĠÃ± in
li za
ill chinakuna
er va
Ġb ene
ana pi
hi l
chik mi
Ġqhi pan
Ġun esco
Ġway as
Ġ4 2
Ġurqu p
Ġinti p
um pi
Ġyupay chan
Ġal to
Ġja co
kunapaq qa
Ġca ma
Ġtari ja
Ġwawa qa
rus iya
Ġ194 1
Ġkh illay
ko j
Ġap os
Ã¼ n
Î¿ ÏĤ
for d
Ġangel es
Ġedi torial
Ġrurun kunatam
Ġjerusal Ã©n
tik si
8 4
g isqa
j un
j os
s te
w n
y uy
Ä ī
Î ³
Ġ ol
Ġ Ã¡ngel
ta Ã±a
wa sin
Ġp hin
Ġn an
Ġch hu
li gi
Ġpi chus
la ri
Ġwi la
Ġb on
Ġqu llu
Ġl ay
Ġmi tan
Ġmay or
Ġru mp
Ġf er
Ġf re
Ġsan ancha
Ã³ s
te ri
pun u
Ġway t
Ġv on
Ġriku ri
Ġco lo
ant Ã¡
Ġse basti
Ġuywa kuna
Ġsuntur mi
Ġsut Ê¼
Ġ199 7
Ġkas ara
Ġ196 2
Ġ196 8
Ġawqaq kuna
Ġqo cha
Ġkachka ptin
Ġcord illera
c Ã¡
s ara
t z
t ter
Ø ¹
Ù ĩ
an kama
ay oq
is quq
Ġs ham
Ġp ra
lla lla
lla lli
ka mi
Ġn apuruna
ki man
Ġma qay
Ġpa sip
ar ÃŃ
Ġya m
Ġsu ll
Ġpi l
Ġpi r
Ġc ap
Ġc Ã¡
ray il
vi l
unchaw manta
ca ri
Ġdi a
Ġra kiq
Ġyupay chana
Ġanta wa
Ġpusaq niyuq
ayku rqan
Ġmu hu
Ġ199 9
mus qan
Ġ197 8
Ġyan apaq
Ġle on
fi laxia
Ġatiy nin
Ġatiy niyuq
Ġfa una
ge o
Ġarhintina pi
Ġrepublika p
ent es
Ġwaw qi
Ġjunt Ê¼
Ġkaw paqpas
Ġchaqllisinchi pi
Ġlampa lliqi
Ġespa Ã±a
Ġchiki chasqa
Ġpuli tika
Ġpasip hiku
. -
/ .
b us
e ta
e sqa
v el
y Ã¡
Ġch antÃ¡
Ġnisqa tam
Ġt uq
Ġi m
ĠÃ± aqha
ar ch
li ca
on qa
Ġsu ch
Ġha ta
Ġpi tu
Ġj arani
gu i
Ġti ka
Ġkaq taq
Ġcha ku
Ġsa k
lli mp
Ġwasi chay
Ġham u
Ġwarmi m
Ġar hintin
ant oni
ve ra
Ġ195 8
manu el
Ġmo rales
Ġruru chinapaqmi
Ġpan pa
Ġpukllay kamachiq
Ġyanapa kuy
Ġhur qun
Ġrikun ki
Ġtus uy
fran cisco
Ġchak rapura
Ġballi vi
a wa
b l
c ra
j am
p df
r uraq
u Ã±a
Ï Ģ
ay pa
aq niyuq
mi Ã±a
Ġll as
Ġp ruwins
Ġka chay
Ã± ol
ka spa
Ġd on
Ġhuk tawan
ar ina
Ġkay ninta
Ġya wa
Ġha tari
ill o
Ġwi ru
ana chiy
al berto
Ġrunakuna taq
to lo
Ġpaqa rirqan
Ġsa ti
te d
Ġyacha qa
Ġuy a
Ġ4 6
Ġv en
Ġkawsay kuska
Ġmus ph
Ġmuna rqan
bi ern
Ġ198 5
ĠwaÃ±u chirqan
Ġ197 7
Ġ197 9
ik llu
mb ur
Ġkaptin pas
Ġcas ara
anti kuna
Ġcam po
Ã±as kitu
Ġsapan ka
Ġedu ardo
gradu pi
Ġqayan qillqa
g or
m ut
t sa
t ho
v ista
Î ®
Ð ´
ch erqa
ta puni
un ay
in de
ri que
Ġh ill
Ġh el
Ġp rin
lla kta
ku rayku
ka mun
uk ayali
Ġpa k
chi ki
Ġt ha
ar n
Ġchay wanpas
Ġj is
en zo
Ġqillqa yta
Ġqu wi
Ġ19 29
Ġas in
Ġpu eblo
kunapi wan
Ġsa mari
Ġsa int
isi mi
re y
sh ks
riy nin
Ġchi le
Ġhay wa
Ġpuq uq
Ġ4 5
Ġurqu qa
Ġwarmi p
Ġsay ay
Ġparki kuna
Ġna wa
bli ca
Ġuq uq
Ġallpa pi
Ġ199 4
Ġ198 7
ĠwaÃ±u chi
Ġaw stiriya
Ġ193 6
Ġchayrayku m
Ġso ber
Ġap ulu
Ġruru china
Ġpan do
Ġwaki chi
Ġkapchiy pi
Ġga lile
dy uspa
fre do
Ġts Ã«
ahina taq
ĠpÃ© rez
churin kuna
Ġballivi Ã¡n
9 1
b in
b ras
i chi
k er
n er
p t
r Ã©
r rÃŃ
t el
u qa
} }
Ġ ul
ch kay
in chasqa
lla paq
Ġq ukun
Ġa re
Ġr ÃŃos
ki kuna
anqa ti
anqa kunapi
wi ri
li pina
ra pa
kun ti
Ġman qu
Ġb lan
Ġqa chu
apaq qa
Ġllam kay
Ġas way
Ġkaws asqan
Ġg io
Ġsa la
pay kuna
Ġmay uki
sh qa
ĠÃ±aw ch
Ġchi mpurasu
Ġama w
Ġw e
ut ura
Ġ4 4
Ġo li
Ġsutin chasqa
Ġku tin
yun kuna
Ġmu rillo
Ġchur ana
ĠispaÃ±a manta
Ġ196 1
Ġkh uya
Ġ195 0
Ġ195 1
ps is
Ġtuk tu
Ġimayna chus
Ġtin ku
Ġimata pis
para wayi
Ġres erva
Ġwit nam
Ġripu wli
) )
a chin
b is
c us
g es
o k
s t
s ina
s ispa
y i
Ã ł
à ¥
Ġ {
Ġ isi
ta rika
ay manta
wa lla
mi pampa
mi guel
ri ch
man n
Ġka run
ku lum
Ġa pun
ru ku
anqa ku
Ġi ta
Ġki r
es ter
Ġpi dru
or ld
Ġ19 20
Ġ19 25
di osqa
Ġl am
Ġrur aynin
Ġu li
chin u
riy ku
lli am
Ġhu chan
Ġla w
Ġway k
Ġway wash
Ġkun ris
Ġhan llalli
Ġv ar
Ġkawsay ninta
Ġayllu pi
um u
Ġar ma
Ġsutin qa
Ġku ka
Ġchaymanta qa
Ġyaku ta
Ġkash aqtin
isa pa
Ġqhawa spa
Ġ196 6
Ġ196 7
Ġ195 2
Ġ195 5
kusqan ta
201 4
Ġqanchis nintin
kasha marka
Ġtom Ã¡s
Ġphrans ya
d s
d in
f u
g antoni
s ki
s as
s yun
t l
z Ã³n
Å Ĥ
ll ayuq
Ġk hallka
is aq
Ġs is
mi ento
Ġp lan
Ġwa mink
Ġq anqa
Ġsi mÃ³n
anqa piqa
Ġt has
Ġi bÃ¡
Ġpi sqa
en g
Ġb ru
Ġb os
kuy wan
kuy ninta
Ġc rist
Ġy o
Ġl uk
Ġdistri tun
Ġin ca
Ġin iru
Ġpay kunan
Ġli maq
Ġtu pu
Ġhay u
ris h
pis qu
Ġra k
Ġra kina
Ġal tu
Ġwatamanta pacha
ant es
ĠÃ±awpaq en
Ġqulla w
Ġyuy ari
isa mi
Ġ194 0
Ġuyar is
ĠÃ±u qayku
tis hi
chuq ichaka
Ġmikhun ku
Ġjan eiro
Ð¸ Ñĩ
hay k
Ġpisqu m
Ġcom unidad
Ġpirqa pi
Ġmur uyuq
Ġqur am
Ġtun kura
ÙĪ Ø¯
Ġpaul o
Ġbuli w
illim sa
dol fo
Ġderechon chis
pÃŃ ritu
Ġlari qaqa
Ã³rdo ba
Ġecua dor
Ġsober ano
a i
b en
c chu
g lo
o te
s s
y im
un mi
wa sqan
cha kun
Ġq el
Ġr uqyay
ur alan
Ġi chhu
Ġha pi
Ġta ru
Ġta wqa
Ġta rata
gu ed
way na
Ġpacha s
Ġcha kin
chik pa
Ġpay manta
Ġkama sqan
Ġwan k
Ġyachay niyuq
Ġmar is
Ġhu ay
Ġla wriqucha
ĠâĢİ (
Ġ4 1
Ġre ligi
min o
Ġar gued
ant on
Ġvi i
Ġvi rus
Ġsin ru
kunaman mi
Ġuywa p
Ġchur asqa
Ġchur kuykuna
Ġkh ur
ariy kuna
ing ton
Ġanka lli
ĠÏ Ģ
Ġjuli o
Ġwill kan
Ġsusya lista
Ġphaq cha
Ġore llana
isimi taq
Ġgio vanni
Ġripuwli ka
ĠibÃ¡ Ã±ez
6 7
] ]
a ws
a chinchik
c am
g in
h uy
i risqa
j arro
s pan
y kuta
Ï ī
Ù Ĥ
á »
Ġ â
an za
ch ur
qa r
Ġll ant
Ġwa te
Ã± usqa
Ġa ka
Ġa ut
qan a
ĠÃ± i
pas h
tu ma
Ġqh uya
Ġchay taqa
tin o
Ġb olognesi
Ġsuti wan
Ġ19 18
Ġay pa
Ġhawa man
ni ca
Ġpay kunataq
Ġaswan mi
Ġsan ampa
Ġqhapaq nin
chin ap
Ã³ gi
Ġhu tk
Ġuy ay
Ġruwa rqa
10 7
Ġsapa llan
Ġel ena
Ġ195 3
chej ta
Ġcas tilla
Ġnis pas
ĠÃ±awi riy
Ġyaw rin
Ġbu ena
Ġwaqay chana
ĠiÃ±u wa
Ġphu tuy
Ġhur q
rur asqakuna
Ġmur un
Ġana filaxia
Ġgo biern
Ġwaqlli y
Ġservi cio
Ġjud ÃŃo
Ġbauti z
Ġmarsu pi
Ã¼n chen
kulum bya
9 7
a d
a kunap
f lores
g il
m ba
m isk
Ã ´
Ð ¼
à ®
å ¸
Ġ &
pa la
mi o
Ġh us
cha kra
lla pan
Ġka l
ka Ã±
Ġa g
Ġa tawa
ur e
ur ina
Ġhuk kunataq
wi ra
Ġki lu
Ġkay kunapi
Ġj i
Ġj ark
er as
Ġwi en
qu llqa
Ġsimipi pas
kuy qa
Ġ19 24
Ġas haninka
Ã¡ rez
Ġsa ru
pay mi
Ġrur anakuy
Ġrur ayta
Ġu tishi
Ġtu mpis
yki manta
Ġkuti chi
Ġv era
mar ÃŃa
Ġpus hak
Ġati paq
le z
Ġ6 0
Ġco le
Ġuk t
Ġyupay cha
Ġrima spa
Ġmarka p
kunapaq pas
200 9
Ġgrigur yu
aqu pampa
Ġyaku wan
Ġchuq lluqucha
Ġdy usqa
Ġuywa kunapas
Ġyachaq mi
Ġyachaq pas
Ġmaq t
Ġrumi ta
Ġhampi q
Ġransiya pi
tion al
Ġtin kurachina
Ġsam ay
Ġrurasqan kuna
Ġxi i
Ġrikun chik
Ġres pe
Ġuch uylla
Ġcuer po
Ġmuksi chaq
Ġgonz Ã¡
Ġhama wt
8 00
] )
a pas
a chiy
b y
e f
f ÃŃa
g ul
j ra
j orge
l ampa
m s
m bo
s tan
u ca
v ÃŃ
Ï į
Ġ é
an ki
an tin
an chasqa
un riya
aq i
mi ra
Ġka mpi
Ġa pus
Ġpa lla
Ġpa chaq
Ġpa tron
ar una
am paq
pas apa
paq ha
Ġchay pas
en d
Ġb y
kuy manta
kama chi
Ġas uy
chis hka
Ġpaqa riq
ura ta
Ġsa tan
Ġqalla risqan
ĠÃ±a ws
ĠwaÃ± usqan
Ġmun aynin
lu is
Ġchi mpu
kuq mi
Ġwilla sqan
Ġmunisipyu kuna
Ġv ol
Ġdios paq
Ġlla kta
lan dya
Ġ7 0
Ġmarka m
Ġruwa spa
ve z
Ġku tu
llapa ta
10 3
Ġwawa manta
Ġrimaq nin
Ġmusuq manta
kus aq
kus pan
aqa sqa
Ġuyar in
Ġ196 5
Ġjesus man
Ġqi pa
qaq kuna
anchik paq
Ġkaspa qa
Ġnis panku
Ġwaqay chasqa
ham pi
Ġrey es
ikwadur pi
ayniyki chik
Ġnasyun kunap
Ġriqsin chik
Ġawqan akuy
Ġkusituy mi
Ġbuliw yanu
9 4
] .
a f
a li
e te
f nt
g ina
j ÃŃa
p le
t Ã©
u Ã©
w er
Î Ń
Ġ 00
an ankupaq
pi yu
Ġk han
ma el
Ġka sun
Ġwa sa
ka w
ka li
Ġllaqta kunaq
Ġd isi
ar dia
Ġri mar
wi la
Ġpi chincha
Ġj un
Ġqa pa
Ġc ana
Ġqu chun
Ġqu fnt
Ġsa mi
Ġmay t
ÃŃ y
hu ch
Ġni llarqan
Ġ" Â¿
Ġu miÃ±a
Ġyachay nin
pan pa
Ġpar yaqaqa
ol ina
Ġv an
ptin pas
pacha pi
Ġse arch
Ġyuy ayku
Ġca ball
ne w
Ġna cion
uni versi
Ġkasqan kuta
Ġuywa kunap
Ġba ut
Ġkikin manta
Ġkamachiy kuna
Ġ196 0
mb re
Ġme gantoni
Ġtakiq si
ykichis ta
Ġqhe lli
Ġkaus ay
bur n
Ġfe lipe
Ġqui jarro
Ġup yana
Ġklub kuna
Ġbil hika
Ġchaqa llu
Ġcent ro
Ġsacerdo te
ÙĦÙĬ Ø§ÙĦ
anton io
6 3
c y
e jo
f er
g ran
i kray
i za
p y
p os
s ka
u dad
Ù ĥ
Ġ yuq
an qan
qa chu
ll isqa
ma d
ma t
ma man
pa pa
wa sun
Ġh ir
Ġp ol
cha pi
Ġka m
Ġa ru
Ġllaqta s
Ġch us
Ġpa ri
Ġi mpa
Ġi wru
Ġkay ku
Ġkay wan
Ġkay ninmi
Ġchay pin
mon di
Ġti y
Ġin de
Ġsa mana
ĠÃ±a u
Ġmay a
ro ma
Ġpay taq
Ġwan kayu
unchaw niyki
Ġallin chay
Ã© rica
lu ritu
Ġchun ta
Ġun qun
Ġla do
kunan naq
Ġwilla kuykuna
ut er
Ġpha x
kis qan
Ġsay k
Ġaya cu
Ġat isqan
anchay nin
Ġchu riy
ima tataq
Ġrunasimi ta
Ø§ Ø
Ġ193 7
Ġ193 8
ps yun
Ġfran z
Ġqar anqa
Ġwasin pi
Ġqay llay
kunqa ku
lay u
por tal
Ġqelqa sqa
Ġyanap ana
Ġthu Ã±i
wawa kuna
Ġpla za
Ġkhu chi
ĠÃ Ĺ
Ġsebasti Ã¡n
6 2
a chan
e j
h us
i raq
p burn
s ur
t run
v is
ã ĥ
Ġ ×
an go
an qanku
ay aq
ma g
kuna kama
kuna hina
ri e
Ġp Ã¡
ku sa
Ġwa tu
ki ku
ap aya
Ġhuk manta
am bi
Ġki ru
Ġya ch
si chus
Ġpi zar
Ġqa ya
Ġ19 17
Ġ19 14
Ġpacha pipas
al o
Ġmi chiq
Ġkaws anqa
Ġg as
ĠÃ±a ka
ĠwaÃ± uq
Ġpay kunaq
Ġhina lla
kuq tin
Ġnispa qa
Ġmunisipyu m
Ġhan suyu
ara bya
âĨ Ĵ
Ġhanaq mi
Ġuk yan
kunawan pas
Ġal f
sin chi
Ġvi ii
han an
piruw pa
Ġyachaq ana
Ġgu ti
Ġ194 4
Ġ197 1
Ġchur ay
Ġ195 7
Ġkur ur
Ġwaman im
201 2
Ġapa chi
Ġte x
Ġmikhuna ta
wana ku
Ġash wan
anka ru
qha ri
wu Ã±a
cer es
Ġaph rika
Ġedu caciÃ³n
Ġjay k
rik cha
Ġmila gro
, "
m Ã¡
n isqa
s vg
v ille
Ã ¸
Ġ er
an os
una l
Ġs te
wa qa
kuna mi
ti t
Ġh en
ya pa
ka man
ka mus
Ġn inki
Ġn urwiga
Ġsi mana
Ġd an
Ġt anqa
Ġt el
ĠÃ± ust
Ġhuk kuna
on o
si psyun
Ġha bana
Ġchay piqa
Ġchay raykun
Ġpi siya
Ġpi kunachus
Ġwi chay
Ġb re
Ġta pu
kay a
way ta
Ġ19 01
Ġ19 22
Ã±a taqmi
Ġl is
Ġl ayqa
com unidad
Ġti yana
Ġmi lan
Ġcha m
Ġcha lan
Ġur may
Ġmay pipas
ro manu
Ġrimay kunata
has qa
Ġwikipidiya p
Ã³n oma
Ġati yta
chka spa
Ġurqu kunamanta
chun chu
Ġrima qa
Ġrima rqanku
Ġanta waylla
tal aya
Ġruraq qa
Ġkunan taq
Ġpe ter
anchay niyki
Ġph isqa
Ġqhawa sqa
Ġqhawa rin
Ġ194 8
Ġjina ta
Ġcon t
paqa ri
Ġrunap ura
Ġatiy ninta
Ġatiy niyoq
ukun aq
Ġchurin ta
ĠÃ±an pi
Ġcor on
win tu
ĠÃ±ak Ê¼
Ã©s ar
apu rimaq
Ġwaw qin
Ġruray kamay
Ġrus ya
Ġuku mari
pak si
Ġ= >
Ġminist run
Ġpartidu pi
Ġaugus to
jan dro
Ġespa Ã±ol
kris tiyanu
Ġuli mpiku
Ġargued as
å¸ Ĥ
ĠgonzÃ¡ lez
6 00
a tu
a chu
a Ã±askitu
c ta
l aq
p pas
s ap
ll ina
pi wra
una qa
ri tun
Ġp res
ku ran
Ġwa chu
Ã± ur
ka l
Ġllaqta kunam
us kiy
us apa
Ġsi ti
Ġwata sqa
chi wan
Ġi x
Ġi wan
Ġi gle
ar isqa
wi cha
Ġchay pacha
tin ki
Ġmana chu
Ġan to
ray mi
Ġl us
Ġrunakuna s
Ġg en
chik man
re gi
unchaw kama
kuq qa
Ġyacha sqan
Ġway llay
Ġwak manta
Ġv ino
Ġe uro
Ġwasi ta
Ġmamallaqta pura
Ġsin to
ne q
unchay kuna
Ġph ista
ĠwaÃ±u chin
Ġus qhay
Ġ195 9
Ġpampa pi
ĠhuÃ± un
Ġpur ispa
Ġdyus manta
Ġwillka pampa
Ġbar ran
Ġwaki china
Ġsam k
wri yu
Ġfern Ã¡ndez
Ġuniversi ty
Ġkachka spa
'' '
ikrasqa kuna
Ġhe pburn
Ġmuy un
Ġnasyun kuna
ĠĠ ĠĠ
qhipaq nin
Ġins titu
Ġwayll ukuy
Ġliber tad
Ġpaqarisqan manta
llantay tampu
Ġiniru pi
Ġaut Ã³noma
l ara
m uru
q hawa
u chuy
w lli
an manta
ch t
in mi
Ġs isi
wa ti
cha ri
ku qa
ku wa
Ġch umpi
Ġm b
Ġm uqu
Ġi o
nin taq
Ġki llka
Ġki tara
iq isqa
pas qu
Ġya chasqa
kun ayki
may a
may ta
Ġpruwinsya qa
Ġ19 27
Ġti mpu
Ġkaq llataq
chik pas
Ġis kusya
sh ka
Ġu chu
Ġrimay kunam
Ġun qu
Ġpuk lla
Ġpar lay
Ġkatiguriya piqa
rayku m
Ġllaqtap mi
all ma
Ġham urqan
Ġja c
lis mu
sun qu
ja tun
Ġsin qa
200 0
ce p
Ġruraq kuna
Ġqillqaq kuna
me ral
anchay ta
Ġ199 5
Ġchur an
Ġle Ã³n
Ġcar men
Ġ195 6
Ġqispi sqa
Ġ193 5
Ġyuyay cha
ko ta
Ġlo uis
Ġnisqan man
Ġwaqay cha
Ġwasin man
Ġmaqanakuy pi
Ġcru p
Ġaf rikapi
Ġajina ta
taki chaq
Ġrio ja
Ġqarq urqan
Î¯ Î±
Ġmonte video
Ġwam ra
ĠkÊ¼ acha
Ġmaris cal
3 50
k hi
l us
y ayuq
Ã ¢
Ä ĵ
Ġ ]
an pa
an paj
ay ka
ay niyuq
mi t
cha llwa
Ġka pu
Ġa ba
Ġa gus
Ġr ant
Ġllaqta wan
Ġch Ã¡
Ġma chaqa
Ġt uru
Ġsimi kunata
Ġri cardo
Ġkay kunata
Ġkay taqa
ra wi
Ġb ur
Ġqa tiy
kuy pi
gu e
ni co
Ġdistritu p
Ġsa cha
Ġsa jama
pu maqucha
Ġmay o
Ġis lu
Ġ5 1
Ġtu puy
Ġtu mipampa
Ġpuk llana
pun qa
Ġ4 7
Ġv in
um uy
Ġes pin
Ġwarmi pas
Ãº l
ĠâĢĵ Â¡
raq u
uyuq mi
war anqa
Ġyaku chaq
Ġtuku sqa
Ġchuq i
Ġsuy uyuq
Ġchu pa
Ġwall qan
Ġaw us
jo hn
Ġsuyun pi
Ġpachak manta
per Ãº
Ġchayam un
Ġwillakuy kunata
Ġlluq sin
Ġjehova manta
llawan chu
ĠØ§ÙĦ Ø
Ġisa bel
col Ã¡s
Ġjerusal en
Ġsha wsha
Ġhaw ka
Ġgran de
qull qi
Ġphin yim
Ġpitu marka
Ġkhur uq
Ġpizar ro
8 6
a g
a z
a wi
g Ã¼
h ur
s ya
t anqa
t to
w pu
à °
ta ka
in an
in kina
is ha
Ġs iste
Ġp has
Ġka ta
Ġka ri
Ġka ra
Ã± os
Ġq ul
Ġr aya
Ġm Ã¼nchen
Ġd ar
Ġd os
Ġi lla
Ġhuk chan
nin pas
li p
Ġruna masin
chay nu
la o
Ġb ay
Ġb ir
Ġta kana
Ġkan ka
usqa yki
Ġicha pas
llan o
runa qa
Ġpay kunawan
Ġkama rqan
Ġsan tos
vi ch
Ġyachay mi
te ria
Ġdi c
Ġdi muk
Ġla go
kunan ka
Ġway aqa
Ġw orld
Ġe gi
go tÃ¡
Ġriku rqan
Ġriku kun
Ġo ri
unqa ti
Ġju ana
kuspa taq
Ġse co
Ġikwadur pa
Ġwawa ta
Ġgu bir
Ġatin mi
Ġatin ki
ik ran
car los
Ġnu wi
Ġap law
Ġjan q
Ã¼ r
ĠseÃ±or pa
Ġrunas ta
Ġwiki books
wak ya
Ġwik sa
ĠkaÃ± ina
Ġmara Ã±un
Ġkamarisqa m
ys espa
Ġcul tura
Ġeste b
lipina kuna
Ġtunkura wa
% )
3 00
8 7
d r
d ÃŃ
m ina
q os
s ul
u da
v ent
y kipi
ta kiq
ma ta
ma ki
pa llqa
ri ta
cha wan
Ġch ha
ur ani
ru p
Ġpa lo
Ġt ec
Ġt hak
ĠÃ± ut
on ta
on ia
yuq kunapaq
Ġya pay
tu qa
si min
Ġchay kunaqa
Ġpi ll
Ġb inidiktu
Ġqa ran
Ġc la
Ġqillqa qa
Ġllaqt anta
Ġ19 19
chis qanku
puy as
el d
Ġkaq kunamanta
hi ptu
Ġall pan
Ġg ram
Ġsa man
ÃŃ so
runa kunaqa
Ġsan dia
Ġqhapaq ninsi
Ã³ bal
Ġtu mpa
Ġpar in
Ġpar ÃŃs
Ġkun tinpi
Ġhin aqtin
Ġ4 9
Ġra kisqa
sun i
war d
Ġsutin pi
Ġpun o
Ġ0 4
Ġinka rrÃŃ
Ġkasqan manta
Ġph ransis
Ġqull pa
Ġaw ril
Ġcas tro
Ġphi ruru
Ġhinan tin
win isuyla
Ġte qsi
tor es
tari pay
Ġhuch ha
Ġlluqsi y
Ġwati qaqkuna
ĠÎ º
jes usqa
Ġjap Ê¼
Ðº Ðµ
Ġsuma j
Ġge orge
Ġregi on
Ġajina manta
Ġqallu pi
Ġmer ce
Ġtru hillu
liwru kuna
Ġqhawar ispa
Ġjos uÃ©
Ġdistritun mi
paqha wana
Ġinde pen
Ġphinyim pi
Ġesteb anta
' s
a ch
a llaqta
g r
i manta
i re
i landa
l er
p Ãº
q pa
t te
u taq
z an
z ia
Î ¸
Ð ¹
Ġ <
Ġ >
Ġ à¤
an kunapi
Ġk b
in ku
aq qa
Ġs yn
wa re
ti cos
Ġwa sh
Ġq il
Ġn ana
Ġllaqta taqa
Ġch Ê¼
Ġch hay
ap ra
Ġri pun
Ġkay ampi
si ta
Ġchay taq
Ġpi llun
Ġman araqmi
qu ta
Ġb ea
Ġc en
Ġqillqa pi
Ġy uma
ha ta
Ġl istritu
Ġin i
kan mi
chik suyu
Ġur pi
Ġ3 00
Ġni taj
sh ina
chan tÃ¡
Ġhu qa
chkan ki
Ġla mar
ĠwaÃ±usqa Ã±a
Ġwikipidiya pi
Ġwilla kun
Ġw isa
Ġlla kisqa
Ġar te
Ġsuyukuna pas
Ġal ma
ĠÃ±awpaq man
Ġ9 0
Ġca ja
Ġpro me
mur qanku
su wisa
Ġ[ ...
mo ri
Ġchuq u
rus u
Ġchu ll
Ã±iq in
Ġgu erra
ĠwaÃ±u chiy
cu ela
say waman
Ġsimin ta
Ġmunan ki
Ġlicen cia
Ġcas te
ĠÃ±o qan
Ġyachachiq kuna
Ġsap hin
Ġut qaylla
chas ki
Ġkaw pay
Ġkunka paqmi
ĠwillaÃ±iqi p
Ġisra eli
ira w
Ġad j
Ġbuli biya
Ġlor enzo
Ġonqo y
Ġflo ra
Ġmag dalena
Ġillanchay kuq
Ġgrego rio
Ġyall inakuy
ĠØ¹Ø¨ ÙĪØ¯
Ġapos tol
Ġsull k
ĠchÃ¡ vez
ÐºÐµ Ñĩ
c Ã³n
l ta
m es
p anqa
x os
ch el
aq pa
Ġs ta
wa ran
ri kuq
Ġh uma
Ġp ura
Ġp aqu
ku cha
ku mpi
ka pu
Ġllaqta cha
Ġm t
Ġma ta
Ġpa llan
as kaq
Ġi ran
Ġruna manta
pas chu
tu wri
Ġsu widsuyu
Ġpi li
Ġqa paq
Ġc Ã³rdoba
Ġqu z
or e
Ġay pan
di di
Ġl ista
Ġin f
Ġin fec
ĠÃ±a upa
ran llapa
re ra
unchaw nin
rqa chu
Ġrimay qa
Ġ5 5
Ġun yun
Ġun duras
Ġhin aqtinmi
Ġ4 8
Ġpus am
ani ya
Ġes pÃŃritu
Ġchas kiy
Ġuk tuwri
Ġmuna pay
Ġ7 5
Ġsay aq
Ġku ri
Ġat ispa
Ġinka kuna
anchay manta
ayku paq
Ġkash aspa
asqan ta
ĠwaÃ±u chispa
Ġatin manchu
Ø§ ÙĨ
Ġ193 4
aqtin taq
Ġtuk tun
ĠmaÃ±a kuy
Ġqhe chwa
pur tuyis
gra fÃŃa
Ġyur ap
Ġsam in
pana ma
yachay wasi
Ġtor o
Ġkaw paq
ĠÏ ĥ
ĠpuÃ± uy
muyun tin
Ġhis p
Ġfu ji
Ġcamp os
Ġhuan ca
Ġnue va
Ġpruwins yanmi
Ġatawa llpa
b la
b olÃŃvar
e ti
h uq
i ro
i kra
j in
k Ã¯
s us
y kuq
Ã ¬
Ð ³
Ø ²
Ġ org
Ġ Î±
un g
ay kunata
Ġk e
ma drid
ti cia
Ġh ern
lla tam
lla puni
Ġ( +
Ġa wan
Ġa puy
Ġa tina
Ġn aska
Ġma in
Ġnisqa piqa
Ġpa g
Ġd or
Ġi qi
Ġi tal
Ġruna pa
Ġya chana
Ġsu llu
Ġsu cre
es is
la li
la ho
Ġsimipi taq
Ġb ro
Ġwatapi taq
Ġta tan
Ġc le
Ġqillqa spa
Ġqu in
Ġkan si
Ġkan chis
Ġllam ka
Ġan tinpi
Ġl uq
Ġhawa pi
Ġmi chi
Ġkaws asqa
Ġg lo
kan ta
pay aq
Ġaswan qa
Ġwan u
unchaw niy
pan aykuna
tan ku
lli r
chan am
Ġhu dyu
Ġhay Ã±in
aya ku
Ġpus ay
Ġyura kunata
Ġlla kiy
uru wayi
Ġkus iy
Ġchin kay
bo a
kunapaq mi
Ġca us
Ġparki m
Ġsaq i
Ġkawsaq kuna
Ġwawa kunata
anchay ninta
illay kuna
Ġuq unqati
ph is
Ġgu z
Ġ197 2
Ġne sqa
ĠwiÃ± arin
Ġjesus mi
Ġtik sisqan
Ġrunasimi tam
Ġkaspa pas
Ġ193 1
Ġmunan mi
Ġcas os
Ġsal inas
Ġnis pan
Ġkul unya
Ġdyus ta
201 6
ĠÃ±o qayku
Ġmon tes
Ġqhe panta
Ġwaw ra
Ġ190 4
Ġho qa
Ġpik kin
je an
aw chu
Ðµ Ð²
Ġunq uq
Ġrakin mi
Ġasi ru
Â» .
Ġqe llqa
Ġhis us
bri el
apun in
lik trun
Ġcristi ano
Ġtuma s
Ġruph ay
Ġmunas paykiqa
Ġcama cho
ĠcÃ¡ ceres
Ġrakiq unaqa
Ġwillkan uta
Ġdisi mripi
tinki muq
Ġio an
c la
d ap
e k
g reso
h iq
i Ã±u
l y
l Ã¡n
n urwiga
s ana
s ter
t ista
y man
Ġ 01
ch er
in dya
pa kuq
Ġs en
mi ll
Ġp r
ya spa
ka muy
Ġa chu
Ġn ar
Ġllaqta kunaman
Ġi qin
Ġi barra
Ġri jch
Ġsu chuq
taq si
co ta
Ġj ara
Ġb is
Ġqa ll
Ġqa la
Ġwatapi manta
Ġan chay
hi li
anta man
chik kuna
ĠÃ±a taq
Ġpay paq
rqa yku
Ġqha waq
Ġ/ /
Ġtu tay
Ġyacha chispa
Ġama chana
Ġtukuy ta
ol f
Ġham uspa
Ġayllu kuna
Ġco rin
Ġes cri
Ġwarmi ta
Ġkus tarika
Ġmikh uspa
Ġastawan qa
unchay mi
Ġna ce
kichis mi
gi tis
anchay niy
Ġkash arqan
Ġlu z
Ġyana pas
Ġ198 8
Ġ194 3
Ġhampi na
Ġ193 2
Ġsal wadur
Ġatipa rqan
Ġqo y
Ġchaq n
Ġz amora
Ġruwan a
Ġpo li
Ġwaki chisqa
ĠØ ¨
Ġjallp Ê¼
Ġ190 9
Ġbibli aqa
Ġpor to
Ġgar ci
Ġaq ha
Ġkunka waki
Ġisqun niyuq
Ġos kar
Ã©r rez
Ġnor te
Ġter esa
Ġwarma kuna
uwa tana
bibli a
Ġabra ham
Ġwash ington
b lu
b uli
c ina
d ina
g ru
g ram
g apur
i d
m m
p anakuy
p ng
s tu
u ka
u chuk
ch k
in chaq
aq kunap
Ġs el
uy wa
mi a
ya s
Ġq uq
Ġch uru
uk hu
Ġnisqa s
Ġnisqa mantaqa
Ġd in
Ġsimi wan
ar ka
ar isqan
Ġri r
li to
iq i
ra w
Ġsu Ã¡rez
er s
Ġwatapi kama
Ġpruwinsya kuna
Ġta puna
Ġti mo
Ġmi ran
ci lia
ci encia
Ġkaws ana
Ġkaws arqan
hi ya
Ġall icha
Ġcha kas
chik manta
Ġrur aspa
Ġima s
Ġima kunatapas
Ġru iz
Ġni wan
Ġf ir
Ġu llantaytampu
Ġwan kani
Ġyachay niyoq
ca ta
Ġmar tÃŃ
Ġqha tuna
Ġhu chay
pe qa
Ġ4 00
Ġlla miy
rin apaq
mayu tata
Ġro bert
Ġyupay qa
Ġmuna kun
sun kichis
bo ur
Ġse villa
Ġyaku m
Ġinka p
Ġuywa kunata
ĠwaÃ±u chisqa
Ġatin ku
Ġel isa
Ġchaw in
po li
llaq tan
Ġaw r
qalla rina
Ġpur us
Ġ193 3
Ġunquy ta
Ġkul tura
Ġtantanakuy nin
Ġ190 6
ak lla
Ġpisqu kunam
ĠhuÃ±u p
por t
jes Ãºs
Ġtus uq
Ġir qi
Ġpachaykamay pi
Î¼ Î±
Ġkill aqullu
Ġchinchi ru
Ñĥ Ð°
gisqa tar
wasin yuq
Ġasin da
Ġapulu pampa
Ġamaw ta
Ġvar gas
isimitaq i
Ġkhan kiq
Ġphax si
Ġayacu cho
Ġwallqan qan
laho ma
Ġioan nes
a ja
b eni
c una
d aniel
i li
n ill
o c
r uqucha
s uma
s er
v ara
y e
y su
Ï Ĩ
Ġ è
qa ta
ll er
pi sqa
Ġk en
in pi
in ter
pa ul
Ġs p
Ġs pa
Ġs to
Ġs Ã£o
wa l
ri kun
Ġh ero
Ġa h
Ġa gos
Ġm isi
as un
as aq
anqa ra
Ġt sa
Ġsimi tapas
Ġkay taq
Ġpi ru
taq taq
chay wan
Ġb in
Ġta ka
Ġta purqan
Ġqill qanku
Ġc m
Ġc Ã©sar
Ġsuti yoq
way u
Ġ19 13
chasqa m
Ġan des
di um
Ġl en
Ġin g
ci as
Ġcha kana
Ġmun ana
hu an
Ġru pha
Ġis la
Ġwan ay
Ġyachay kunata
chin an
chin mi
Ġdi ego
Ġ5 3
Ġpar que
pe ra
Ġkawsay manta
Ġwasi m
Ġriku chiy
Ġjes uk
huk lla
Ġo taq
Ġco cha
lan tiku
Ġyupay ninqa
Ġrima rqan
200 3
yay ayku
bi os
anchay pi
Ġmu ju
it z
par ispa
Ġle o
fi ca
ĠÃ±u Ã±u
Ġmo ra
ona do
Ġllaqtamanta qa
Ġbe arn
Ġor o
Ġwasin ta
Ġahina pin
Ġrimanakuy nin
Ġmaqanakuy ta
Ġ190 8
Ġmikhuna paq
Ġwiki media
dal u
sal mo
Ġtor re
Ġperu ana
Ġllimphiq pas
ĠkaÃ± iti
Ġtur kiya
Ġshu ti
Ïĥ ÏĦ
huwan pa
Ġchuku witu
Ġchinchi pi
Ġpuru ha
ĠmÃ© xico
Ġthan sa
Ġpantay chu
Ġcole gio
Ġkampi una
Ġkutu paksi
Ġguti Ã©rrez
Ġsiti mripi
meral das
Ġparin aqu
ÐºÐµÑĩ ÑĥÐ°
Ġfuji mori
% ),
a h
c z
c ro
i de
n Ã¶
p uma
p ol
s y
v os
ľ Ķ
an chu
ll anqa
un cha
Ġk hun
aq nin
aq ana
wa rqa
ri us
Ġh isto
cha cha
cha ku
cha kunam
lla raq
Ġwa llqa
Ġwa ral
ka pi
us han
us qanku
ki ll
ki ra
Ġsi mon
Ġsi landa
Ġpa sa
Ġpa llqa
as han
Ġt is
Ġt Ã©r
Ġri wi
am u
si l
si ca
Ġha k
Ġchay pis
Ġpi rwa
Ġwi llana
Ġwi dyu
Ġwi lliam
Ġb Ã¡r
Ġsuti man
way ra
way chu
kama taq
kama chiy
Ġ19 11
yan g
di co
mon d
ispa Ã±ul
Ġall iy
kan ki
kan tun
anta qa
anta pas
pu li
ro el
Ġni yki
Ġyachay pi
Ġhu llaqa
Ġun ayta
Ġyacha tsi
pe ri
Ġyu pasqa
Ġyu pana
ara ta
de la
Ġra tu
Ġurqu kunapi
Ġlla j
Ġham unqa
Ġham uchun
min g
hina llataq
Ġco pa
Ġes tre
urin kin
aynin ku
ari muy
pin chikilla
Ġsin ti
Ġpun cha
Ġtari pan
Ġran sis
Ġ0 5
Ġkamayuq ninmi
ama s
Ġkall pay
Ġsapa ra
Ġper don
Ġen rique
Ġqispi chiq
Ġqo ri
Ġme dia
win u
Ġqanchis niyuq
ĠiÃ±iy pi
pur qa
tari ja
arin gitis
Ġrus a
Ġunu ta
Ġval di
à¤ ¾
Î¹ Îº
wu d
Ġtor res
aran way
Ġsur q
Ġaf rika
Ġmira flores
Ġnor th
Ġreq sisqa
puri muq
kayman tinkimuq
Ġasun syun
Ġcrist Ã³bal
Ġtaru ka
Ġâ ľĶ
Ġgobiern o
Ġiwru piyu
Ġeuro pa
Ġawril pi
Ġkansi llir
c Ã³
c ano
e g
f isya
h en
i w
i le
k en
l ar
l Ã©
o y
o la
p Ã³
q uyuq
t ti
È Ļ
Ġ á
Ġ oq
qa ya
ll y
ll Ã¡y
pi si
aq ch
Ġs t
wa chu
ri ku
Ġp las
cha mayu
lla man
ka manta
Ġa bi
Ġa talaya
Ġch uya
uk ay
Ġpa ran
Ġwata s
anqa s
Ġi raq
Ġruna sqa
Ġruna kunatapas
ra ki
Ġqh ispi
si o
Ġchay paq
kuy man
or do
Ġ19 26
chis pi
chis mi
di f
hi yu
Ġhina tan
Ġqucha man
Ġli tera
Ġu ll
chin ankupaq
riy chis
Ġmar q
Ġchi qaq
Ġmayu kunapi
Ġhul yupi
Ġyu ri
chus uma
ani a
iti y
Ġlla t
kwa sh
Ġham uy
Ġqillqasqa m
Ġju j
kuspa qa
hin an
mun ku
ari q
Ġqan kunapas
Ġse Ã±o
Ġ8 0
Ġyaku ma
ec ua
Ġtuku kuy
ho u
Ġ0 2
Ġ0 3
mo ysespa
anchay qa
ph p
mu riy
ral d
Ġkall pasapa
Ġqillqasqan qa
th er
Ġhun yupi
ĠwaÃ±u chiq
ik ana
Ġjina manta
Ġqi tina
Ġkuyu china
kusqan manta
Ġme jÃŃa
Ġchurin qa
kas kas
fa g
ĠsuÃ±ay tam
Ġuni Ã³n
Ġche qa
Ġche qas
Ġruru chinap
Ġmancha kuspa
Î¿ Î½
Ġ189 5
Ġpisqu kuna
qui pa
45 1
yoq mi
Ġwis nu
Ġmadrid pi
Ġci udad
Ġruwasqan ta
Ġanka llis
Ġmor eno
Ġam Ã©rica
Ġyachachisqan manta
para ÃŃso
aw stiriya
wat suyu
Ġale jandro
Ġlaq ha
sha pampa
Ġqallari rqa
Ġbus ch
Ġwaqya spa
machu ku
Ġreq sin
Ġpachaku tiy
Ġflo rida
Ġbern ardo
kiti lli
Ġqhelqa sqa
inde x
Ġbaut ista
Ġimpa pura
iraq i
Ġchalan pi
Ġcoron el
Ġawus tupi
kumpi yu
ecua dor
! !
a ku
a kunaqa
d ay
d Ã©
m ent
o pi
p uspa
q usqa
Â Ń
ä ¸
Ġ una
an wan
ta taj
is bn
pa chi
pa tapi
wa mp
wa llpa
uy us
Ġll uk
ti z
Ġp os
ya china
man si
man qu
Ġka ti
Ġka mana
Ġwa de
Ã± ka
ka ll
Ġa paq
Ġllaqta pata
Ġma pu
ru z
Ġnisqa yuq
Ġnisqa paq
anqa p
Ġt ho
Ġsimi llapim
ĠÃ± anta
ra ka
sqa yki
kun ay
Ġchay anta
Ġchay tan
Ġpi rqan
co lo
Ġj er
er te
er mo
Ġb ena
Ġta kina
Ġqillqa manta
Ġkan anku
chis h
mon t
Ġti an
Ġmi r
to m
Ġpaqa riy
ĠÃ±a Ã±u
Ġmay qan
Ġmun isip
Ġmun ayninta
llaqta pi
sa ll
Ġhina pas
Ġli chi
Ã© c
Ġrimay kunamanta
Ġ5 00
Ġyacha chirqan
Ġama taq
Ġama Ã±a
ut isuyu
Ġkawsay niyuq
Ġriku kuq
kh an
Ġre j
Ġ: :
min edu
aynin wan
Ġal vara
Ġ9 9
Ġ8 4
Ġpusaq nin
su de
Ġsuntur pa
Ġmu chuy
Ġak llana
Ġqi wuÃ±a
fi cio
Ġruway kuna
Ġruway kunata
shar qanku
Ġme tro
Ġruwan ku
Ġphi wri
gar ya
den te
rÃŃ o
Ġhucha sapa
Ġqay llanpi
Ġ189 9
distritu piqa
Ġwas ka
Ġkura k
Ġale x
Ġlaq hay
Ġchak ran
Ġos car
Ġmunaspa qa
Ġkawsari m
Ġniq ir
mamallaqta pura
Ġcuer pon
Ġcara cas
Ġjose ph
unchu l
Ġestu dios
aph rika
Ġcheq ni
Ġvillar roel
Ġjaco b
Ġmayuki llapi
cep ciÃ³n
Ġnuwi mripi
Ġital yanu
qallarina kaskas
ĠbÃ¡r bara
fag asta
Ġalvara do
qallarinakaskas utisuyu
" :
\ \
a kunan
b Ã¡n
d ona
e vo
i pay
j uli
l on
n una
s hu
u wan
v alle
z as
É Ļ
an to
ch ura
ta llas
Ġk uya
ma li
uy ki
ri kuspa
Ġll uy
man chus
lla r
Ġka pita
ku taq
ku pampa
Ġq iq
Ġn uq
Ġr on
us e
Ġm y
wan aqucha
Ġma kis
Ġsi ka
Ġsi Ã±ur
Ġpa dre
Ġi mp
nin piqa
Ġri kuyta
Ġri purqan
li dad
Ġsuyu kunamanta
Ġruna simin
on y
Ġkay hina
Ġya tana
tu liku
Ġchay pim
Ġj ur
en sis
qu es
tin taq
Ġb un
Ġc ur
Ġqillqa kunata
Ġqillqa sunchik
Ġqu is
Ġkan chay
Ġ19 10
Ġmana wi
Ġpacha pas
al oni
Ġkaq niyuq
Ġmi yu
Ġdistritu kuna
Ġhatun karay
Ġur as
llan es
Ġima manta
Ġis k
Ġis anka
Ġf il
Ġu ta
lli manta
chan chik
Ġ18 21
Ġ5 4
Ġyacha qaq
kunan chikpaq
Ġhin aq
Ġe u
Ġra qay
Ġo x
Ġancha tam
Ġnin i
Ġyupay chay
Ġja tu
Ġmarka pumaqucha
ĠÃ±awpaq taqa
Ġ0 7
Ġkitilli pipas
Ġlu cas
asqan manta
Ġhinallataq si
Ġpawqar tampu
ver bios
Ġkh uska
im pu
Ġ25 0
kusqan rayku
Ġkasqa ku
Ġcor ne
kar uy
Ġkacha rqan
Ġso uth
ĠÃ±o qaqa
Ġand ina
Ġqay na
aki l
cal e
cal es
199 0
Ġxi v
Ġwas karan
gri gur
Ġwik san
Ġmiray nin
Ġyachaywasi kunapi
ĠkaÃ± ar
ipi sqa
Ġkura kan
dun isya
Ġjehov Ã¤
Ġpre si
Ġjesuc ristoq
fre d
Ġchar les
parin ku
Ġchimlas ayta
Ġinterna cional
Ġqiris an
Ġyawa tisuyu
Ġprin ce
Ġquchun tin
Ġnillarqan taqmi
Ġmilan o
Ġagus tÃŃn
Ġsiste ma
Ġegi pto
lali t
Ġguz mÃ¡n
Ġtimo teo
ĠseÃ±o ra
a chisqan
f al
g ana
i me
k y
k on
n is
p ra
p el
t han
Ġ Ð°
ta le
un ga
ay ti
pi chu
pi chus
aq ninkuna
ma ti
pa Ã±a
Ġs y
wa m
wa ruchiri
ri kuy
Ġll all
Ġll oj
ti va
ku ti
ku chi
ka chaq
Ġllaqta pa
Ġllaqta kunata
uk ranya
ki r
Ġsi wk
Ġpa ti
Ġi liktrun
Ġsimi llapi
wi li
am o
am eri
Ġruna taqa
ra tion
tu paq
paq ta
es ar
Ġchay n
Ġpi e
Ġpi ki
co ra
Ġj uq
Ġj ord
chay pacha
Ġwi llam
tin ta
Ġqa sa
Ġc lub
Ġay q
Ġllamk ana
chis aq
Ġmana Ã±an
mon te
Ġin dÃŃ
Ġsa cri
Ġsa jra
ran d
Ġni ya
vi la
Ġu kupi
te x
Ġrimay tam
lu pi
Ġchi l
uli mpiku
Ġyacha tsik
Ġla k
Ġama chanapaq
Ġpar la
Ġwilla spa
chiq ta
ol Ã³gi
Ġiskay chay
Ġv ÃŃ
Ġra i
min ikana
chun ta
Ġco ra
Ġhanaq pacha
Ġwarmi kunata
Ġchas kiq
hin am
Ġal onso
war as
ga do
Ġca la
Ġpusaq kuna
kunaman pas
Ġkachkan ku
Ġkunan pacha
anan chikpaq
Ġwatakama s
tri a
pus qan
ton e
Ġwaq ra
Ġwaq llisqa
Ġkikin ta
Ġgu ill
Ġatin man
Ġsun tu
fi eld
Ġukhu manta
ĠhuÃ± uy
Ġyuyay niyuq
ko rqanku
Ġwaqa chinam
Ġje an
Ġz e
Ġbo gotÃ¡
Ġdyus pi
Ġwillay ta
ks on
Ġmuyu p
Ġbe lla
Ġte mp
don g
cis o
Ġkanman chu
ĠØ ª
Ġof fi
Ġ187 2
Ð¾ ÑĢ
Ġsar un
Ġxi ii
Ġespi rit
Ġqawa sqa
lio doro
Ġkinray ninpi
yaw yu
Ġchik suyu
Ġchuk cha
iÃ±i cha
Ġqallawa p
Ġsina go
Ġonqo sqa
Ġnapay kuy
flo ra
Ġinterna tional
Ġsak saywaman
jam es
Ġgalile a
gil es
Ġdimuk ra
Ġ[... ]
Ġcorin ti
Ġphiwri rupi
ĠindÃŃ gen
a llapata
b lin
b ro
e rio
j illo
m osa
n ar
p ti
p ru
q hu
q shks
r pa
s isi
y le
z Ã¡n
Ä ĩ
Ë Ī
Î ´
à §
Ġ mantapas
ch os
pi ka
Ġk hin
aq kunam
pa c
wa w
wa manqa
Ġh on
cha kuspa
ya r
lla waya
Ġka chkay
ku tu
Ã± Ã³n
Ġa us
Ġa tam
Ġa Ã±aw
Ġa bel
Ġllaqta yoq
Ġsi ki
Ġsi glo
chi j
Ġi ru
Ġi chi
Ġsimi kunamanta
am ayu
li d
Ġkay kunaqa
si on
paq taq
es o
Ġpi pis
er re
Ġman qus
Ġb ara
Ġta purqanku
apaq mi
Ġ19 00
Ġ19 12
Ġay nin
Ġay qe
Ġl ara
al d
al is
el s
Ġpu Ã±u
Ġin du
Ġkaws aspa
Ġcha rin
Ġg ro
kan ka
Ġsa t
ĠwaÃ± urqa
Ġmun di
Ġis rayil
Ġni kun
Ġni colÃ¡s
Ġf ray
vi r
Ġu manta
Ġu Ã±a
Ġu ic
Ã³ w
da ta
chan anpaq
kunap ta
Ġhay kuspa
Ġpuq una
Ġkun sipsyun
Ġw Ã±ka
ut c
de rico
Ġes pe
Ġes tero
qay kuman
Ġkus isami
Ġju ez
Ġal fredo
Ġnisqapi m
uyuq kunapaq
Ġja qay
kis ta
pacha k
iya r
Ġlima pi
Ġsin ch
Ġat hina
Ġwawa kunapa
mo to
Ġinka wi
Ġkasqan ku
Ġwat ana
Ġkamayuq mi
ph aq
15 0
Ġkanta rawi
Ġkash anku
Ġba c
Ġne gro
Ġkamachiy nin
ver o
Ġpampa chay
no qa
ona to
tis uyus
Ġunquy mi
Ġdyus mi
Ġyachan apaq
gar Ã¡
Ġkacha musqa
Ġso bre
Ġalli chay
dri ch
Ġalimanya p
Ġqhe pan
Ġqhe pata
Ġ189 8
Ġchayam uq
pro vin
Ġpachakwata p
law si
Ġmallkiq pa
umir qucha
Ġwik tionary
Ġespi ritun
Ġyachaywasi pi
fran z
chili pi
Ġkhuy apaya
Ġllumpa pi
Ġllap anku
Ġmuy uy
Ġmat ÃŃas
Ġmill p
Ġpat ma
Ġtak ya
Ġsusya lismu
pl uma
cali psis
Ġ% -
Ġentien den
Ġpam pas
Ġqel qan
Ġaba d
Ġuktuwri pi
iÃ±u ku
ĠtÃ©r mino
Ġestre pto
Ġlitera tura
Ġjord Ã¡n
Ġrai mondi
Ġkhin iya
Ġuic n
a Ã±a
a piqa
g la
h ap
k oq
m ero
p tiy
v Ã¡
y mi
z ona
Ġ ç
an anku
ch ester
un quy
Ġk uyuq
in neq
ma may
is qu
wa ll
man araq
lla rqa
Ġka mi
Ġa mpa
Ġa pasqa
Ġm aqta
wan ta
Ġma ti
Ġma kiy
ru l
rqan chu
on do
iq ue
sqa m
pas a
kun kichis
kun kichu
Ġsu ri
Ġha qay
ill ka
es tra
Ġpi tapas
Ġj in
Ġj im
er ro
en ze
Ġb ul
Ġqa ras
Ġta p
Ġc r
Ġ19 21
Ġas ankaru
Ġuma llin
di yu
Ġl c
Ġpacha kunapi
Ġmi l
hi re
Ġg or
Ġsa w
Ġsa wud
Ġmun do
hu Ã±u
hu Ã±usqa
Ġni co
Ġf ar
Ġqucha s
Ġu may
Ġyachay ninta
da vid
Ġqha tuq
ĠÃ±aw ra
Ġ18 44
Ġmayu wan
Ġwikipidiya qa
Ġlli kan
asqa m
Ġpuquy nin
Ġv as
Ġriku way
Ġriku chiq
all wiya
Ġlla lli
Ġes per
Ġumalliq mi
Ġju das
Ġju dea
Ġal may
mun i
bo li
Ġvi uda
Ġtari pasqan
Ġat lantiku
muq iwa
kus ani
Ġkamayuq kuna
Ġph is
Ġmas kay
Ġak llan
kurqan i
Ġjina lla
Ġqull uy
Ġllaqtakuna pa
Ġtiya rqan
Ġukhu man
mb ardia
chej chu
Ġsal o
trib u
Ġdyus paq
Ġpo tter
Ġwaranqa chÃ¡
ino is
Ġyay kuy
Ġyay ayku
Ġpedro qa
Ġkusi kuy
Ġwaw qen
gra d
Ð¸ Ñ
Ġga briel
Ġllika pi
Ġfi esta
Ġrin ku
dal go
gan suyu
Ġyachachisqan kunata
Ġchim pan
kuychis chu
Ġup yan
Ġmayqin kunachus
Ġisa ac
Ġaklla spa
imayna taq
fec tura
thi yup
Ġchacha puyas
Ġve ga
Ġtaw na
Ġaz ul
imarayku taq
Ġnue vo
Ġchimlas ay
Ġapam usqa
llimp hiq
Ġarhintin ap
Ġ{ {
gin ia
Ġapus tul
uter vo
rie drich
inchaq kunapta
Ġelisa bet
puli tika
. ",
b ec
c kh
c ruz
d Ã¡
e mi
e llo
g ÃŃa
i j
i yu
i chiy
o is
q oq
s inki
t pa
y pa
y aya
Ġ ÙĪ
Ġ Ñģ
ay chis
pi a
in chik
ma in
pa ris
Ġs hun
ri kuna
ya chaq
man o
lla do
lla pis
Ġa po
ki lli
ki chka
Ġm olina
Ġsi p
Ġnisqa taqa
Ġnisqa mantam
manta s
chi kuspa
Ġt os
Ġt ro
Ġt ole
Ġsimi taqa
Ġhuk chay
ar ay
Ġki chasqa
Ġki lli
Ġruna wan
ra c
ruw aq
Ġmama llak
Ġya kuy
kun ta
Ġ- -
en da
ana j
kuy mi
or es
chis pas
puy a
Ġan g
Ġan ki
al ta
Ġti q
Ġti bet
Ġti wanaku
Ġkaq rayku
Ġmi y
Ġin gen
to ra
Ã¡ z
kunapi n
Ġpay kunataqa
hu ay
Ġf itz
Ġqhapaq pa
Ġu qa
Ġu Ã±
ca la
Ġallin paq
Ġallin chayta
Ġdi pluma
), [
Ġla chiwa
Ġama chay
Ġway u
Ġwilla kuq
Ġkuti chin
Ġe li
ani za
Ġriku s
rin kuna
Ġllaqtan si
Ġ6 9
Ġco sude
Ġju z
raq chu
hin aspa
Ġmuna rqa
Ġrima pay
Ġmis hi
lis a
sun chis
Ġ15 0
Ġyuy aspa
ne j
aqu ÃŃn
bi Ã³
ec as
simi pi
Ġ0 9
ĠÃ±awpa gradupi
Ġallpa ta
mu ch
Ġchu llpa
ĠwaÃ±u chiyta
ima taq
be ra
Ġatiy niyoj
Ġmo xos
qalla wa
mb uya
Ġapu lli
Ġfa milia
Ġrap ra
Ġnisqan kama
ĠÃ±awi karuy
Ġkul un
Ġpo tos
âĸ ª
Ġbu h
Ġqhari p
ĠmaÃ±a kun
Ġwalla qa
gra ma
gra do
kuman i
Ġx v
Ġx xi
Ġ190 2
Ġ190 3
Ġ190 5
Ġhur quy
Ġkar ka
Ġrurasqan mi
Ġkaus aypi
Ġwawan ta
Ġqur ani
ĠÎ ¼
uksi mbur
men te
Ġqui to
Ġmos kwa
Ġpanta sqa
Ġ185 7
payki chisqa
jan q
Ġmara Ã±Ã³n
Ġmari ano
Ġtaytan chis
Ġbus tillo
Ġboli vi
tul suyu
Ġurasuyu pi
ld onado
Ġmicha el
Ġraw rana
Ġempres a
Ġruman ya
Ġtampu pata
Ã³ni ca
Ġkasu kuq
Ġvir gen
Ġvene zia
ste in
geo portal
tolo mÃ©
ĠÃ±awpaqen pi
Ġbarran ca
Ġindepen dencia
Ġiqi ptu
Ġagos to
dalu pe
Ġvaldi via
Ġtaripasqan kuna
Ġtole do
1 01
b aq
f ur
g ay
h amp
n ispa
s ol
t za
u x
u Ã±u
u ficial
y kunata
× ķ
á º
Ġ #
ch una
Ġk uma
in c
aq kunata
aq kunaqa
Ġs ch
wa qay
Ġp oqo
lla ma
lla tapas
Ġka tt
ku pa
Ġwa maq
Ã± e
Ġq usqa
Ġa rika
Ġn illan
Ġr as
ur as
ru ta
ru pa
ap us
manta chu
Ġt Ã©c
Ġri kuna
ra j
si y
Ġha t
Ġpi ti
er ta
en de
la go
gu as
Ġde por
way chis
Ġ19 23
Ġpu wpu
to la
ni pi
Ġg ana
llan k
Ġru f
Ġis ti
Ġis land
llaqta pata
Ġf la
Ġf Ãº
Ġaswan taq
Ġqucha kunapi
unchaw pa
Ġallin lla
Ġmar k
rqa spa
lu cas
Ġ18 25
Ġtu tura
Ġyacha chinku
chaq llisinchi
Ġpar lan
Ġuy un
Ġuy uni
yki man
ol m
Ġkuti ta
19 80
Ġv ista
llay ki
Ġpus asqan
Ġre pa
Ġyura kunaqa
Ġra dio
Ġmus pha
Ġham p
Ġwarmi wan
wiki liwrukuna
Ġyupay mi
Ġchin kan
Ġtar ma
Ġja wira
mun d
kis a
Ġsin gapur
Ã±u wa
Ġse Ã±a
Ġsay arispa
ninpi m
ras qan
Ġca ta
Ġyala pipas
Ġqillqaq pas
Ġwawa kunapaq
ber o
Ġuywa sqa
Ġkris tu
Ġgu ay
Ġus us
Ġqull ana
Ġpampa cha
Ġaw ki
25 0
Ġqo rqan
Ġwillay kuna
Ġyawar ta
Ġyachan i
Ġqullqi ta
pur tugal
Ġtin ta
Î¿ Î»
Ġkanan mi
Ġpor tillo
Ġkaus ayta
Ġval encia
Ġjam es
usqan ta
dy us
Ġ186 8
Ïģ Î±
Ġapay kacha
zar o
Ġminist erio
kush an
Ġdere cho
val o
Ð½ Ð¾Ð²
Ġedu ca
Ġsuma k
gh t
char d
196 9
Ġmusi yu
Ġæ Ŀ
Ġger mÃ¡n
olog ÃŃa
Ġpachaku tiq
apun chis
aro a
Ġros ario
Ġwara k
imarayku chus
Ġasya pipas
Ġbene dic
Ġigle si
Ġchumpi willka
Ġhuma la
ĠmartÃŃ nez
Ġjesuk ristoq
Ġhisto ria
Ġsacri ficio
ĠvÃŃ ctor
Ġmundi al
ĠuÃ± naqa
: :
a ca
b os
d ral
d ero
e va
e mb
e Ã±o
g ang
i yta
j ara
m ul
p tiyki
q ura
r ri
r Ã³n
w ina
x o
y ec
Ġ $
Ġ Ñ
ta k
ta mi
pi q
Ġk Ã¶
ma Ã±ay
is rayil
pa kuy
Ġs he
wa rqanku
wa tapi
uy o
ti wu
Ġp es
Ġka tis
Ġwa tiq
ka ka
ka mpa
Ġr ish
Ġch risti
Ġma chaq
manta pis
Ġt hay
Ġi ll
Ġhuk taq
ar suyu
wi g
wi chu
li ta
li er
Ġruna taq
Ġya Äī
Ġ- ,
es to
Ġchay aspa
chu ri
Ġman apuni
ul e
tin i
Ġb ol
Ġb ras
Ġta mbo
kuy niyuq
kay mantapacha
Ġde mo
Ġkan apaq
Ġan aniya
Ã±a k
Ġl ant
Ġl uya
Ġg il
Ġmay manta
llu t
Ġis mu
sa pam
Ġf rÃŃ
pan i
mpa ra
da g
Ġdi ya
Ġ18 49
Ġwar ku
Ġun anchasqa
Ġpuk llan
Ġla gos
Ġama zon
Ġmayu pi
Ġuy wan
pe ter
Ġhin apuni
Ġhin aptinmi
Ġv is
Ġe pin
Ġwasi manta
de ra
Ġjes u
Ġra to
Ġra wra
Ġra khu
Ġlla kwash
Ġo ta
Ġ6 5
Ġ6 6
Ġes meraldas
Ġar chi
lo uis
Ġpulitiku m
Ġmuna sh
mun an
Ġ15 51
ga llanes
Ġyuy arin
Ġsay an
che qaq
Ġca pi
Ġchaymanta taqmi
ne vado
Ġna ta
Ġna var
Ġmusuq chasqa
Ġkamachi kusqan
Ġmu chus
Ġchur aspa
ik raq
Ġwaray u
Ġawqaq kunap
ĠÃ±u qaqa
no w
ati y
Ġchurin kuna
Ġnis yu
Ġnis unman
Ġyachachiy ta
Ġallinta chu
Ġallinta puni
Ġphi lipinakuna
Ġpo p
Ġwaranqa ysu
des land
Ġqhari pas
Ġpaqari murqa
Ġtanta ri
ĠÃ±o qanchis
iskay nintin
var o
Ġ190 7
Ġjo han
199 7
Ġab aroa
Ã±awpaq ta
Ġhi ch
Ġhi dalgo
Ġqhipa gradupi
Ġparti dun
Ġ187 4
ĠhuÃ±una kuynin
gan da
wak llanwa
cer ro
Ġyachachisqan kunaqa
Ġtiemp on
ĠispaÃ±ul kunap
at uq
Ġaws anqati
áĥ ĺ
Ġyanap ayta
sam uel
kichwa pi
Ġdavid pa
Ġmanchari kuychu
illim say
Ġmuksi chaqta
Ġacha chilla
Ġcamp ero
Ġpl anta
Ġtiksimuyu p
Ġbor ja
cin to
Ġoc ci
mikh una
cie dad
Ġgal eras
Ġnapuruna kunam
ruraq pa
Ġluk ana
ef rina
aruna ri
Ġunqun ayaq
Ġjac kson
vent ura
Ġmerce d
ster dam
olf gang
Ġbun desland
Ġsinago ga
ckh olm
Ġbenedic tus
ĠfrÃŃ as
Ġepin efrina
6 50
7 50
a kunatam
a kunanpaq
c t
g li
g ne
m el
m ulo
n un
n ÃŃy
r asqa
s n
s ch
t bol
w uliwya
w oo
y on
Â ±
Ø ¬
Ġ Ð²
an te
an ga
pa wqar
Ġs han
mi ca
Ġh ol
ya chakuq
ku paq
ku llan
Ã± una
Ġn ap
Ġr en
ki qa
Ġm uk
wan taq
Ġma Ã±ay
Ġsi wi
Ġsi les
Ġpa pil
Ġd en
as i
chi la
Ġsimi yuq
Ġri kuq
Ġri vera
wi Ã±a
li yu
li yun
Ġruna kunatam
iq uq
Ġkay pa
ra qa
Ġmama llakta
Ġsu iza
Ġsu kumpiyu
es s
Ġchay wanmi
Ġpi cchu
taq u
ul in
Ġsimipi qa
may qen
Ġqa l
os pa
Ġc ay
Ġc ir
Ġ19 16
Ġay u
Ġay ti
Ġas u
Ġmana llataq
Ġg usta
Ġmun du
Ġpiruw pipas
Ġrur as
tam bo
Ġima ppas
Ġru b
Ġis bn
Ġni raq
Ġni eto
vi o
vi dencia
sh aqtin
Ġu lla
lu h
Ġ18 30
Ġ18 29
Ġwar mis
Ġyacha kunchu
chkan i
Ġla jas
kunan kuta
Ġmayu manta
Ġkuti chiy
Ġkawsay ninmanta
Ġati pay
kunamanta wan
Ġ6 4
Ġco ta
urin am
san to
Ġuk ranya
aynin qa
aynin pi
Ġmuna rqanku
Ġja cinto
lis ya
Ġmarka pata
bo ra
pacha man
Ġvi da
Ġriq sisqan
Ġyala man
Ġtari kuq
Ġkap urqan
aykipaq qa
it y
par ti
Ġmas kh
ern ando
Ġwakin taq
Ġle e
Ġrun tucha
las o
Ġsimin mi
Ġpur ina
Ġapu kuna
Ġlo mbardia
chej paj
Ġpas cua
Ġunquy qa
he in
Ġbo te
Ġrepublika kunap
Ġllu llu
illu ta
Ġjan aq
Ġsuyun kuna
Ġamachaq mi
Ġmon t
Ġkusi kun
Ġpukllay kunapi
Ġach ki
Ġtantanakuy mi
Ð¸ Ð½
Ġhunu manta
Ġ189 6
199 2
Ġshi pi
Ġ187 5
Ġ187 6
Ġsara kuru
Ùħ Ø¯
Ġkallpa chasqa
ĠiÃ± uyuq
Ġlas t
ĠÏ Ĩ
at ma
Ġwarmin ta
Ġmill ma
Ġqallari rqanku
Ġtra di
Ġchiq niq
char les
Ã§ a
ft ware
Ġraw ray
llanku taq
Ġwaka mayu
Ġtes ti
Ġbern ard
unchaykunapi n
Ġchall waq
Ġpak istan
universi dad
roma gna
Ġcaste llano
eti que
Ġtutay aq
Ġalex and
Ġquis pe
Ġespirit uq
Ġpotos ÃŃ
ĠfÃº tbol
a chiq
b on
b oro
c ap
c le
c usco
d d
d ge
e pi
e ve
e mas
f c
h unt
i ki
i rin
k el
l en
l aya
m bi
v ol
z hou
Ġ Ã©
Ġ ern
Ġ Ùģ
ta punin
qa llu
ll cha
un an
ay ay
ay Ã¡
pi rqa
Ġk y
in qu
ma c
ma ris
is kusya
Ġs tu
Ġs ispa
Ġs uyuq
wa pi
kuna ka
ya tana
Ġwa ru
Ġq una
Ġa sti
Ġa way
Ġa wasqa
Ġr espi
Ġllaqta mi
Ġllaqta kunaqa
Ġllaqta kunapas
us u
qan kunaqa
Ġm uyuq
Ġma la
Ġma chasqa
Ġsi land
Ġpa kta
Ġd al
Ġ1 01
Ġi hiptu
Ġhuk chakuq
Ġri ka
Ġri puy
am in
am us
am pu
li q
Ġsuyu wan
Ġruna ka
tu la
si ka
Ġpi Ã±a
er ÃŃa
ins ya
tin g
Ġb all
may pim
Ġta pusqa
apaq pas
al e
Ġti m
Ġti kra
Ġrunakuna ka
hi o
Ġg rana
llan d
llan taqmi
Ġis law
Ġf l
Ġf un
Ġsan ti
Ġwan ta
unchaw piqa
chin chi
do ra
Ġrimay ninkuna
chan ankupaq
Ġhu h
Ġla tina
Ġmayu kunap
Ġway ana
Ġway akil
ris a
Ġw uliwya
Ġkuti chirqan
Ġhan ja
Ġre in
Ġdios pi
Ġham usqa
Ġo k
Ġ6 1
Ġar gen
raq o
Ġro mÃ¡n
Ġyupay chaq
anpaq mi
Ġmikh ukun
niy kipi
Ġastawan pis
Ġpha waq
Ġ7 1
Ġ7 00
Ġqan wan
Ġsutin mi
pin tu
Ġsin ta
Ã±u qa
se y
Ġca mi
Ġpusaq si
yun pi
Ġyaku qa
Ġna tural
Ġchakra ta
Ġ0 6
me z
Ġanti biÃ³
Ġsuy sa
ber n
kus panku
Ġsuntur pi
Ġlu d
Ġkall payuq
Ġ13 0
Ġba bil
Ġba tallas
mus h
qhi pa
chisqan ta
Ġchur arqan
Ġus i
Ġcar ta
Ġcon cepciÃ³n
Ġqi chuy
Ġpampa man
Ġaw tun
Ġpur is
mb old
kunku m
kusqan ku
Ġllaqtakunapi pas
Ġnisqan manjina
aqtin chus
Ġwillay kunata
Ġwillka mayu
llata taq
Ġdo cum
ent os
Ġpan u
Ġpan sa
Ġqar qo
tion s
Ġwanka pampa
Ã¤ r
yana pa
Ġmachu pi
Ġsam uel
llin raq
Ġ189 0
199 3
199 9
inka kunap
Ġchinka sqa
Ġrin ri
Ġpala b
kim santin
anti kunapi
sal wadur
Ġwati kanu
Ġtawantinsuyu p
Ġcer v
ĠiÃ±iq kuna
Ġedi tores
Ġllap anta
ĠpuÃ± una
Ġos lo
kusun chis
Ġlin ares
Ġliw run
Ġwayllukuq si
Ġpaq llun
Ġderech os
Ġgra ci
Ġwanku risqan
niq ta
Ġpuna ta
Ġmitru kama
ĠhayÃ±i yuq
Ġpurtuyis kunap
ĠÃ±uk anchik
asqanku ta
cien ci
Ġqhapaqsuy un
ÏĮ ÏĤ
yuy ay
Ġsati pu
mut hiyu
Ġblan ca
Ġalf aro
Ġiwan hi
Ġanto fagasta
Ġsinto mas
wati mala
Ġhern Ã¡ndez
Ġfir enze
Ġlen gua
pÃ³ lito
Ġyachatsik Ã¯
Ġcorinti os
etique tas
% -
( *
) -
a to
a kunqa
c aya
e ll
e ral
g Ã©n
h on
j us
j er
j il
l n
p la
q uya
r ara
t Ã³
Ç Ĳ
æ ĸ
Ġ à¦
an da
qa spa
ay cha
pi ya
pi ru
Ġh it
cha kunata
ya rqa
Ġwa uq
Ġq shks
Ġ( ~
Ġa chik
Ġa ca
Ġa riq
Ġn m
uq i
Ġma ran
Ġsi mp
Ġpa d
ap tinqa
Ġ1 18
as Ã±a
chi m
chi ka
Ġi k
Ġi tur
Ġi wriyu
nin ka
li m
li tar
Ġruna llap
ra ti
paq ucha
Ġchay kunamanta
Ġchay llapi
chay piqa
Ġwi cha
tin pa
may qin
âĢ Ŀ
ana man
Ġc el
Ġqillqa m
Ġqu pa
Ġy uyu
gu ÃŃa
Ġay chan
Ġay llur
Ġmana chus
Ġan i
Ġan da
ray a
Ġuma llina
Ġl es
Ġl aqu
al tu
al fredo
Ġkaq mi
Ġrunakuna pi
Ġrunakuna pak
Ġkaws anapaq
Ġg ros
Ġqhi panta
Ġmay k
Ġima sta
Ġni yan
Ġkama riy
Ġf al
Ġf ara
Ġf lor
Ġu vas
unchaw kuna
riy pi
Ġmar cel
da do
chan ka
Ġchi r
Ġchi mu
kuq kunata
Ġ5 6
Ġwar nes
Ġtukuy pa
Ġuy ayuq
Ġhay a
Ġwikipidiya paq
Ġwilla rqan
asqa chu
Ġhin aptin
Ġkuti pi
19 60
Ġe vo
Ġe fec
Ġre al
Ġurqu Ã±iq
Ġo llanta
Ġ6 00
qi ru
Ġes tra
Ġes cuela
ayki ta
san tu
sin g
Ġmuna ku
Ġrima kuna
qh ayta
mun ismo
Ġwakllanwa ta
Ġqan kunawan
Ġruwa rqan
Ġvi ctor
Ġtaki ykuna
Ġsay wan
yay ta
Ġchaymanta s
Ġchaymanta pacha
aqu mayu
ho lland
Ġ0 8
Ġkunan mi
ispi llu
Ġuq shapampa
Ġkamachi kuykuna
Ġyana ma
cion ario
Ġkanku man
acha manta
Ġrisirwa kuna
Ġatin chik
Ġsun quyuq
waq chis
waq niy
Ġquyllur mi
Ġcon tribu
pam pilla
Ġatiy ninwan
uyan u
Ġtawa k
mb ay
Ġrunakunata qa
Ġyuyay wan
jo han
Ġjuan pa
Ġchask ispa
Ġchaq nam
ge orge
Ġnu Ã±uwa
Ġcor po
Ġuni dos
tt le
chuq i
Ġyachan ichu
Ġso ftware
Ġruru chiq
Ġqar ayuq
Ġayllun kuna
Î¿ Ïħ
Ġ189 2
Ġphu ti
distritu kuna
Ġpuriq lla
Ġab ril
Ġut qay
Ġimaymana ta
Ġinter cul
198 2
ei ra
ji ang
kam ulla
ninku manta
Ġhara wikuna
Ġ185 4
Ġsupay qa
Ġmakin ta
Ġaqu pampa
Ġedi ciones
Ġpuma pampa
Ġmunasqan man
Ġpat sa
Ġtiempo pi
Ġrikh ur
Ġko munismo
Ã§ ois
Ġwayllukuq pas
kap chiy
yacha chiy
yacha chikuq
Ġban la
Îµ Î¹
Ġtri go
Ġqallawa m
Ġcol Ã³n
kul tura
Ġuman pi
Ġgonz alo
Ġpalama kunam
Ġqasi kaypi
Ġchill ki
Ġsil va
Ġkunankama pas
Ġgrego rius
Ġameri kaq
Ġtuna ri
Ġestu di
Ġbri tan
Ġtiqsi muyu
nor th
indi hina
jesus taq
Ġkriy iq
Ġasun ciÃ³n
ĠsutÊ¼ incha
Ġarhintin u
Ġkilu gram
Ġjayk Ê¼
Ġlis boa
Ġlus iya
Ġmuyun tinpi
Ġchull usqa
Ġmunisip yunmi
grigur yu
yle pis
Ġkatis ismu
Ġcerv antes
Ġayllur una
1 17
] "
a tam
a chani
b ru
c lo
d Ã³n
d ÃŃa
e us
f en
h ea
i mp
i des
k t
k anqa
m ri
n ap
o u
p es
p Ã¡
p lay
r uni
r ero
s z
t la
t le
t uru
t Ã©s
w tis
y una
z al
z amora
Ë Ĳ
Ñ Į
à ±
ã Ĥ
å ¤
ch ukuy
un u
un yapi
Ġs oqta
ri r
ri chin
ri tuy
Ġll asa
ti l
Ġp olÃŃ
man q
lla o
lla kuna
lla chishka
Ġka tuliku
ku kuna
ku ba
Ġwa llam
Ġwa chan
Ġa is
Ġa lan
Ġa gen
Ġn ay
uk ru
qan kuna
ki wan
Ġma sa
Ġma kusani
Ġma ldonado
chi rqanku
chi kurqan
chi kunku
wi q
wi ti
wi ha
am un
am pasqa
Ġsuyu pa
Ġkay tam
Ġkay piqa
ra fael
kun tur
si ll
si tan
Ġchay an
Ġj anaj
er os
Ġwi pha
qu ÃŃ
tin kuna
Ġqa taq
Ġqa way
ana ta
Ġta tas
Ġc utervo
gu is
kama pas
Ġay s
Ġas ta
ha t
chasqa chu
di ca
Ġl un
Ġl uksimbur
Ġhawa manta
el os
Ġpu chun
Ġpu rirqan
Ġmi lla
Ġmi kuy
Ġin tra
ci ca
ci ano
ci pul
hi ma
Ġsuyupi taq
ni raq
Ġcha pari
anta m
anta Ã±iqiq
lin e
Ġmay nas
Ġ3 65
ro bert
Ġima kuna
Ġis muy
ran u
Ġni ko
sh pa
Ġu ri
Ġwan tar
Ġwan kur
Ġyachay pa
Ġyachay taq
do m
Ġmar ino
na cion
Ġrimay manta
lu c
Ġchi kan
Ġchi paya
Ġ18 80
Ġhu chayuq
Ġ5 2
Ġyacha china
chkan chik
maq anakuy
Ġama cha
Ġuy an
mana ta
yta qa
Ġway chu
Ġkun tisuyus
Ġraymi ta
Ġyu man
Ġkawsay man
Ġwasi p
Ġdios nin
Ġdios niyki
Ġra hu
Ġmus p
Ġham pin
Ġllaqtan chik
Ġayllu manta
Ġwarmi kunapas
Ġkus hka
Ġuk h
Ġal tar
qh e
Ġja wa
Ġmikh usqa
Ġvi la
Ġyuy arina
Ġachka ta
unchay qa
Ġwawa kunap
Ġwawa kunawan
Ġtayta y
Ġtayta cha
Ġispa Ã±ap
me di
me tro
anchay man
ayku ta
Ġkash aq
Ġph ur
13 0
Ġne ce
ĠwiÃ± aspa
be la
be th
Ġatiy wan
kusqa yki
wasi chay
Ġpur isqan
Ġaran wa
Ġrunakunata s
Ġcu p
kusqan kuta
dor es
Ġhinaspa pas
Ġme ta
Ġllu chk
chuq lluqucha
Ġche qan
Ġap ur
Ġfran cis
Ġda tem
qill qay
Ġyay an
Ġte o
Ġrik ina
Ġpata llaqta
ĠseÃ±or ninchis
Ġmunay lla
tr os
Ġjo aquÃŃn
Ġqillqan chik
Ġkar l
Ġho ra
Ġraki kuna
rur un
rur ay
Ġash tawan
Ġtaq i
Ġfi fa
was karan
Ġqur pa
je ho
Ġ186 4
Ġ188 2
198 4
Ġjehova ta
ten ango
Ġher rera
Ġyachaywasi kuna
Ġmakin pi
zi g
Ġpal ma
ĠwaÃ±un anpaq
kusun chik
siq uw
wik isimitaqi
Ġkamaq ill
Ġmari aqa
Ġwaqachina kuna
Ġqespi chisqa
bri dge
Ġchik layu
Ġter ry
Ġlor eto
Ġpusapuna m
Ġkiki llanta
Î· ÏĤ
Ġpila to
chiqa p
Ġmanta ru
Ġakllanakuy pi
Ġqura kunam
Ġmois es
ull ku
chinki chu
hama kuna
Ġkuta wasi
rini dad
hel m
llimp hi
Ġisi dro
ote ca
Ġbuena ventura
Ġmurun kunatam
ĠwaÃ±usqan manta
hampi kamayuq
sap si
Ġwayaqa cha
dap est
Ġsto ckholm
Ġhero des
sall pu
Ġkapita lista
provin cie
boli via
llado lid
Ġdipluma tiku
Ġruf ino
Ġill inois
wakllanwa tapi
Ġrespi ra
Ġpansa liyu
Ġgraci asta
muthiyu paq
Ġchaqnam uy
Ġwankur ina
siquw ina
a o
a chiyta
b ina
b inidiktu
c un
d ul
d unya
f il
f Ã¡n
h ta
j uk
j ose
r or
s pi
s el
s Ã£o
t ya
v y
w ka
w or
y nin
Å Ħ
Û Į
Ġ čĊ
Ġ ÙĦÙĬØ§ÙĦ
an chana
an kichu
ta ma
ll ÃŃn
ay man
ay rimana
Ġk la
in kuna
in ankupaq
ma ch
wa llqa
ri muy
Ġll us
ti fi
Ġp unchawpi
Ġka tal
Ġka jta
Ġka lalit
ku lla
Ġwa qaq
Ġwa machuku
Ã± ar
Ã± asqa
ka ti
ka tu
Ġq urqan
Ġa lla
Ġn Ãº
Ġllaqta runa
Ġch or
Ġch ong
uk ya
Ġma lla
Ġma didi
Ġpa tri
Ġ1 10
as man
Ġi ch
Ġi pis
ĠÃ± irqan
ar us
ar te
Ġri kunalla
wi ch
Ġkay chis
Ġkay na
Ġsu b
Ġchay raq
chu mpi
Ġj on
Ġj uni
en z
tin pas
Ġb am
Ġqa raq
Ġc ity
ist unya
or gia
Ġan tisuyu
ws a
Ġl inti
Ġti wlli
el pa
hi ra
Ġg all
Ġg las
anta waylla
kunapi taq
Ġsa li
Ġur qus
pu ta
Ġqhi pata
Ġpay kunamanta
Ġima pis
hu i
Ġis qon
ran o
Ġkama riq
vi des
Ġu tu
Ġu mayuq
Ġyachay qa
ca te
Ġallin kunata
Ġallin kaqta
Ã³ mulo
Ġmar y
tan der
lli y
Ġrimay kunaqa
Ġ18 0
Ġ18 22
Ġ18 41
Ġla ta
has a
Ġpar lari
kunap pas
Ġtukuy nin
Ġuy waq
Ġway qe
ris unchik
Ġw isk
Ġiskay niyoq
Ġe liodoro
Ġkawsay kuna
anku chu
anku paj
Ġllaqtap ura
de llÃŃn
Ġmus quy
ptin ku
Ġllaqtan pi
Ġ6 2
Ġco lum
Ġes cale
uru pampa
ayki chista
Ġpulitiku mi
hin aspan
Ġtar pun
Ġtar puq
anpaq qa
sun ki
mun anpaq
ari a
Ġ7 6
Ġqan kunapaq
bo x
kunapas h
ce o
Ġku riya
Ġpun kuta
Ġpun kiy
unchay nin
Ġyaku p
Ġna k
Ġqusqu pi
me ra
me do
Ġsuy us
Ġno qan
org es
gen o
Ġhun ta
Ġak na
Ġkas aq
Ġuyar isqa
po si
Ġqhipaq nintaq
Ġquyllur kuna
Ġchaypi taq
Ġen tre
Ġaw kikuna
cas h
Ġpur isqa
Ġcu en
Ġqo sqa
llata k
Ġchawpi pi
Ġfran k
Ġfran sis
Ġpan ka
Ã©n dez
Ġpaqari chin
Ġqullqi yuq
Ġmancha risqa
asa pa
Ġwaki chiy
ykichis pi
Ġand re
Ġimayna ta
Ġrunas man
Ġpuri ri
Ġqay llapi
bre os
Ġllimph isqa
land is
Ġpuriy ta
muyu rikuq
199 4
199 6
Ġval paraÃŃso
Ġqhipa man
ikr arqan
Ġinlis yapi
Ġinlatirra pi
Ġfi erro
hua hua
pro verbios
Ġukhun man
Ġser v
Ġtun qur
Ġ188 6
198 1
ÙĨ ÙĬ
ĠÃ±isqa tapas
Ïģ Î¹
Ġmor ona
ĠÃ±oqa manta
aytu cha
Ġkura ka
Ġtawantinsuyu pi
chikun man
sta te
Ġlloq sispa
ĠiÃ±iq qa
ayu paya
Ġshu maq
Ġshu war
kuptin qa
wikipidiya qa
Äģ n
ĠhuÃ±usqa m
Ġger manu
Ġfo unda
Ġbil isi
nas yun
Ġllaqtay kuq
cay o
Ġcent ral
Ġruman tiku
Ġcristi anos
Ġtukun anpaq
Ġniran llapa
Ġentien de
Ġawa hun
Ġjus ticia
Ġsill wi
chuku witu
Ġbene de
Ġyam t
Ġare quipa
tuma sa
Ġhus iy
lampa lliqi
Ġasuy kuspa
ambi k
Ġhansuyu pa
Ġtex as
Ġunqu chiq
Ġparlay kuna
Ġespin ar
Ġgubir nasyun
pÃº blica
Ġcaja marca
Ġprome te
Ġorg aniza
Ġrir pu
Ġbena vides
maris cal
Ġasti ka
Ġok lahoma
ĠantibiÃ³ ticos
Ġyachaytaq pi
Ġfounda tion
" ),
1 10
5 50
? ),
[ [
a chkan
a Ã±an
b Ã³n
c ona
d ere
e w
g g
g dad
h ana
h ampa
i qan
j on
j Ã¡n
n illan
p ri
r aspa
r ena
s nin
s aya
u co
w est
x x
y wan
Ã ²
Ï ĩ
× Ļ
Ø ´
Ø ·
Ġ ÙĦ
an s
an kunata
an tan
an ne
an llapa
ch ha
ta ria
ay asqa
pi ruwanu
in am
in tu
ma ria
is pas
Ġs ÃŃn
Ġs urata
uy t
uy ancha
mi yu
mi tan
mi lio
ri ri
ri ti
ri rqanku
Ġll in
Ġp g
Ġp df
cha kunaqa
Ġka kun
ku pu
ku rin
ka tan
Ġq or
Ġa gra
Ġllaqta Ã±iq
us it
Ġma p
Ġsi wil
ru man
Ġpa llasqa
Ġ1 19
Ġ1 17
chi mpurasu
Ġsimi taq
wi ru
wi raqucha
pas tasa
Ġya kun
kun aykipaq
Ġsu pi
paq u
Ġj r
Ġj or
chay si
Ġman ya
Ġwi qi
Ġqa tan
Ġta i
Ġta rirqan
Ġqu paqhawana
gu in
ha i
ha ri
di lla
Ġkaq llam
Ġkaq kunapas
Ġpu maq
Ġin mun
Ġcha qay
Ġcha kray
Ġhatun mayu
pu riq
Ġqalla w
Ġ3 60
isi ya
Ġima m
Ġima ge
Ġis mael
sqan kuta
Ġsan anchan
Ġli y
sh Å«
Ġyachay sapa
chin man
Ġallin tam
Ġqhichwa ta
mpa j
lli ka
Ġ18 31
Ġtu tapi
Ġyacha qay
Ġla mas
Ġhay aq
yki q
Ġwilla kunata
ris un
Ġkuti qa
Ġkuti muspa
Ġiskay mi
Ġe m
Ġe milia
go w
Ġkawsay qa
ara chiq
mp urqan
Ġre ino
Ġre vista
de partamento
Ġham us
Ġllaqtan chiq
Ġco b
Ġco ro
Ġmamallaqta m
ĠÂ »
Ġro ga
Ġpha wa
Ġpha laq
Ġ15 33
Ġ7 2
Ġ7 7
war ispa
Ġmarka pipas
ĠÃ±awpaq manta
Ġ9 6
pin uta
Ġse gun
Ġ8 00
Ġyuy an
Ġku wa
18 0
yun ka
du wa
Ġtari pasqa
Ġkawsaq kunap
Ġat isqa
Ġtuku kuq
su widsuyu
taj rÃŃ
qucha s
kus isami
Ġuq hu
ph y
iy pi
Ġkamachi kuynin
Ġkash ani
isa ÃŃas
Ê¼ u
tri eve
Ġba gua
Ġba wtis
Ġqillqasqan pi
th ur
th uyuqkunapaq
Ġrisirwa pi
ik rasqan
Ġrun tun
Ġrumi pi
Ġsinchi yasqa
kusqa ku
Ġpur un
ukun an
Ġpas aq
Ġllaqtakunapi qa
Ġchaq na
Ġz i
Ġuni das
Ġyachan ku
killa qa
Ġruru chinam
Ġda kota
asa ka
Ġtiyaq kuna
Ġqay llan
Ġriqsi chi
kunqa chu
Ġrus u
Ġtay han
Ġ189 1
Ġllika m
199 1
Ġsir bya
for ma
Ġval e
Ġash ka
uqu Ã©n
Ġsunqu wan
Ġqun chu
Ġwas k
ĠÎ µ
Ġ186 7
Ġdis cipul
Ġ188 1
Ġ188 7
198 5
198 8
Ġpikchu pi
Ġapay kachay
Ġam sterdam
Ġmaki ya
Ġher manos
Ġmakin manta
ac Ã¡n
Ðº Ð°
Ġaqu mayu
Ġedi ciÃ³n
à¦ ¾
munisipyu kuna
chinqa ku
au gus
Ġcristo qa
Ġwiraqucha kuna
wasqa yki
oro d
ich ki
kusi kuy
Ġmer cado
Ġqhepa man
tuk tun
Ġgua dalupe
Ġpuli wya
Ġyawri m
Ġtull uyuq
Ġtuy ru
Ġove ja
ØŃ ÙħØ¯
Ġmes sa
hir siquwina
Ã±ap hi
Ġfre e
Ġreligi on
Ġcaball ero
Ġkam ri
Ġusqhay lla
Ġinstitu to
Ġislu wakya
Ġcocha bamba
Ġparinaqu tapas
Ġhinaq si
Ġyawatisuyu pi
tale za
Ġaynin akuy
Ã¡z quez
apus tul
rri Ã±aphi
Ġwatiq manta
Ġota valo
woo d
yachakuq kunapa
Ġtradi cional
Ġgrana da
Ġawtun umu
Ġcorpo ration
trieve d
1 12
a qay
a chirqan
b ap
b aya
c r
c ÃŃ
c ca
c Ã¡n
c les
c risti
d ish
e da
f an
h r
h aq
h una
h mi
i g
i rqa
i bo
j ay
j arani
n y
o d
o mer
s os
t Ã¡n
u manta
u te
u llun
v or
w aqmi
y kuwan
z os
{ {
Î ¾
Ġ uyu
Ġ Éµ
qa rwa
ll os
ay m
ay ra
pi Ã±a
pi pis
ma kin
is qun
kuna chu
kuna llan
uy pi
mi ri
ri wa
ri os
ri mun
ri cardo
Ġh ana
ya rqan
lla ku
Ġka pi
Ġka man
Ġka san
Ã± isqa
ka t
Ġq is
Ġa pas
Ġa ce
Ġa mb
Ġa gua
Ġn um
Ġn apo
Ġr isqan
Ġllaqta tas
Ġch huk
ur ana
wan pis
Ġma ru
Ġma sh
Ġma dre
Ġpa ciencia
ap pas
Ġd er
as ara
chi o
chi way
chi mpu
Ġt ul
Ġt la
Ġt re
ar am
nin kama
nin naq
Ġri be
li lla
ra pi
Ġya llinraq
kun chik
Ġqh ar
Ġsu ce
Ġsu llana
paq chu
ina ta
Ġha way
es e
es te
es aloni
Ġb ran
Ġb lo
Ġb aqu
Ġb run
Ġqa ray
Ġc alle
Ġsuti ta
tun ya
Ġay chanta
chis unki
Ġan hil
di e
Ġl ing
Ġkaq hina
Ġmi k
Ġmi litar
Ġin ga
ci os
hi mi
kan ku
Ġsa qa
Ġur qun
lin u
llan ka
llan pim
Ġmun gul
runa kunap
ro ga
Ġrur uyuq
Ġima paqpas
Ġis tu
Ġis lay
Ġis lam
re trieved
Ġf lores
Ġf aringitis
llam pu
Ġqucha wan
unchaw niyku
Ġyachay manta
do val
pan do
Ã© li
Ã© xo
Ġmar co
Ġ18 10
Ġhu ar
Ġhu go
Ġ5 7
Ġyacha kuy
Ġyacha kunapaq
Ġama raka
Ġhay un
ol k
19 79
19 59
19 75
Ġe us
Ġe va
Ġe cu
Ġwasi cha
Ġwasi kunata
Ġriku sqan
Ġriku chirqan
Ġati ene
de mo
all qu
Ġdios wan
iti wu
le o
Ġllaqtan kuna
Ġllaqtan manta
Ġo a
Ġo m
Ġco se
Ġpukyu kuna
Ġar ce
Ġju anqa
lo tte
kuspa lla
ba c
lis tu
Ġqan kunamanta
Ġmarka piqa
Ġ9 7
Ġvi l
Ġsin ri
Ġse mana
se a
aqu ta
unchay kama
Ġsaq er
Ġna zar
du kuna
Ġ12 0
Ġtuku chin
Ġwawa kunaqa
kichis ta
kichis pas
me ta
anchay niyku
Ġsuy tuk
illay manta
Ġchan chamayu
Ġuq u
Ġkap chiq
Ġkash arqa
ral de
Ġmu ri
Ġmu Ã±
it pa
xi amas
Ġmas kha
acha ta
Ġgu alberto
Ġchur arqa
aska r
Ġcar cel
ju ch
Ġcon greso
Ġtiya kuq
kusqa y
ukun ku
Ġyuyay kuspa
Ġkuyu chin
kunku man
Ġsal v
Ġnisqan pi
Ġchurin si
Ġnis hu
fa ce
Ġz h
Ġdyus wan
ata wallpa
kuynin qa
ks hire
Ġllu ta
waÃ± uy
Ġap ana
cho a
Ġwaqay chan
Ġyuraq yaku
Ġyay kun
Ġara b
Ġrik Ã¤
kunapa k
Ã¤ nam
Ġtantanakuy pa
kuman chu
Ġsonqo wan
Ġesta dos
Ġx vi
Ġrimasqa kama
bre ra
Ġtay tanta
Ġ189 7
199 5
Ġrurasqan ta
Ġraki rinkuna
à¤ °
ĠhuÃ±u kuna
qui to
Ġchallwa kunam
ash qa
Ġlluqsi rqan
Ġkachka rqa
Ġ186 5
Ġ186 6
phi a
Ġkallpa wan
der Ã³n
Ġqullqa kuna
Ġ185 2
Ġ185 6
Ġiman aqtinchus
Ġchaki yuq
Ġasi pay
ĠÃ±uÃ±uq kunam
Ġllap hi
dis lao
tum pis
Ġqon qo
imayna tÃ¡
kap chiq
ces co
cri pt
iqtay niy
Ġva lladolid
gn os
Ġyanqa lla
Ġqolqe ta
ĠÐ ¼
Ġqari kuna
Ð¾Ð² Ð¸Ñĩ
Ġjesucristo pi
Ġhas p
ĠmÃ© rida
Ġbel Ã©n
Ġvir ginia
ling Ã¼
runasimi pi
Ġnish pa
ĠØ¹Ø¨ Ø¯
akin cha
tic s
ĠÃ¡ngel es
Ġyupaycha rqanku
kamachi chisqa
Ġministrun inmi
Ġqul cha
ÐµÐ² Ð¸Ñĩ
Ġnar ciso
Ġkampiuna tukuna
Ġparan Ã¡
Ġisk law
Ġchayn ulla
Ġniya tiwu
kista dur
Ġbul garya
Ġkilli kacha
maÃ±ay kuna
Ġamazon as
Ġsiland aq
mbold t
Ġitur ralde
Ġsiwil chasqa
esaloni ki
Ġsuytuk ancha
9 00
a chinapaq
b ut
b urinkin
c ti
g l
h y
i riy
i chiq
i wriyu
j is
j ar
j ardo
l ina
m ÃŃn
m ento
n apu
p rin
p ÃŃs
s untur
t ta
u g
u man
v elo
z h
Ã ¥
Ä ĥ
Í ĺ
Ġ Å¡
ch uya
ta rata
un pa
un ka
ay ruma
ay kamulla
pi ki
Ġk ho
Ġk emp
in chay
in apaq
in kar
ma pi
is yun
Ġs uk
wa spa
wa sa
mi cha
ri yuq
ti ykichis
Ġp el
Ġp Ã«
Ġp rima
cha p
man ka
Ġka li
ka chan
ka thuliku
Ġq es
Ġa wi
Ġa co
Ġn am
Ġn aran
uq mi
uk ana
ki chej
Ġm Ã¡r
wan u
Ġma i
Ġma k
Ġma killa
Ġsi ku
Ġsi ra
ru kuna
Ġd ur
Ġwata q
Ġwata paq
Ġ1 16
Ġt say
Ġi dio
Ġsimi pas
Ġsimi kunaqa
ar si
ar yu
nin rayku
nin kunamanta
Ġri rqa
wi ce
li e
Ġruna spa
ra k
ra Ã±a
Ġya gua
kun ayoq
Ġqh aq
Ġsu l
Ġsu Ã±
si Ã³n
uma s
Ġpi chana
Ġpi ed
Ġpi qpa
Ġj el
chay kuna
er na
ins yun
Ġman yan
en as
la ma
la wya
Ġwi ks
qu er
Ġta ma
Ġta riy
kuy llu
Ġc ristoq
Ġay ni
Ġas khan
yan ya
di ego
Ġkaq ninta
Ġkaq tinqa
Ġkaq ninkunata
Ġin te
Ġin sik
Ġin dunisya
ispa taq
Ġg ru
aqta qa
anta llawanchu
Ġsa mar
Ġis kuy
Ġhina pi
Ġhina taqmi
re al
Ġli e
unchaw niyuq
unchaw niyuqmi
Ġyachay wanmi
Ġallin kaq
pan pi
Ã© nez
tan o
Ġqha t
lu wakya
uli wiya
Ġ18 24
Ġ18 26
Ġ18 45
Ġhu chuy
Ġtu llun
Ġwar kh
Ġnispa m
Ġhay ka
Ġkatiguriya kuna
Ġw olfgang
Ġkuti m
Ġkuti y
19 49
Ġe pÃŃs
tawan tin
Ġpus ana
Ġati kun
Ġati waq
Ġre pÃºblica
ulla lla
Ġra Ãºl
rin ku
Ġllaqtan cheq
min ist
Ġco s
uru ta
unqa q
unqa ku
Ġsuyukuna man
Ġju chayuq
lo v
Ġal ban
Ġja ruma
Ġwatamanta m
Ġqan kunata
Ġqan kunaman
Ġ9 1
Ġanta kuru
Ġimay uq
Ġimay aymi
Ġca te
Ġca brera
Ġku lli
aqu e
aqu i
va ca
llapa chu
Ġsaq e
10 2
du cciÃ³n
Ġchakra pi
Ġwawa kunapas
Ġtayta yku
Ġpe ri
Ġkasqan man
anchay ku
ber ta
kus ha
llur kuna
Ġchu ta
mus ika
Ġph insuyu
Ġgu er
Ġbi o
Ġrisirwa piqa
ima mani
Ġwakin kuna
Ġne rqanku
Ġus u
Ġus qhayta
Ġqhipaq nin
Ġqull usqa
Ġqull qin
kha llka
Ġtiya sh
Ġkh ay
Ġkh ish
ĠÃ±u ka
Ġcre en
Ø§ Ùħ
mb us
Ġapu lliq
Ġwaqa r
Ġfa jardo
Ġcas a
car rald
Ġllaqtakunapi m
Ġchurin mi
he m
Ġruwan kichis
Ġnina pi
Ġnu estra
Ġphi chqa
Ġto mas
llata chu
Ġkacha mu
Ġpaqari chiq
Ġtanta chisqa
Ġtiksi muyuntin
Ġchinchay suyupi
win ya
Ġtakiq kuna
Ġkananpaq qa
bu co
Ġyachachiq mi
gus lawya
Ġkanan chispaq
Ġqillqan akuna
Ġcant on
Ġmanu ripi
Ġhur quq
Ġkar tulsuyu
Ġkurku p
Ġval er
kana da
Ġimaymana kuna
ikr ana
Ġinlis yan
Ġ187 1
Ġ187 9
chinchay suyu
Ġwamani pi
Ð¾ Ñģ
Ġlluqsi muy
Ġmikhuq mi
Ġwas ha
bar celona
Ġqur qa
Ġ186 3
Ġ188 4
Ġ188 8
198 7
wak cha
ĠÃ±isqa pi
ĠiÃ± ini
ĠispaÃ±ul kuna
Ġimayay pa
puna paq
mer os
Ġwarmin wan
Ġmunasqan ku
uri ce
Ġsipas kuna
Ġcheqaq tan
Ġjehov ap
Ġlin guis
Ġchiki tus
kuptin mi
Ġhar ry
ens es
Ġmusi kuq
Ġyupa kuna
Ð» Ð°
chayrayku m
niq ir
Ġtak yasqa
Ġyarqa sqa
ich Ã©
rumi lla
Ġlar unpi
Ġva ca
sir bya
Ġtru jillo
Ġchacha kumani
dru p
ĠÐ ±
Å« shÅ«
Ġkhi pu
Ġaj lla
cur e
cali fornia
flo rida
Ġbauti za
Ġameri can
Ġsuticha rqa
____ ____
hara wi
Ġjaco bo
Ġol medo
mbur g
tho mas
Ġpol ylepis
ĠĠĠĠ ĠĠĠĠ
Ġtec n
Ġchuqu imamani
Ġqhechwa simipi
Ġapuy aya
Ġescri to
bour ne
huan ca
Ġox ford
Ġampa tu
Ġesper anza
ĠæĿ İ
Ġipis tula
Ġamaraka eri
aykamulla way
" ;
1 16
7 00
a war
a chispa
c s
d ena
e qe
f ernando
g uy
i tin
i gal
j chu
l uq
o f
p hin
r yu
s isa
t qa
t riya
t sin
u gh
y anqa
z z
á Ī
Ġ Ã³
Ġ Î¿
Ġ ''
an chi
ll uy
ll ku
ay wiki
pi sa
pi chqantin
Ġk ong
aq wa
una s
ma m
ma cha
is e
pa rqan
Ġs co
wa llaqa
wa mpis
uy ay
mi chi
mi la
ti v
ti er
ti pu
ti muthiyupaq
Ġh iq
Ġp ruw
Ġp aqucha
man manta
Ġka mbuya
ku k
ku min
ku chkaptin
Ġwa lli
ka muq
Ġq anta
Ġa vil
Ġr isqa
us ay
us Ã±i
Ġm Ã¡
Ġm sn
wan da
Ġma dri
Ġnisqa kunata
Ġpa chi
Ġd ÃŃ
Ġd ol
as ra
anqa yuq
Ġt inki
Ġt rans
Ġi tÃ©
ĠÃ± iy
Ġri rqanku
Ġsuyu man
pas ka
Ġqh u
Ġqh ish
Ġha l
Ġchay tam
yu pa
Ġpi o
co a
chay ri
chay anta
Ġman i
Ġman da
la te
Ġwi yu
Ġqa llwa
Ġta m
Ġc un
Ġc ari
Ġqillqa muy
kay wan
gu er
Ġkan ankuta
way las
kama rka
Ġsutiyuq mi
chis un
Ġmana chayqa
Ġl una
Ġti rul
el ota
Ġkaq ninkuna
Ġmi me
Ġin kumin
ci fe
Ġall wya
Ġcha mpi
Ġg Ã³
Ġg ama
Ġg eo
kan uku
pay pi
Ġmay manpas
Ġmay wiy
ÃŃ sti
ÃŃ ni
Ġpiruw pas
tam ina
Ġpay taqa
Ġima pi
Ġima kunata
Ġis landya
sqan mi
Ġkama rqa
kin chu
Ġf riedrich
llam p
Ġsan tander
Ġu gel
Ġu tawa
Ġwan ki
ca chi
chin o
te in
tan tin
lu min
chan pi
Ġchi ca
Ġ18 14
Ġ18 20
Ġ18 33
Ġ18 34
Ġhu a
Ġ5 8
Ġchun tu
Ġwar anqamanta
Ġyacha kun
kunan chispaq
Ġuy apur
Ġhay ku
pe g
pe i
Ġkun gu
Ġkun turi
Ġwilla kuynin
ris qanku
Ġw hi
Ġw est
Ġraymi m
19 45
mar y
tawan mi
Ġpus itiwu
Ġwasi qa
Ġati pan
Ġati paspa
Ġre g
Ġlla lla
Ġlla jta
rin qa
rin ka
Ġo fi
Ġinti ta
Ġinti manta
Ġ6 3
Ġ6 7
Ġco ca
mayu pi
Ġkus asqa
Ġro ca
Ġro berto
Ġro dolfo
hin aqtinmi
aynin man
anpaq pas
Ġal kali
ba o
mara Ã±un
gur o
Ġlliw ta
Ġqan mi
ja c
Ġ9 00
Ġvi z
Ġvi dal
tal es
Ġse cre
Ġ8 5
Ġ17 81
se e
han ka
va da
llapa qa
Ġruraq kunata
Ġtari q
muq u
Ġpachapi taq
Ġpe d
Ġkitilli kunapi
anan mi
piruw piqa
Ġlu gar
ral ta
Ġquy an
ea u
Ġyana pasqa
Ġwaq llin
acha lli
ĠwaÃ±u chisqan
Ġyan aqucha
Ġel ec
Ġkas ma
Ġus h
Ġsun in
Ġle ey
Ġle one
tur kiya
Ġjina taq
Ġtiya sqa
Ġqi mis
Ġchaypi taj
arqan i
Ġkimsa k
Ġtik ina
anchik mi
Ġpuchuk anqa
icha taq
Ġapu wasinyuq
Ġmunan chu
Ġcu ida
Ġlo cal
Ġfa us
Ġcas tillo
car pus
Ġme dellÃŃn
kas anku
ĠÃ±awi yuq
Ġruwan ayki
Ġpo d
ĠsuÃ±ay kuna
tt s
Ġap Ã³s
Ġbe ta
Ġbe tan
Ġwaqay chay
Ġqhari qa
Ġqhari kuna
Ġbar bara
Ġalli chasqa
ere dia
Ã¼ rich
osa da
ĠØ £
ĠwaÃ±uy manta
Ġmillay ta
lay qa
Ġjo b
dios mi
ish qa
Ġkawsan anpaq
Ġkawsan ankupaq
Ġhi pÃ³lito
Ġval en
Ġrimana kuspa
Ġwawan kuna
Ġparti do
Ġuku ku
Ġuyari chun
anka sh
suy ruqucha
kunanku paj
kacha spa
Ġ188 3
Ġmor e
ĠÃ±oqa wan
Ġqara wili
ĠiÃ± isqan
kush aqtin
ĠÏ Ħ
aliman yapi
ban u
áĥ Ĳ
Ġyanap ayninwan
Ðº Ð¸
Ġaqu pampilla
Ġyachachi rqa
ÑĢ Ð°
Ġpuma p
Ġsuma jta
Ø± ÙĬ
Ġpre mio
Ġkamaq ninsi
Ġisa i
Ġwatan kumanta
Ġchaka tasqa
Ġrurana kuspa
ip zig
Ġpaq tan
jas ja
tinku taq
Ġfo ot
qispi qanchi
ĠpaÃ±a man
iÃ±i y
Ġtan qan
Ġparkipi qa
Ġpru tun
xa ca
Ġshuk llachishka
ĠÐ ¿
dol f
Ġpl urina
Ġqhatu chay
Ġed ward
Ġcord ero
edu ardo
Ġameri cana
Ġupa lla
Ġhinas pas
Ġllak tapi
Ġkuta kachi
Ġapayka chana
hir ya
Ġdia blo
Ġmusph arqanku
Ġhel hasqa
à¥ į
ss el
aws tralya
Ïī Î½
ĠÃ±awiriy wasi
Ġyawrin mi
Ġjark Ê¼
ĠÃ±aws a
gran de
Ġyuq una
Ġpres s
Ġpuklla sqan
Ġyuma sqa
waran iyi
Ġgarci laso
buli biya
Ġtho mas
Ġlaqhay aq
Ġkanchay llu
Ġlloj si
Ġpiki llaqta
Ġcora zÃ³n
Ġbara t
Ġestrepto cÃ³
Ġtos cana
Ġanki chiy
Ġfitz carrald
Ġmishi kunapas
dag askar
Ġnap ayku
tÃ³ lica
Ġ(~ )
Ġumallina manta
Ġgros so
Ġintercul tural
Ġmakiya siq
Ġmessa ges
esaloniki yuqkunapaq
Ġjel jasja
ĠepÃŃs tola
Ġavil Ã©s
ĠdÃŃ ez
ĠitÃ© nez
Ġutawa lu
1 18
1 15
a kunamanta
a ga
a kaq
a kusqan
a gua
a chkaq
b ÃŃo
c li
c ke
c las
c lub
d l
d ney
d br
f un
h qa
h or
h ol
i pas
i kun
l ya
m ena
n us
n onato
o ya
o za
z ano
Ä ĳ
Ð ±
× ¨
á ¹
æ ĺ
Ġ uti
an e
an aq
an um
ch or
ll qan
ll ki
pi sh
Ġk ol
in ga
in lisya
aq llay
ma qa
ma ruku
is un
pa w
pa ti
pa lla
pa riy
pa chaq
wa kuna
wa la
mi ta
ri as
Ġh y
Ġh tt
Ġh urqu
cha k
cha lla
cha pampa
ya wa
man ca
Ġwa llanpi
Ġq uspa
Ġq incha
Ġ( =
Ġ( %)
Ġa mu
Ġr aq
Ġr asu
ur ay
qan akuy
ki pas
wan i
wan chej
Ġma to
Ġsi m
ru willka
Ġnisqa kunapi
Ġnisqa kunam
Ġpa ÃŃs
ap e
Ġd un
Ġd ÃŃa
Ġ1 000
chi ra
chi kuyta
Ġi chÃ¡
Ġi mira
Ġsimi lla
Ġri ta
Ġri yta
wi ll
wi ck
wi lliam
li um
Ġki tinmi
rqan ki
ra ma
tu a
Ġha ku
Ġchay aq
Ġchay nu
Ġpi manpas
en jo
la del
Ġwi ray
qu paqhawana
tin yu
tin apaq
Ġsimipi m
Ġqa rqa
os h
kuy kunata
Ġc us
Ġc Ã©
Ġc ita
Ġc esar
kay ninta
Ġsutiyuq manta
puy uq
chasqa Ã±a
di d
). [
com o
el u
Ġpu chu
Ġin kill
Ġkaws ananchikpaq
to les
to wn
Ã¡ tica
ni ki
Ġall illan
Ġcha pusqa
kan am
ura z
anta ykuta
pu tu
pay ay
Ġmay lla
llu ta
Ġmun ayku
ro m
Ġima paq
Ġima ptin
sa qa
Ġkama chis
Ġrikch aq
vi miento
unchaw mi
Ġyachay wan
pan ia
da qa
Ġrimay ninta
lu ca
chiy nin
Ġchi co
kuq chu
Ġ18 16
Ġhu mp
Ġhu chusuma
Ġyacha rqa
Ġla ke
Ġla gar
Ġpar do
Ġuy anta
Ġkiti qa
pun ta
Ġwikipidiya ta
Ġlli ph
Ġlli pt
yki qa
Ġway llaq
Ġwilla kuyta
Ġyu thu
Ġv all
Ġe mer
Ġe milio
go via
Ġkawsay kunata
Ġpus arqan
Ġriku chisqa
kh ay
Ġati panakuy
Ġre par
iti kunapi
le g
niyuq chu
Ġo p
Ġ6 8
Ġco p
Ġwarmi y
Ġar aran
uru manta
Ã±i yuq
Ġro u
Ġro ger
aynin manta
Ġtar pusqa
Ġal fred
Ġrima ri
Ġrima chkanku
niy pi
Ġmis a
Ġpha way
Ġ15 32
Ġ7 4
ja vier
Ġvi ral
Ġanta pampa
Ġsin di
Ġimay man
Ġse c
ce f
Ġ8 1
Ġ8 9
ve do
Ġca tÃ³lica
ne jta
Ġpusaq ninmi
unchay ninpi
Ġpro grama
Ġchakra kunapi
ec t
Ġ[ [
Ġtayta yki
Ġinka llaqta
anchay ki
Ġsuy t
peci al
Ġchan kay
Ġno ve
Ġuq i
ph isqa
Ġquy ta
tri o
llun k
ke Äį
Ġqhawa sqan
ima raykun
Ġel ÃŃas
ern o
Ġuyar isqan
aska chakuq
Ġle guÃŃa
Ġjesus wan
Ġtiya puynin
las iku
Ġrumi Ã±awi
fi lo
Ġpampa kunapi
Ġsimin manta
Ġrunasimi man
Ø§ Ø¯
cas a
Ġwaqa chinchik
Ġumalliqnin si
Ġunquy kuna
Ġunquy wan
Ġchayrayku taq
Ġchanin ta
Ġpin kuyllu
Ġnina kurqanku
Ġwillka waman
201 7
Ġmuyu riy
Ġso to
Ġso cial
Ġor tiz
Ġwaqay chanapaq
tar ina
... )
Ġpaqari chiy
Ġchinchay suyu
ika kuna
Ġpara qas
Ġwaki chin
Ġara gun
Ġpedro ta
sis sip
uÃ±i chiy
var d
Ġtin kuna
Ġpuri riy
Ġtantanakuy pi
Ġkuy llurkuna
gus ta
Ġyanapa kuykuna
dios manta
Ġllaki kuy
olo gna
Ġhur watsuyu
Ġpisqu kunap
Ġkamachiq kuna
Ġchinka chisqa
Ġhinaspan mi
Ġkamay paq
Ġqun cha
Ġpala bra
ĠhuÃ±una sqa
Ġci elo
Ġci elota
Ġruwasqan ku
Ã¡s quez
and rÃ©s
Ġ186 2
Ġkamachikuy kunata
Ġ188 9
198 9
Ġperu ano
phi li
rina da
Ïģ Î¬
kam ri
Ġam or
Ġwari kancha
Ġher man
der land
Ġkura j
Ġyor kshire
Ġimayay kunam
Ġsuni m
Ġinlisya p
Ġpal mas
dis on
puk llay
Ġmunasqan ta
Ġpre fectura
Ġmayqin chus
Ġvel Ã¡zquez
Ġgre en
Ġcal derÃ³n
196 7
Ġpla ta
Ġter ror
Ġban tu
Ð» Ðµ
wari ku
Ġachkiy qa
iman aqtintaq
cor d
Ġindya pi
bil hika
Ġputu tu
Ġhor as
Ġagu as
arro llo
Ġatirqan chu
Ġtr uyanu
vg orod
Ġtara paka
tiksi muyu
teri al
Ġcap erna
Ġyachaqa yta
Ġsamari kuy
Ġblan co
Ġwe ber
Ġita li
Ġyawrin kuna
Ġwaqlliy nin
vÃŃ ctor
Ġqallarisqan pi
mag dalena
Ġdan suyu
ĠÎº Î±
Ġchhay na
Ġmedia wiki
fisya l
Ġmetro poli
Ġkawsarim pun
Ġwiksan pi
Ġjuq hu
Ġwillam uy
Ġdimukra tiku
Ġespe jo
ĠseÃ±a l
yec to
ĠyaÄī ha
Ġdemo kra
Ġcontribu ciÃ³n
Ġbenede tto
ĠmÃ¡r quez
Ġinsik lupi
ĠestreptocÃ³ cica
Ġimira tukuna
sissip pi
' t
. ]
4 50
: -
: [
a chayuq
e bre
g ni
g ol
i tu
i chisqa
j ana
k ri
k chu
l v
l ulu
n ampa
o i
o m
o to
o chukuy
q s
q uspa
q uni
r h
r usqa
r tika
s uq
s es
s yu
u in
v ene
w o
w isk
w els
x tla
y ayuqmi
y peru
~ ~
É ª
à ¶
å ·
Į Ĺ
ch wan
qa ru
qa sqan
ay wan
pi e
in man
in chu
in isya
aq pis
aq ninmi
ma sh
pa wa
pa ku
Ġs tan
Ġs apay
Ġs tre
uy wan
ri anu
Ġll um
ti ti
ti yuq
Ġp uraq
man ku
ku chkaq
ku llantaq
ka chu
ka wri
Ġa Ã±
Ġa tun
Ġa vi
Ġa par
Ġa lawsi
Ġch uma
Ġch uki
Ġm uth
wan anchispaq
Ġma mayuq
Ġma rio
Ġnisqa wanqa
Ġpa olo
ap ana
ap ulu
as tawan
anqa tam
chi kurqa
Ġt Ã¡
Ġt rinidad
Ġi ki
Ġi lu
Ġi thiyup
ĠÃ± am
ar ki
nin paq
nin tam
nin kunap
nin taqa
nin tapas
Ġri ya
Ġruna chu
Ġruna masi
Ġkay rayku
Ġkay pim
ra wa
Ġmama kuna
tu gu
Ġsu per
Ġllaqtapi s
ina wa
es ina
Ġchay hina
Ġpi chi
co le
Ġj aq
Ġj as
Ġj itpa
Ġman apunin
ul aymi
la di
qu pi
qu in
Ġb la
Ġb ron
Ġqa t
Ġqa wan
Ġqa mpa
Ġqa wana
ana ju
Ġc in
Ġc ura
Ġqillqa kamayuq
Ġsuti charqan
ist ina
way t
or ÃŃa
Ġ19 15
Ġay sa
Ġay mar
chis taq
yan ku
yan yapi
ha v
di ente
Ġicha rati
Ġkaq kama
Ġmi rana
hi yup
ni mpi
Ġall qa
Ġcha mpa
Ġg ris
Ġg alle
Ġg eno
Ġhatun chan
anta pampa
chik wan
Ġsa u
Ġur an
pu maq
pay ku
Ġmay un
ÃŃ mac
Ġ3 50
Ġpiruw ki
tam ento
Ġpay pura
Ġima wan
Ġima pipas
Ġru pa
Ġni kuq
sa jama
Ġf le
Ġsan sa
Ġsan doval
vi are
Ġu m
Ġallin ya
te a
te c
te ca
Ġmar x
Ġqha ta
na lla
Ġrimay ninqa
Ġchi ka
Ġ18 39
Ġ18 36
Ġtu tata
Ġtu kapu
Ġyacha rqan
Ġyacha sh
chkan mi
Ġla ru
has qanta
Ġama puni
kunan chik
yki pas
Ġkun kay
Ġkun kistadur
Ġwilla Ã±iq
ris tu
asqa ta
Ġhin i
Ġv ul
ani ta
ara mi
Ġyura kunapas
Ġdios ninchik
Ġurqu kunam
rin man
Ġham urqanku
Ġo llantay
qay kuwan
Ġkus is
Ġju chas
Ġuk ya
Ġro mero
hin aptinmi
kunawan qa
ba ch
ba ma
Ġmuna kuq
mun ay
Ġ15 5
Ġ15 48
Ġ7 8
Ġqan man
pacha kamaq
Ġruwa saq
ja co
Ġ9 2
za da
Ġse cure
ce a
Ġyuy ariy
se ille
che mill
Ġachka m
Ġku chu
Ġku mp
Ġku pam
han u
Ġhap un
du minikana
Ġtuku pun
anchay ninku
anan pi
Ġno qaqa
Ġno qanchis
Ġuq llu
ph insuyu
Ġwatakama qa
Ġallpa p
Ġallpa man
Ġdel gado
Ġmu chun
Ġph us
Ġwaq kuna
Ġmas hi
ĠwaÃ±u china
ima tan
Ġyan as
Ġyan isha
Ġchur anqa
Ġchur asqan
Ġkamachiy pa
Ġkamachiy ninpi
Ġcar olina
waq ra
Ġllank Ê¼
Ġari zona
Ġrumi lla
Ġrumi kunata
Ġkur kupi
Ġen ero
Ġcre e
Ġkaptin si
ko ki
Ġpuka rani
Ġsal ta
Ġanqa ra
Ġqo ll
Ġqo wayku
he breos
vo wels
paj qa
fa una
Ġyawar manta
Ġllimp hu
Ġpo ma
Ġuni ted
Ġto k
Ġbu tan
Ġbu dapest
Ġyachan ki
Ġyachan chu
Ġkacha r
Ġmuyu ri
Ġap anqara
Ġpaqari rqaku
Ġtanta kuy
Ġtanta lli
Ġmancha kuy
fe ra
Ġqar anta
ĠmaÃ±a ku
nu qa
Ġyay kuyta
Ġara wak
Ġara wikuna
Ġrik tur
Ġrik chakuna
Ġpachakwa taqa
Î± Î½
var ez
pur an
apu wasinyuq
ham mad
Ġsonqo lla
Ġkanki chik
Î¿ Ïį
Ġraphi yuqmi
Ġau tori
Ġyun kuyu
Ġimata taq
inka kunaqa
Ġrurasqan pa
Ã±o qa
à¤ ¿
qui lla
Ġut kupampa
uqu tu
Ġchallwa m
Ġpul gar
Ġ187 7
Ġ187 8
Ġchayam u
ash ka
tÃ¡ y
Ġci en
and ÃŃa
Ġmanchay ta
Ġkachi qucha
chaymanta taq
akun man
bas e
Ġram os
Ġwik say
chasqan mi
qillqa sqa
Ġkamachina manta
Ġninku m
Ġcer rÃ³n
Ġrimaqniyuq mi
Ġkawsaynin kuta
Ġlaq his
ĠpuÃ± un
sha wsha
Ġth uni
Ġsipi rqan
wisa w
Ġir uru
Ġkuntur kanki
Ġkamaq ninmi
ĠwiÃ±a riy
Ġtra ba
ty le
Ġsapsi lla
Ġmari e
Ġmuru kunata
Ġbus h
Ġqallariy pi
Ġlan ki
Ġlan gua
Ġmask Ê¼
yaw li
196 1
Ġchik la
Ġdu blin
Ġmunasqa yki
Ġawqan a
Ġsol dado
kusi tuy
Ġkachari chisqa
Ġespiritu qa
mal ta
Ġayll uy
Ġayll us
Ġacha la
Ġpru phis
Ġpila wit
Ġputu mayu
Ġza cari
kapun qa
Ġsik ri
Ġrikcha sapa
uran go
Ġakllanakuy kunapi
Ġmacha ca
Ġbra vo
Ġkaqtin pas
Ġawstralya p
Ġray min
Ġniykichis mi
ĠtÊ¼ uku
Ġkichka sapa
Ġkurkun pi
âĢ² âĢ²
Ġsill p
Ġvo cales
ĠÙħ ØŃÙħØ¯
Ġqhawana kunti
Ġpra ha
Ġleon cio
Ġhurqun chik
gor y
Ġsamari kuna
Ġwakichi kunankupaq
Ġkarun cha
á» į
end ÃŃn
anqan kunata
Ġpari wanaqucha
Ġtiy aqmi
unchawniyki chik
tit le
Ġcont ranpi
ĠÃ±akÊ¼ ariy
Ġsinto ma
qhawa riy
Ġbir d
Ġpalo mino
Ġcle mente
Ġcasos manta
Ġachu qalla
uchuk ay
llaqtan mi
taqtaq taqtaq
Ġakllana kuspa
juli o
Ġoffi ce
ĠindÃŃgen a
Ġiru pana
Ġumallin apaq
Ġingen i
illimsay aq
Ġtesti go
Ġiwanhi lista
Ġhit ler
Ġcolum bia
kurin thuyuqkunapaq
Ġecu arunari
Ġkemp ff
inkar rÃŃ
Ġfoot ball
enjo yperu
uraz no
Ġimaptin chus
anaju ato
ĠwillaÃ±iq ita
chemill Ã©n
. :
. ;
1 14
1 13
? ",
b b
b Ã©
c c
c ant
c tic
h ill
h ran
i co
i lia
i barra
k ins
m uksi
n aqucha
n sy
p ho
s paq
t Åį
u isi
w isqa
w kan
z or
Ï İ
Ù ī
Ġ Ð¸
Ġ áĥ
an gel
ch on
qa yta
ll us
un ti
un qu
un fo
pi drup
in tin
is tu
is eo
is landya
pa t
pa z
Ġs urinam
wa j
wa taqa
uy ap
mi k
mi wya
mi llay
ri yu
ri bio
Ġll un
Ġh os
Ġp ani
cha man
ka rqan
ka llpa
Ġa v
Ġa lo
Ġa waq
Ġa tucha
Ġllaqta paq
ur pi
ki ru
Ġm ec
wan si
Ġma qaq
Ġma gallanes
Ġnisqa pa
Ġpa pas
Ġd r
Ġd res
Ġd urango
Ġ1 12
Ġ1 13
as ankaru
chi ya
Ġt en
Ġt eno
Ġsimi kunapi
ar ayku
Ġri co
am aq
am uy
am ento
Ġki chay
Ġki llaq
Ġqh ill
Ġsu wan
si os
Ġha tu
es ÃŃa
Ġchay kunan
Ġchay pipas
Ġchay arqan
Ġchay arqa
Ġpi q
en ce
en rique
ĠÃ±iqin taq
la guna
Ġkilla qa
Ġb r
Ġqa llan
Ġqa tasqa
os ta
ana qa
Ġta mp
Ġta kisqa
Ġta lara
kuy paq
Ġc ris
Ġsuti p
kay manta
kay llu
gu ay
gu ÃŃn
Ġkan aykichispaq
Ġkan ampaq
way wash
tun pi
Ġay pana
ha l
Ġuma pi
Ġl Ã¡
Ġl uru
Ġl anka
Ġl osada
). -
al do
Ġti tu
Ġkaq kunawan
Ġkaq kunaman
to rio
hi a
Ġg Ã¶
kan chik
Ġhatun chasqa
Ġur q
pu kara
pay kichis
ÃŃ l
llan i
Ġima shi
hu llaqa
Ġru asqa
Ġru wli
llaqta p
sa j
sa la
Ġ" Â¡
Ġf ri
Ġf on
Ġsan khu
vi dad
sh uy
Ġu llun
Ġu was
chin chu
do u
do ws
do min
Ġallin tan
Ã³ dico
te la
te ga
Ã© m
Ġmar bÃ¡n
rqa y
rqa purqan
lu kaspa
Ġchi huahua
Ġ18 23
Ġ18 38
Ġtu kuna
Ġla dislao
Ġama chan
kunan mi
Ġpar lam
Ġmayu qa
Ġuy aykuna
Ġway tara
Ġkun kan
ut Ã¡n
Ġkuti pa
Ġkuti lla
19 48
19 65
19 68
19 53
19 74
Ġv ac
go za
Ġkawsay niyoq
Ġwasi chasqa
Ġriku chirqa
ara chupa
Ġre qu
de c
de en
de au
rin ri
Ġham uni
Ġham ush
Ġo b
Ġo ficial
Ġco o
Ã±i t
ayki chikpaq
Ġqillqasqa kuna
Ġtiyan anqa
lo go
sun in
Ġpha wan
Ġ15 35
Ġ7 9
war ma
Ġanta marka
Ġriq siq
Ġ8 8
ga li
se t
se co
Ġsay na
Ġsay arisqan
ninpi pas
ras u
ras apa
Ġku mpa
kunaman tan
yun kay
Ġparki qa
Ġkachkan chik
qhapaq kunap
Ġna ces
Ġtari paq
Ġwawa kunapi
Ġkaru pi
Ġtayta yuq
gi as
ir us
Ġ16 1
Ġ10 3
Ġno vgorod
ph uyu
Ġallpa piqa
Ġkash arqanku
Ġlu wichu
Ġmu lli
Ġba Ã±os
mus aq
mus iku
Ġchani yoq
ke t
Ġph ani
gen eral
th ay
Ġsiq si
Ġper qay
ĠwaÃ±u chinapaq
Ġkas ukun
Ġkamachiy ninpa
Ġqull q
Ġcar l
Ġjesus manta
Ġtiya spa
be tu
Ġkh ar
Ġrumi m
kusqa Ã±a
anchik pa
Ġmin h
cas te
mb Ã³
Ġyuyay man
Ġunquy manta
Ġhinaspa m
Ġchanta pas
Ġchurin chus
Ġkaynin manta
Ġrepublika pa
Ġto ma
Ġto ribio
llata Ã±a
gar t
des to
Ġqhari ta
Ġchinchay ninpi
fe sios
Ġmikhun anpaq
Ġqar anapi
ĠmaÃ±a kuspa
Ġwasin manta
Ġapa mun
Ġara bi
Ã±am u
Ġmall kim
Ġkananpaq mi
buliwya p
Ġpata kunapi
Ġyachachiq kunaq
ĠØ Ń
Ġpachantin pi
Ġtantanakuy kuna
eni co
Ġiwrupa manta
ĠwaÃ±uy man
Ġkani chu
Ġmikhuna m
Ġyanapa rqan
Ġpurin ku
cos ta
Ġtay tanqa
Ġbibli api
Ġraphi muyu
Ġqillqan mi
Ġ189 3
muyu pampa
Ġshi lla
Ġwawan pa
uchu pi
Ġkasha pampa
por qa
Ġqun qay
Ġpala bras
Ġuyari kun
Î¹ ÏĤ
Ġsar wa
kara w
Ġnas yuna
mari e
mari ano
Ġsantu kuna
Ġ186 1
uksi yn
Ġfe derico
198 3
Ġwaran i
Ġwaran ka
Ġqara pi
Ġanchata puni
aw qanakuy
Ġpukll aymi
ikwadur pa
allampa kunam
Ġdere chun
Ġpinchikilla chana
aliman runa
Ġmakin wan
Ġqawa rin
dun gun
Ġpat run
Ġtiyay kurqan
ff er
ĠphiÃ±a kuspa
Ġchiq ni
Ġkawsari chi
Ġdu min
Ġkuyuy mi
Ð» Ð¸
Ġmunakuy wan
Ġpachamama ta
Ġtak sa
tru hillu
Ġmikhuy ta
Ġura pi
rumi yasqa
Ġqarq usqa
Ġtri unfo
Ã¨ ve
kul tur
Ġchaqr uspa
Ġpuy stu
Ġtes tamento
uran kichu
Ġkis kachay
Ġmuyuriq ninpi
lile o
his us
iwrupa pi
Ġwil helm
Ġabra hampa
asya tiku
hil yu
lari qaqa
Ġfauna pas
Ġhata riy
chiki chasqa
Ġmayuki llap
à¥ Ģ
fu erte
Ġankalli kurqan
Ġvera cruz
Ġchimpu ti
ĠÃ±au paq
uter ono
Ø§Ø ¡
Ġalf onso
Ġninki chis
Ġsimana pi
romanu kunapaq
Ġiwan hilyu
Ġigle sia
regi on
Ġhawka lla
Ġdic cionario
Ġpill pintu
Ġgram mar
Ġisraeli tas
Ġmunapay ankichu
Ġmain z
Ġcristiano sqa
Ġdin Ã©
Ġmiran da
Ġyachatsi kunapaq
kitilli piqa
Ġ:: *
Ġmakis apa
Ġeu gen
Ġguill ermo
Ġkulun yan
Ġdepor tes
Ġnavar ro
ĠÙģ ÙĬ
Ġrunaka paq
Ġmachupi cchu
gÃ©n esis
Ġestra da
runi kamanta
Ġglas gow
Ġserv iq
Ġnazar et
ĠdÃŃa z
lv ania
Ġkusis amin
Ġsikri tar
nsy lvania
uisi ana
Ġraphimuyu m
Ġnasyuna lista
' .
. (
6 80
? )
a taqa
a jina
c l
d um
f on
g man
g ari
g asa
i wan
i kuy
i mpa
i gnacio
i hiptu
j unt
k Ã¤
m ol
m Ãº
n aska
o h
o v
o li
o Ã±i
s ninta
s panku
t pi
t ist
u kunata
v re
w q
y us
z burg
Å Ľ
à ½
å ľ
Ġ ì
Ġ ÙĨ
an chista
ch y
ta man
ll aymi
ay chu
ay kuspa
Ġk on
Ġk kota
in os
in kin
in du
aq kunapas
ma to
ma mpi
ma thi
is wa
pa llana
pa blo
pa lidad
Ġs cript
wa psi
mi tru
ri lla
ri zon
ti da
Ġh eredia
Ġh qs
Ġp ant
cha l
cha manta
man hina
lla t
Ġka llu
ku ki
Ġwa wi
Ġwa mali
ka k
Ġq ina
Ġa Ã±ay
Ġa killa
Ġn ut
Ġr ina
uk isa
us ki
us ill
us aqmi
us ep
ki paya
Ġm ol
Ġm Ã©ndez
wan kayu
Ġma c
Ġma manta
Ġma ca
Ġma xi
Ġma muriy
Ġsi erra
Ġnisqa kunamanta
Ġnisqa manmi
Ġpa v
Ġpa tu
Ġpa san
Ġpa pata
Ġpa ge
Ġd ata
Ġwata y
Ġwata Ã±a
Ġ1 15
as lla
Ġt hun
Ġt rata
Ġi yun
Ġsimi y
nin kunam
nin kupi
Ġri kunankupaq
Ġri chard
am on
Ġsuyu pas
Ġruna kunayuq
iq ip
iq ui
Ġkay an
uma wa
Ġha tar
Ġha manq
Ġ2 10
es ti
es cuela
Ġchay ar
Ġchay kunataqa
chu an
Ġpi taq
Ġpi sh
Ġpi kuta
co ma
Ġj ona
Ġman Ã¡
en ci
en qay
en se
la qa
Ġwi j
Ġwi q
Ġwi ch
qu llpa
Ġqa yay
Ġqa saq
Ġqa hira
kunata j
ana l
kuy ninmi
Ġc y
Ġqillqa mun
Ġqu llun
Ġqu tupi
ist uy
ist ot
Ġkan qanku
or s
puy ta
Ġmana llataqmi
Ġan th
Ġan tis
Ġuma wa
di re
Ġl ap
Ġl ong
Ġl ayu
Ġpacha j
al ex
mon io
el and
el son
Ġpu chuq
Ġmi tu
Ġkaws aymi
Ġkaws ash
hi la
ni karawa
Ġall ende
Ġcha chas
Ġg an
Ġg la
Ġg ras
aqta y
aqta sqa
kan sas
Ġhatun qulla
chik kunapi
Ġsa hara
Ġmay pim
ĠwaÃ± ur
Ġmun anakuy
ro manos
isi Ã³n
Ġrur aymi
Ġpay kunapura
Ġima taq
hu e
llaqta ymanta
Ġhina pin
Ġkama cheq
Ġf ord
Ġu mu
Ġu gar
Ġyachay ninkuta
ca ja
do carpus
te u
te pe
Ġmar yana
da la
lu mani
chan mi
Ġdi l
Ġdi ez
kuq ta
Ġnispa taq
Ġama z
Ġhay lli
yki wan
yki kunata
ol did
Ġkuti chispa
Ġkuti cherqa
19 0
19 70
19 46
19 73
Ġyu guslawya
Ġe van
Ġe ast
Ġkawsay pa
anku man
Ġwasi pim
Ġriku chispa
kh in
ara goza
Ġati pana
chka sqa
unt y
Ġra pa
Ġra kh
Ġchunka manta
iti piqa
rin anpaq
Ġham urqa
Ġllaqtan chikpi
chun kantin
Ġo pen
Ġo hio
Ġriman ankupaq
Ġmamallaqta yuq
qay kupi
Ġwarmi manta
Ġwarmi kunawan
Ġchas kis
lo Ã©
chisqa ku
Ġal qo
Ġmikh urqan
Ġpha t
Ġ15 72
Ġ7 3
kis uyu
Ã¡n g
Ġruwa rqanku
Ġ9 4
Ġtaki kunata
Ġimay kana
Ã±u Ã±uq
Ġse q
Ġyuy aris
Ġsay arin
che a
Ġca uca
Ġku ku
Ġchaymanta pas
aqu tu
Ġpro greso
Ġsaq ill
Ġsaq illa
Ġkachkan ki
Ġchakra kunata
Ġkawsaq kunam
Ġikwadur yanu
Ġat lÃ¡n
Ġwawa kunamanta
Ġ14 0
gi ca
taj ina
Ġinka s
Ġkasqan chik
Ġkasqan kurayku
ir Ã¡
anchay mi
anan chik
kaq i
Ġsuy aykamullaway
kus tarika
Ġno el
Ġno qayku
Ġsuntur pim
Ġkarqa spa
iy manta
Ġkap ka
Ġkamachi kurqan
Ġchu payuq
tri z
pus h
tuwa l
gen cia
th esalonikiyuqkunapaq
qaqa tampu
Ġmas kaspa
niyki manta
acha kuna
acha wan
Ġgu i
Ġbi lingÃ¼
Ġrisirwa kunapas
Ġyan uspa
aska sqa
Ġle nin
tur o
po emas
Ġjina llataq
Ġcar ri
Ġcar pio
Ġsumaq mi
Ġcon ai
Ġtiya sqan
Ġqi w
be i
fi co
Ġmo vie
Ġqillqay pim
no qaqa
Ġen vi
Ġhampi y
Ġsimin pi
Ø§ Ø±
Ġcu ba
Ġpas aqta
dor f
Ġsal va
Ġsal asaka
Ġchanta taq
Ġnisqan kamaqa
Ġchanin chay
ÙĦ Ùĩ
ĠÃ±awi riyta
Ġruwan apaq
kuynin manta
Ġyawar ninta
ĠiÃ±i yta
Ġuni cef
kar ta
waÃ± is
mis ti
tar ma
Ġtiksi cha
asa dre
Ġkrus pi
Ġqanchis manta
ĠiÃ±iy niyoq
Ġyay ayki
Ġkashan chis
cul a
cul us
llasqa taq
Ġkachun chu
Ġtantanakuy ninmi
Ġkapchiy pa
Ġof ren
Ġindihina kunata
Ġyanapa rqa
Ġyanapa wanchik
Ġpurin anpaq
gal pa
kuwan i
Ġtay lor
Ġjo ya
Ġau to
Ġga u
mir ya
aspi wan
ak llana
Ġkar chi
Ġqaqa ta
Ġpor res
Ġchinka chi
Ġval d
Ġjam ut
ang dong
por to
Ġpala cio
Ġuniversi taria
Ġcam pania
dy usqa
ĠÎ ²
ĠÎ ³
ĠÎ ¸
Ġon qoq
Ġser vin
Ġlluq siq
son qo
Ġhuwan cha
umir q
Ġqara Ã±awi
Ġber mÃº
allin ta
Ġmasi y
dan suyu
Ġale gre
Ġpaul a
Ġqawa ri
sam aytu
Ġyupan chik
Ġllulla kuspa
Ġth anta
Ġir ram
Ġsuma ku
Ġkalla w
Ġtra to
Ġthu Ã±isqa
Ġllamp Ê¼u
Ġchik chi
Ġpaq o
Ġwarma kunam
Ġurma sqa
aypi k
Ġparl arqa
Ġpachamama p
Ġpaqta chani
Ġbil bao
Ġqhawan ankupaq
Ġuch pa
Ġkiki llan
warqan chis
Ġpachaku tinapaq
Ġkachari kuna
rik tur
sir k
Ġcul tural
muspa taq
llarqan taq
apo calipsis
Ġchacha kuma
ĠmaÃ± asqa
ĠmaÃ± aspa
mor e
Ġsuya kuy
Ġqutu qa
Ġmamay kuna
Ġjucha lli
zu ela
awan kay
ĠpÊ¼ unchay
ĠÃ±uk ch
Ġmois Ã©s
ame rica
edi ciÃ³n
qara Ã±awi
Ġthan sam
Ġjus k
ĠkÃ« nÃ¶
ĠayÃ±i m
Ġchhu ka
Ġbon garÃ¡
Ġmayor do
Ġdia gnos
ĠjuntÊ¼ a
Ġjis usqa
Ġsala zar
bis po
Ġsis pay
ben hav
aws anqati
kaÃ± ar
stan tin
af gansuyu
Ġnillarqan taq
Ã¸ benhav
Ġhen ri
Ġruraykamay ninmi
Ġkillka tina
Ġrant ina
Ġespin oza
hur watsuyu
inkina kusqa
Ġkanka llu
Ġregion al
Ġpili chuku
Ġawan kay
Ġmichi gan
Ġthansa kunam
Ġtis tam
ispaÃ±ul kuna
ä¸ Ń
Ġjim Ã©nez
ij ing
Ġcosude p
qallawa p
fur t
×ķ ×
Ġchristi an
Ġlant hanu
Ġrein on
Ġargen tina
kati dral
ĠnÃº meros
Ġtarpun chik
usit ur
tuktun kunaqa
apustul kunap
Ã¤nam paq
Ġqonqo riyku
Ġwiks ayuq
Ġtiksimuyuntin pim
Ġlinguis tics
Ġchica go
ĠapÃ³s tol
Ġhtt p
Ġlliph lli
Ġinsiklupi diya
å· ŀ
arami rin
Ġdres den
Ġnaces qan
Ġarabi c
Ġdata base
istot el
ĠbermÃº dez
Ã¸benhav n
4 40
a china
a kunapas
a par
b ona
d land
e za
f ar
i tan
i chispa
j manta
j Ã³
j Éª
k Ã«
l ur
l ÃŃn
m paq
n Ã©
n um
o chu
o dus
p p
p ter
r uq
r qun
s p
s tyle
t usqa
t ras
t rans
z y
Ä ħ
Ä Ļ
Å Ł
Ç İ
Ð ·
Ñ ĭ
Ö ¼
Ø µ
ä º
å ħ
Ġ Äī
an ÃŃa
ch usqa
qa la
qa sa
ay pas
ay kun
pi kuna
Ġk ing
Ġk lasiku
ma pis
pa pi
pa ca
Ġs Ã¡
Ġs ura
Ġs amp
wa wra
kuna llata
uy ka
uy tu
ri yan
ti cas
Ġh Ã©
Ġp huk
Ġp eni
cha pas
lla rqanku
lla rahu
Ġka puy
Ġka pinuta
ku llay
Ġwa pu
Ġwa chakuq
Ã± uy
Ã± inta
ka pa
Ġq anpaq
Ġ( )
Ġa bu
Ġa dan
Ġn ill
Ġn ano
uq ya
Ġch um
ur s
us un
us lulu
Ġm Ã«
wan Ã±a
Ġma o
Ġma gal
Ġma wri
Ġma urice
Ġma terial
Ġsi qa
ru c
ru warqa
Ġpa c
Ġpa llay
Ġpa wqa
Ġpa che
Ġpa gan
Ġpa llanqa
ap usqan
Ġd esa
as uy
as yun
anqa y
chi kuna
chi llanmi
Ġt y
Ġt ina
Ġt res
Ġt anti
Ġi lli
Ġi kuwa
Ġi bero
Ġsimi mantam
Ġhuk kunata
nin kunapi
Ġri es
Ġri vero
li bre
iq u
iq kuna
Ġkay pas
Ġkay ni
Ġkay kunawan
ra qay
Ġya lli
kun sipsyun
si llo
ill ichu
es z
Ġchay asqa
Ġchay wampis
Ġpi m
Ġpi ura
Ġpi erre
Ġpi llapis
taq chus
co ro
chay paq
Ġman gl
ul un
en tin
Ġwi jch
Ġb ÃŃ
Ġb lu
Ġb urinkin
Ġb ologna
Ġb asadre
Ġqa llun
Ġqa parinku
âĢ ł
kunata pis
Ġc las
Ġqillqa kunaqa
Ġy i
Ġy uk
kay ampi
gu ero
Ġde f
Ġkan qan
way aqa
or ani
Ġay paq
Ġay pasqa
Ġay riwa
Ġas tay
chis unchik
chis unkichis
Ġuma suyu
di vi
Ã±a pa
al to
Ġkaq taqa
Ġpu blica
Ġmi kuna
Ġin tin
Ġin dus
Ã¡ za
Ġpaqa qi
Ġall qucha
Ġcha l
Ġcha ta
Ġg ir
kan kuna
kunapi chus
pu wan
pay aspa
Ġmay chus
Ġ3 47
ĠwaÃ± unqa
Ġmun anchik
isi on
Ġrur Ã«
Ġpay kunapa
Ġni warqan
sa c
sa u
sa mi
Ġhina Ã±a
re f
re cht
Ġf in
Ġf ra
Ġsan kay
vi ctoria
Ġli tunya
Ġkalindaryu m
Ġu h
Ġyachay suntur
do ma
riy kuna
Ġqhichwa man
Ã© chua
tan apaq
na ciones
ĠÃ±aw ram
chiy qa
chiy kuna
Ġdi bu
Ġchi riya
Ġ18 15
Ġ18 50
Ġ18 35
Ġ18 32
Ġ18 09
Ġ18 42
Ġhu ac
Ġ5 9
Ġla qa
Ġla don
kunan pi
Ġpar q
Ġpar qu
mana Ã±a
pun ti
pun cha
Ġkatiguriya kunam
chiq mi
ut uyu
Ġkuti taq
19 13
19 78
Ġ4 50
chus pa
Ġv asco
Ġv Ã¡squez
llay kuna
Ġriku risqa
Ġriku sh
ara kuna
oq qa
Ġati pasqa
Ġre ac
Ġyura kunatam
iti wan
Ġmus yaq
Ġmus tasa
um ba
Ġmamallaqta kunapi
Ġgri mm
Ġar n
Ġar am
Ġar ro
Ġar min
Ġar tes
Ġju anta
Ġnin asuyu
san d
il ar
ba t
ba Ã±as
Ġja Ã©n
Ġmikh usqan
Ġkanqa chu
Ġmis hika
mun gul
Ġastawan mi
Ġpha w
apusqa kunata
Ġqan kunan
Ġsutin kuna
Ġvi deo
Ġsin ku
ce ra
Ġ17 0
Ġ17 99
che andÃŃa
ras co
Ġku chun
Ġpun ti
Ġpro videncia
Ġpro yecto
Ġyaku manta
ec u
Ġ12 5
Ġtari pana
Ġkawsaq kunata
su llana
mo uth
me d
me trio
Ġchuq llu
anan paj
Ġsuy k
Ġsuy sya
riq sisqa
Ġuywa sqan
Ġuq sitan
ph arsi
15 1
Ġkarqa ku
Ġkarqa chu
iy ka
Ġkamachi kuna
Ġkamachi ptin
mu lli
Ġsut isuy
Ġlu ri
Ġ13 5
16 0
Ġwaq an
13 6
Ġaliman runa
Ġper o
Ġatin kichu
Ġak tinyu
Ġne uquÃ©n
Ġkamachiy ninta
Ġus usi
dad es
ĠwiÃ± arqan
Ġjina chu
Ġjesus pi
Ġcon sti
be ria
Ġkh us
Ġrumi yasqa
cu ta
Ġllapan mi
Ġpampa m
Ġ24 0
Ġaw tu
Ġprovincia pi
Ġ23 0
jo b
jo te
Ġlo a
chej qa
tis h
Ġcas ti
car Ã¡
Ġunquy niyuq
Ġme tal
Ġpuchukaynin pi
Ġchanin cha
Ġchaq ra
Ġz Ãº
Ġz Ã¼rich
Ġ26 0
Ġcor te
27 1
Ġuni ver
Ġto wer
Ġto tora
so uri
so ciedad
chuq u
Ġyachan kichis
Ġbrasil pa
des h
Ġap ra
Ġbe ijing
ĠmaÃ±a kuq
ĠmaÃ±a kush
Ġlatin o
Ġsuyun tu
Ġkusi kuni
Ã±an pi
Ġruray kunku
tampu pata
Ġsonqo yoq
Ġwayra pi
Ð¸ ÑĢ
Ġpurin mi
Ġtay ik
con nor
Ġunu manta
Ġbibli ata
Ġbibli oteca
olo gi
Ġpor t
Ġqam qa
Ġpuriq kuna
Ġho rizon
Ġsir ya
Ġchinka ri
Ġcom ple
Ġval or
Ġmur cia
Ġut qhay
por ta
Ġ187 3
Ġfi re
Ġfi ebre
htt p
Ġqun tumasa
Ġpala wra
hua ja
pro ven
qha llalla
Ġwas iq
bar tolomÃ©
ulu mi
allam pam
Ġkin wa
Ġfe li
ĠÃ±isqa pas
phi lipinakuna
Ġqelqa sqan
Ġram ran
Ġqui jote
uch pa
uch ukuy
aytu ta
allin mi
mishiku pi
Ġimayay manta
at mayuq
Ġ185 9
wiÃ±ay paq
Ġmasi kuna
Ġsupay pa
ban la
Ġchura kuspa
Ġkawsaykuq kunam
Ġkhuy ay
rap hi
kawsay kuq
warmi kuna
Ġpaul us
dis play
puk llana
Ġup yay
Ġth ani
Ġruwaq kuna
pari wanaqucha
eb la
Ġsaqra qa
Ġbus na
Ġaklla sqan
imayna tataq
col Ã³gi
Ġmask has
Ġmaman pa
ninchik ta
Ġmira chiy
Ġqos unkichis
Ġrimasqan ta
Ġgra u
Ġrusiya pi
Ġparl aspa
Ġsonqon ta
ren ta
iman aqtinmi
Ġura man
ninchis pi
Ġwit nampa
Ġkiki ykita
tuk ri
Ġpuqu chisqa
gn um
Ã¨ s
ami rika
gre b
Ġempres akuna
Éµ n
Ġkha ta
niykichis mi
Ġtiksimuyu pi
Ġqhas i
Ġhas ut
Ġata kama
Ġray mondi
mÃ© xico
Ġcl ara
Ġshina llatak
edi torial
pachan tin
Ġyall ina
Ġet han
mikh uq
Ġqiru pallqa
Ġwasan pi
Ġllak takuna
Ġove jas
Ġqhawar ina
nawa l
Ġtupi sa
liza ciÃ³n
Ġfer mÃŃn
Ġcolo m
cÃ¡ zar
Ġsham ayka
Ġhurqun ku
Ġhel ena
Ġthas ki
Ġderechonchis kunata
Ġhurq unapaq
Ġhus se
kaÃ± iti
Ġvera paz
Ġpatron anmi
Ġqapa riy
Ġuywakunap pas
Ġurmay kuq
umuy ku
Ġjerusalen pi
Ġprome tes
Ġhoqa risqa
Ġqall ta
gru po
Ġsilanda pi
Ġá ¼
Ġqhispi sqa
Ġmy pe
Ġcorne lio
Ġpresi dente
Ġbella vista
Ġbac teri
Ġalmay mi
Ġapo calipsis
Ġmiy usapa
ĠkÃ¶ ln
Ġmachaq way
Ġarchi dona
chinchi ru
Ġlud wig
Ġais Ã©n
Ġnay riri
Ġyuman ayuqmi
Ġapur ÃŃmac
jose ph
chumpi willka
Ġbam bas
×Ļ ×
ruman ya
Ġsegun do
Ġdiscipul os
Ġhaway kawsay
Ġling Ã¼
ĠmuÃ± ecas
ĠrikÃ¤ tsi
Ġprima ria
Ġcate gory
Ġperi Ã³dico
Ġroca fuerte
áĥĲ áĥ
Ġplurina cional
Ġpuraq manta
Ġriya d
Ġgris yapi
Ġhini ral
Ġtok yo
wkan iya
thay suyu
gasa ki
usep pe
dala jara
Ġconai e
Ġpache co
Ġmangl ares
qhallalla j
% ).
' m
) ).
. /
_ (
a a
a chun
b d
b es
d Ã¡n
e que
f ra
g Ã³
i wi
i te
i pan
i chaq
i hiku
i llas
j al
j erusal
k runikamanta
l uru
m ura
o a
o cia
p uru
p Ã¡n
p hun
r uy
r Ã«
r Ã©n
r osa
s wa
s to
s wick
u an
z et
à ª
ì ĸ
í ķ
Ġ âĨĴ
an kunaqa
an kichis
ch hi
ch uru
ta p
ta za
qa si
pi chincha
Ġk uk
in ya
aq chus
aq tiy
is ra
is hi
is anka
pa llasqa
Ġs or
wa ch
wa cha
wa ru
uy uy
uy ari
mi llu
mi chiy
mi um
ri chi
ri entes
Ġh aq
Ġp wi
cha kunatam
ya ka
ya la
man chay
man tÃ¡
Ġka chu
ku ri
ka pak
Ġq Ê¼
Ġa e
Ġa ve
Ġa be
Ġa ix
Ġa dolfo
Ġn un
Ġr aqch
Ġr Ã³mulo
Ġllaqta kama
us ha
ki pa
Ġm ura
wan taj
Ġma maqucha
Ġsi g
Ġsi wara
Ġnisqa tapas
Ġpa llaq
Ġpa say
Ġpa cari
ap uq
Ġwata ta
Ġt Åį
Ġt ren
Ġi mpu
Ġsimi tas
ĠÃ± aqch
nin kunatam
nin kunaman
nin gen
Ġri kunqaku
am Ã¡n
li fe
Ġsuyu ta
Ġki ri
Ġki lta
Ġruna paqmi
on pa
Ġkay paq
Ġkay niyki
Ġkay nu
Ġkay apas
ra f
ra fo
kun chis
kun kuchu
tu d
tu lo
Ġqh uÃ±a
Ġsu ple
Ġsu peri
Ġ2 20
yu punti
Ġpi us
Ġpi yu
Ġpi kch
co to
Ġj ar
chay pas
chay oq
chay mantaqa
en ti
Ġkilla ta
Ġkilla manta
qu Ã©chua
Ġb las
Ġqa tin
Ġqa pari
Ġta ba
Ġta kis
Ġta tay
Ġc ro
ist anku
or gi
Ġay ar
Ġsutiyuq pa
chis paqa
ha paska
Ġmana taj
Ġan t
Ġan ge
di r
di muk
Ġl ur
ĠâĢ ľ
Ġpacha paq
Ġpacha pis
mon tes
Ġti mp
Ġti erra
Ġkaq paq
Ġkaq kunam
Ġkaq tinmi
Ġmi ch
to mas
hi gg
Ġall iya
Ġg am
Ġg rado
Ġhatun cha
chik kunata
pu tina
pu wpu
ĠÃ±a t
llan tan
ro berto
isi o
isi yu
isi yay
Ġrur anakuna
Ġpay tan
Ġima mayta
Ġima llatapas
hu asi
Ġis pana
Ġni ki
Ġni ptin
Ġni tinmi
sa i
Ġkama risqan
kin g
Ġsan kt
vi rus
sh am
Ġu hu
Ġu tur
Ġu fisyal
ca rio
chin i
Ã³ d
mpa l
Ġqha ti
chan an
chan ki
chan chu
Ġdi f
Ġchi ra
Ġchi lu
uli o
kuq pa
Ġ18 40
Ġ18 60
Ġhu aman
Ġchun kana
Ġtu kachi
Ġwar aqu
Ġyacha kunanpaq
Ġpuk aqucha
has qu
kunan kam
Ġhay kurqan
pun o
Ġwikipidiya piqa
Ġlli pin
Ġkatiguriya m
Ġway usa
Ġway anay
Ġkun tisuyu
Ġwilla kusqan
ris on
Ġw u
Ġmunisipyu qa
Ġiskay muyu
19 18
19 31
19 39
19 58
19 54
Ġyu katan
Ġv ari
Ġe i
Ġe con
Ġe liza
Ġe colÃ³gi
tawan pas
anku pas
Ġwasi yuq
Ġriku chinku
mp ana
Ġati pasqan
Ġra d
Ġurqu wan
Ġurqu manta
Ġurqu kunap
le on
Ġmus ambik
Ġlla mi
Ġo d
Ġo co
Ġo pera
Ġco bre
Ġes cu
Ġami gon
Ġar man
Ã±i y
Ã±i ga
Ãº a
Ġqillqasqa kunata
Ġtiyan chu
Ġumalliq si
Ġsuyukuna wan
san ya
Ġyupay chasqan
aynin kuna
Ġal es
Ġal aska
Ġal cal
Ġrima kunata
chÃ¡ y
Ġja llu
pin ta
Ġsin timi
tal vo
Ġriq yunkuna
Ġse x
Ġse llo
Ġse govia
ce to
ce do
Ġ8 3
Ġ8 6
ga dor
ve lica
Ġyuy a
Ġyuy asqa
Ġkawsa chikuy
Ã±aw in
Ġca jas
Ġca llao
Ġku chuy
Ġku tasqa
Ġchaymanta m
Ġchaymanta taj
ne ctic
18 3
yun kuyu
unchay pin
Ġpro j
bi yu
Ġaya la
Ġaya wiri
Ġkachkan chu
Ġruraq mi
10 6
Ġqusqu manta
Ġqillqaq ninkuna
ec cles
Ġ12 7
ho ku
Ġ14 7
Ġkunan manta
me jo
Ġanti kunap
Ġkitilli pas
Ġsuy s
ber deen
Ġ16 0
Ġ16 3
illay qa
tay Ã¡
Ġ10 2
Ġ10 5
Ġno ord
Ġuywa kunamanta
15 6
Ġawqa kunaqa
ayku sqa
mu wan
Ġlu x
Ġlu kas
cen t
Ġba ba
Ġba gri
Ġba gdad
ke qa
Ġph uru
Ġph istanku
aqa kuynin
pata s
Ġgu ardia
Ġqhawa risqa
ĠwaÃ±u ka
ĠwaÃ±u chinkichu
Ġak chiq
Ġkas hi
Ġkas ukuy
Ġchur anku
Ġchur arqanku
Ġle ipzig
po ol
ĠwiÃ± anku
Ġjina pis
Ġcar ro
inkisqa m
ver de
ju ela
ju bl
ju elu
las ya
Ġqi pan
Ġari ca
Ġkh uru
Ġkh arka
fi cado
Ġpampa marka
Ġsimin chik
anchik ta
muy chis
ĠhuÃ± um
wasi pi
Ġruway chis
jo an
Ġcu a
Ġwaqa yta
Ġcas as
Ġpuka llpa
Ġsal ina
Ġsal mo
Ġsal ud
Ġme ra
he im
Ġnis hka
Ġchanin niyuq
Ġbo b
Ġruwan anta
Ġruwan anpaj
kuynin wan
Ġwillay pi
Ġcor re
ks ismu
Ġllu p
Ġmuyu pi
Ġmuyu pampa
Ġche qam
Ġfran cesco
mis hika
Ġwaqay nin
Ġbar tolomÃ©
fe derico
Ġsuyukunapi pas
Ġqar ap
Ġqar qon
ĠmaÃ±a kurqan
Ġyuraq chawan
Ġsuyun tinpi
Ġqhe payta
ck y
Ġwalla p
Ġaswanta taq
Ġrimanakuy ta
Ġrimanakuy pa
Ġmunay niyki
Ġpukllay kunam
Ġrunas manta
Ġrunas himi
Ġpuri china
Ġpuri muq
Ġtantanakuy kunap
Ġyur aqta
ham ed
Ġiwrupa pipas
ĠwaÃ±uy ta
Ġkanki chu
Ġx x
Ġpukllaq si
ÙĬ ÙĨ
con as
Ġga li
Ġllaki pa
199 8
Ġpor tugal
Ġraki ri
et ti
Ġcom un
Ġcom er
Ġhi pa
Ġhi gos
Ã±o z
kaws aynin
Ġestado q
oni ed
Ġpul isiya
Ġfi es
Ġruwasqa s
Ġinter face
llas aq
Ġgar y
Ġhawan manta
Ġsar usqa
sal vador
Ġci vil
qha way
qha wana
Ġwas kar
Ġcam bridge
je vo
Ġaq llasqa
Ġlluq lla
Ġtor ino
Ġ188 5
anay paq
ĠÃ±oqa ta
ĠÃ±oqa pas
Ġber kel
Ġmiray ninmi
Ġher mann
ĠÏ ĩ
Ġimayay kunap
Ġfacultad kuna
Ġrakin pi
warmi y
Ġrura kunanta
Ġkupa kuna
ĠÃ±uÃ±uq kuna
Ġkawsaynin kuwan
Ġkristiyanu kuna
har ry
Ġup ya
Ġbiblia manta
Ġshimi ta
Ġruwaq qa
Ġpachata pis
tori as
ĠwiÃ±a ri
ĠwiÃ±a kusqaÃ±a
Ġtiyay kuy
Ġqon qa
Ġpablo qa
Ġchiki chasqanmi
Ġrikhu riq
del ete
unki man
Ġaf gansuyu
Ġmaqana kurqan
wit nam
char kas
Ġrurana kun
Ġunancha spa
nes ota
196 3
Ġnuna kuna
Ġcristo bal
yacha chiq
Ġdu minikana
Ġame rika
apuni m
iqtay niyki
Ġbal sa
wt run
Ġpachaku ti
Ġva cas
Ġmasin ta
Ġgua viare
seÃ±or nÃŃy
imi ra
iste rio
Ġsama ria
alli y
Ġdes arrollo
Ġtarin chik
Ġchar lotte
Ġex ten
Ġpl anita
pul unya
Ġwam ran
shan kichis
Ġllimphi m
phu kuna
Ġyar qha
Ġhuan cayo
ic uni
pre mio
Ġpon ce
Ġil aqta
Ġwir riy
achay oq
Ġove j
Ġpam pan
Ġyupaychan ki
tz al
Ġleon ardo
Ġtuq ti
cra tes
Ġllas aq
Ġllas aqmi
bras ka
ok lahoma
Ġ{ \\
Ġkunris un
Ġthas kiy
Ġbru jo
Ġbos co
Ġhurq uspa
kulumbya pi
Ġjun ÃŃn
ĠÃ±au paj
Ġgas ton
Ġwakichina qa
allma kunapi
ĠkÊ¼acha puni
Ġislu winya
ĠØ§ÙĦØ £
Ġphas a
Ġqul qi
Ġdic tionary
qos pa
Ġallpan kunata
Ġpillun yayuqmi
Ġbea ch
Ġurpi cha
Ġalma gro
Ġsta te
Ġhuanca velica
ĠØ¨ ÙĨ
lÃ© tico
Ġoq har
Ġniqir ya
Ġnuq anchis
Ġcorne jo
Ġayq ispa
ĠindÃŃgen as
phaq cha
llarqa taq
Ġtap ukuy
Ġnico las
Ġeli as
Ġnillan taqmi
ĠtÃ©c nico
Ġwarku kuq
Ġjesu ita
Ġnata wila
now c
samuel pa
Ġhol guÃŃn
Ġcir ca
Ġruras unchik
Ġachki yta
Ġalexand er
Ġky Å«shÅ«
Ġmaran kani
Ġmarcel ino
Ġchir uki
ĠjaykÊ¼ aj
hea th
Ġwipha la
medi ap
Ġrespira torias
Ġcob raq
Ġoa xaca
micha el
Ġgru po
Ġkhay nata
Ġmsn m
Ġqhish wa
Ġuyapur an
Ġpod cas
clas sis
Ġlagar tu
Ġsec unda
tiksimuyu p
Ġmetropoli tana
Ġollantay tambo
Ġkump usitur
Ġmec an
khin iya
ĠbilingÃ¼ e
Ġcarri Ã³n
Ġvald Ã©s
Ġnano metro
Ġikuwa tur
Ġpunti fisya
display style
higg ins
nectic ut
jubl jana
juelu o
Ġcheqam puni
Ġberkel ey
' )
, (*
3 70
? ,
] :
a tan
a mana
a tapas
a bya
b ria
b ino
c Ã³rdoba
d ho
d ino
f es
g Ã³n
h os
i chasqa
i Ã±a
i ran
i llam
i dae
k kuna
k llu
k inakuy
l uma
l ukana
n mi
n os
n enqa
o grad
p wa
q una
s c
s wan
s um
s ona
s burg
t iste
u riq
v ina
v ern
w y
w ta
w pi
y aynin
z Ã¡
» ¿
Ã ª
Å ĳ
Ñ ĸ
à ¯
å į
é ĥ
ï »¿
Ġ Î¹
Ġ Äĳ
Ģ ì
an ayki
an chej
an kar
ch Ã©
ch istan
ta ro
qa pa
qa tiq
un di
un yun
ay ninmi
pi pi
pi tal
Ġk isa
Ġk Ã¸benhavn
in wan
in kuman
aq ya
aq kunamanta
ma didi
Ġs mi
Ġs ri
Ġs ÃŃ
Ġs cho
Ġs cien
wa ral
uy chu
uy chis
uy anchay
mi c
mi lla
mi te
ri fe
ri kunqa
ri ght
ri llos
ti o
ti dae
ti vos
Ġp y
Ġp uyu
Ġp oq
Ġp ho
Ġp Ã¤r
cha ra
man tsik
lla way
lla taj
Ġka chasqa
Ġka th
Ġka listu
ku paya
Ġwa les
Ġwa sis
Ġq inti
Ġa tu
Ġa mp
Ġa wariku
Ġr asa
Ġr wanda
uq kuna
Ġch ris
Ġch Å«
Ġch Ã¢
ur kur
us ti
us tra
qan man
ki ki
Ġm c
Ġm Ã¡s
wan kani
Ġma pa
Ġma ka
Ġma china
Ġma manqa
Ġma mani
Ġsi yu
Ġsi ul
Ġsi llu
Ġsi llun
Ġsi win
Ġsi was
Ġsi cilia
Ġpa bl
Ġpa cienci
Ġpa dilla
ap os
Ġd c
Ġd ra
Ġd Ã©
Ġwata kunamanta
Ġ1 14
as ha
as unki
as arsuyu
anqa ru
chi p
Ġt v
Ġt ol
Ġt uychi
Ġi ri
Ġi ya
Ġi chu
Ġi Ã±a
Ġi llampu
Ġsimi paq
ĠÃ± e
Ġhuk kaq
Ġki llan
Ġkay niyuq
Ġkay nata
ra china
Ġya kuyuq
Ġya suni
kun tin
kun naq
kun aypaq
tu tura
Ġqh o
Ġsu e
si mÃ³n
Ġllaqtapi taq
Ġha qaru
Ġchay taj
Ġchay mantan
chu ta
Ġpi cha
Ġpi ano
Ġpi pil
co la
co ron
Ġj ut
chay man
er on
er gias
Ġman ku
Ġman ka
Ġman yayuq
la pa
la ja
Ġkilla kama
Ġwi raqo
qu ÃŃa
qu ista
Ġb ut
Ġb ec
Ġqa ranpi
Ġqa warispa
kunata chus
Ġta c
Ġta la
Ġta risqan
Ġc lin
Ġqu llan
Ġy uru
Ġy ant
Ġsuti yup
kay pa
kay pim
gu ria
Ġde metrio
Ġkan am
way ur
way chik
way sallpu
tun i
tun ta
tun ku
Ġay un
Ġay ora
Ġay nina
Ġay sana
Ġllamk aq
ha w
ha ku
ha lay
Ġmana wa
Ġmana gua
Ġl yon
Ġpacha taqa
Ġti ti
Ġkaq llataqmi
Ġin cas
ci to
ci des
apuy ta
to le
Ã¡ l
ni r
Ġcha kuq
Ġg rin
Ġg rinada
inki chis
anta y
chik pipas
chik layu
Ġsa pi
Ġur dun
Ġqalla riq
pay man
pay kunata
ĠÃ±a Ã±ay
Ġmay manchus
Ġ3 01
Ġ3 22
llan chik
ĠwaÃ± uspa
Ġmun aqtin
Ġpiruw man
Ġpiruw paq
dar d
Ġpay cha
Ġpay rayku
Ġima mantapas
hu ta
hu cha
hu ang
hu dyu
Ġis las
sa w
sa mirya
Ġf ina
Ġsan anchasqa
vi Äĩ
Ġli bera
Ġu b
Ġu llu
Ġwan tu
unchaw pis
unchaw mantam
unchaw ninku
ca mi
ca Ã±a
chin aypaq
do lo
rqa ptin
chan chamayu
Ġchi la
Ġchi kin
kuq kunaqa
Ġ18 1
Ġ18 19
Ġ18 27
Ġ18 47
Ġ18 04
Ġhu mboldt
Ġ5 80
Ġtu kuq
Ġtu mb
Ġun an
Ġun uyuq
Ġnispa pas
Ġpar las
Ġuy aq
Ġuy way
Ġhay kuyta
Ġkatiguriya qa
Ġway ru
Ġway ram
Ġwilla rqanku
ol is
ut kupampa
Ġkuti chisqa
Ġkuti mun
Ġiskay ninku
19 17
Ġkawsay paq
mar ck
mar tÃŃn
suyu piqa
ani chu
Ġwasi chik
Ġriku rin
Ġriku rqayku
Ġati ptin
Ġre uni
de e
de uterono
all man
all ku
Ġra tata
le m
Ġmus k
Ġmus yana
Ġmus eo
Ġmus lim
rin aqucha
ptin taq
Ġham burg
Ġham uyta
Ġllaqtan man
Ġllaqtan chis
Ġayllu kunapi
pampa pi
Ġinti ka
qi wuÃ±a
Ġhanaq pachapi
Ġwarmi q
Ġqillqasqa ta
Ġchas kisqan
Ġju di
san dro
Ġro w
Ġro mano
hin iti
Ġal ta
Ġal ba
ba b
ba h
ba den
ba hamakuna
Ġja ime
Ġja zz
niy qa
Ġmis ki
Ġastawan taq
Ġ15 1
ant sik
war ina
Ġqan manta
Ġruwa kuy
Ġ9 3
Ġ9 5
Ġlima manta
pin ku
Ġsin tapi
Ġsin igal
Ġimay aykuna
Ġimay nam
tal ina
Ġ8 2
Ġ17 1
Ġyuy ayninta
yay ku
Ġca b
Ġyala ta
unchay manta
bi k
Ġsaq manakuy
Ġyaku kuna
Ġqusqu p
Ġtari kunku
Ġtuku man
Ġtuku ptin
ho me
qanku ta
su per
muq tin
Ġkaru manta
mo cha
me gy
Ġinka wasi
anchay ninwan
Ġchuq in
puni taq
kus ma
tay tan
Ġ10 4
Ġuywa ta
Ġuq h
ph yta
15 2
Ġkap una
rus sel
Ġkash aspan
Ġchu llu
Ġchu llun
Ġyachaq kunap
Ġyachaq kunam
Ġkall pata
cen tro
Ġqillqasqan kuna
cion ta
Ġmas kaq
Ġgu anajuato
Ġqhawa chi
Ġatin kiman
Ġyan amayu
Ġkas panmi
Ġkas taÃ±a
Ġque vedo
Ġle wis
kurqan chu
tur e
tur ku
po da
Ġsallqa pi
ĠwiÃ±ay marka
ju anqa
Ġcon s
Ġawqaq kunam
Ġkh ara
Ġrumi manta
cu are
say wa
Ġmishiku pa
kusqa ykichis
Ġtik ran
Ġmin is
Ġruway kunapi
Ġruway ninkuta
Ġyuyay chasqan
Ġ28 0
pura ki
Ġcas ar
25 9
Ġpas ka
Ġpas tor
car ta
Ġjuan mi
Ġpachan kam
Ġme da
Ġme dic
he chos
Ġz aragoza
Ġruwan ki
Ġruwan ankupaq
Ã« ta
Ã« ru
ĠÃ±an kunanqa
Ġnina man
28 8
Ġcor rea
27 4
201 3
201 5
ene rife
kar pu
Ġdo m
Ġkacha murqan
Ġmuyu payaq
Ġso lier
Ġtuk manmanta
Ġpaqari chisqa
sapa ra
Ġtiksi pusqa
ĠmaÃ±a kuyta
ĠiÃ±iy manta
ĠiÃ±iy kama
Ġyay aq
Ġara wkaniya
Ġsuyun kunapi
ariy ta
Ġayllun pi
Ġayllun tin
Ã¶ r
cul es
ĠiÃ±u pura
chinapaq qa
Ġmachu kuna
waÃ±usqa Ã±a
Ġmunay cha
Ġmunay man
apu tu
Ġtin kun
Ġtin kuq
ĠØ µ
Ġhucha chasqa
allpa pi
Ġesta du
Ġriqsi rqankuchu
Ġkuy uylla
ÙĬ Ø©
dios ta
Ġgrigu kunap
olo gia
Ġwiki kunapi
kunanpaq qa
Ġrey qa
Ġpor ras
Ġhi la
Ã±o qayku
Ġjam un
Ġkamay pi
Ġkamachin ta
Ġ187 0
Ġqun qan
Ġpala br
Ġchayam urqan
Ð¾ Ð½
Ġuyari rqan
ash pa
ash kha
Ġsar asara
tÃ¡ r
Ġci ego
Ġwillakuy qa
Ġhuklla chu
olÃŃ via
qha tu
Ġsantu ario
lor o
Ġkachka sqa
ĠÎ ´
jes uspa
men es
Ð² Ð°
usa wru
ts iq
tayta kura
achi tu
ten berg
Ġmaki dunya
Ġmunici palidad
Ġwik isimitaqi
kush anku
allampa p
ven ir
Ġher encia
uch uylla
ĠkaÃ± aspa
Ġkura wara
Ġsaya riy
Ġ185 5
val encia
fran k
fran Ã§ois
Ġmasi cha
Ġmasi chakuq
Ġmasi ykuna
Ġsupay kunata
Ġchim bo
Ġchura kun
Ġkamachina kuy
Ġwapsi m
Ġale k
ĠwiÃ±an anpaq
Ðº Ð¾
ĠÃ±uÃ±uq mi
Ġllumpa wan
erus halay
ÏĦ Ïģ
Ġnir ka
Ġnir landis
puq uy
Ġmuy ur
Ġmunasqan kuta
Ġrakiy nin
Ġchina pa
Ġwatan ku
Ġrikhu riy
âĢĶ Â¿
wawa kunapa
Ġchiq u
Ġcal vo
Â» )
rans ya
Ġmaqana ku
Ġmaqana kuspa
196 4
Ġderech uyuq
usillu kunam
Ġranti kuna
Ð» ÑĮ
Ġkumun ismu
Ġchuk chan
Ġispi rituy
wash ington
Ġfo is
Ġpaqta chi
Ġisrael pa
à¸ ´
chanqa ku
mantaq mi
Ġwaqachiq kuna
Ġwaqachiq mi
ich hu
Ġqarq uspa
rima chi
Ġphuyu pi
Ġva li
esta do
Ġcol onia
Ġgua dalajara
Ġsuq us
gn us
Ġyawri kunam
Î· Ïĥ
Ġacha chillanmi
Ġgi bb
Ġpalama m
Ġphaq chakuna
Ġbela l
Ġkill mu
Ġmunani chu
Ġchar kas
chÃ¶ qa
Ġmunaq qa
Ã³ni co
Ã³ni mo
sar ayaku
Ġkawallu pi
Ġpri mer
Ġmois esqa
Ġkachkaq raq
ĠtÊ¼ aqa
hama d
Ġphrans yapi
Ġali anza
bay eque
tiksi muyuntinpi
Ġcolo rado
ĠsutÊ¼ ita
Ġyam kiy
Ġven de
rÃ© dÃ©
Ġqukun anpaq
Ġkawsasqan manta
Ġlam bayeque
Ġtupu m
Ġsanampa kunata
pala ma
Ġrespe ta
vÃŃ k
Ġyachaynin kuwan
anchayniyki chik
muru ku
Ġbir manu
Ġori gina
sus ya
Ġcaus as
Ġnace q
dina l
Ġsel ect
Ġparinaqu ta
Ġalliy manta
Ġkansillir ninmi
Ġplas tiku
Ġjer sey
ipay anchik
Ġjatu chaq
olÃ³gi co
Ġdimukra tiya
Ġichi lu
Ġvas o
Ġjinalla taj
Ġsalo mon
Ġjuz g
Ġhurquy kuspa
áĥĺ áĥ
Ġasu kar
Ġhuh sunqu
Ġbabil onia
yarqa sqa
Ġachik samaytu
Ġaca de
Ġlun q
Ġpilato qa
Ġllus k
Ġnoqan chej
ÏģÎ¹ ÏĥÏĦ
kusisami yoqmi
Ġbrun swick
Ã©li x
Ġwarkh una
Ġguer rero
Ġpruw in
Ġmadri gal
ladel phia
cord illera
Ġgeno va
Ġsau Ã±e
Ġimashi kuna
shuy paqa
Ġrequ est
ffer son
Ġkallu wata
Ġmaxi mili
iqip tu
Ġhatar ispa
Ġugar te
Ġdil hi
Ġkasqanchik raykum
ĠbÃŃ blica
ĠzÃº Ã±iga
Ġhorizon te
Ġethan ul
ocia ciÃ³n
Ġsintimi tru
Ġtumb es
cuare mbÃ³
erushalay im
rÃ©dÃ© ric
1 19
5 40
6 40
7 30
7 80
? .
a kay
a ha
a da
a kunapaq
a chanta
a lawsi
b pa
b asta
b alle
b insyun
c d
c co
c tus
d una
d istri
d ista
e ma
e lla
e os
f lor
f ast
f aringitis
f dl
g kat
h chu
h ong
h Åį
i chay
i kunata
i to
j ul
j Ã³n
j all
j ere
j peg
k onqa
l anta
l uya
l usa
m isi
m pan
n al
o x
o ri
p unchaw
q kuna
r Ã¡
r isirwa
s ani
t sqa
u de
u kunapaq
u ary
u ganda
y er
y mpi
y unal
z io
Ã ½
Ã Ł
Ä Ľ
Í Ł
Ù ĳ
à ¹
Ġ Ì
Ġ ÃŃ
Ġ istan
Ġ '''
Ġ istunya
an kunatam
an are
ch uma
ch es
ch ÃŃn
ch ten
ch kaqta
ta kana
ta paqari
ll es
un Ã¡
un siya
ay an
ay kuy
pi ll
pi ti
pi la
pi taj
pi erre
Ġk ri
in u
in da
in dunisya
in uyt
aq chu
aq yay
ma pu
ma thiyup
ma dagaskar
is mael
pa tri
pa chaykamay
Ġs chu
wa ray
uy ku
uy uni
mi ray
mi dya
mi yap
ri man
ri kurqan
ri ano
ri ck
ri tus
Ġll una
Ġh ong
Ġp Ãº
Ġp ens
Ġp Ã¡r
cha llanpim
man as
ku ku
ku chka
ku mun
Ġwa li
Ġwa kay
Ġwa chaspa
Ġwa liq
ka pusqa
ka llawaya
Ġq ir
Ġa to
Ġa ero
Ġa dolf
Ġllaqta kunawan
Ġllaqta cham
uq yachina
Ġch ukuy
Ġch ulla
ur us
us hu
us ton
ki tara
ki wicha
wan taqmi
Ġma chin
Ġma tan
Ġsi w
Ġsi qi
Ġsi qay
ru gal
Ġnisqa kunaman
Ġnisqa wanmi
Ġpa ca
Ġpa llana
Ġpa blu
Ġpa pel
Ġwata yuqmi
Ġ1 200
as is
as unkichis
as naqucha
anqa m
anqa kunap
chi pa
Ġt oq
Ġt ham
Ġi qu
Ġi xiamas
Ġhuk ta
Ġhuk llam
Ġhuk ninta
ar t
ar witu
ar hintin
wi rka
wi raqo
am ay
Ġki kiy
Ġruna j
Ġruna tam
sqa y
Ġya pan
Ġya pasqan
kun du
kun kichischu
tu cky
si pi
si ku
si ra
Ġllaqtapi n
ill ca
es wa
es ha
es tas
es pÃŃritu
Ġchay achi
Ġchay awi
Ġpi kunaman
Ġj ura
Ġj ich
er ci
ins titu
ul t
en si
en ga
en tukuna
la i
la v
la pi
la ki
la ga
la va
Ġwi rata
Ġb l
may pitaq
Ġqa parispa
kunata mi
os hima
Ġta l
Ġta pur
kuy kunamanta
Ġc ri
Ġc lia
Ġqillqa s
Ġqillqa rqa
Ġqillqa rqanku
Ġqu wayku
Ġy e
Ġy anan
Ġsuti qpa
kay pin
gu ill
Ġkarqan chu
Ġkan aypaq
way llu
tun ga
or y
or Ã©
Ġas cen
Ġas no
chis a
yan kuna
ha cha
Ġan ku
Ġan cash
Ġan tÃ¡r
Ġuma chaki
di ce
Ġl y
Ġl uth
Ġti to
Ġti ranu
Ġpu ente
Ġmi d
Ġmi di
Ġmi kusqa
Ġmi chej
ci udad
hi y
Ġsuyupi m
ni colÃ¡s
Ġall paq
Ġall ita
Ġg nu
inki yuq
inki chu
kunapi ta
chik oj
chik mantapacha
Ġsa pin
Ġsa du
Ġsa waya
Ġsa kawa
Ġsa grado
Ġur al
Ġur uru
Ġ3 39
Ġ3 37
Ġmun qhi
hu chusuma
Ġru p
Ġru eda
Ġis ta
sqan ku
Ġni ku
llaqta manta
sa int
Ġ" ,
Ġhina man
Ġhina llata
re gnum
kin ray
Ġsan iya
Ġsan amp
Ġsan tus
Ġqucha kunapas
vi ctor
Ġli mÃ³n
Ġwan a
unchaw si
unchaw pim
Ġyachay chis
Ġallin cha
Ġallin ka
Ġallin nin
Ã³ crates
pan piqa
mpa ki
Ã© e
Ã© k
Ġmar ta
Ġrimay kunatam
Ġrimay pim
lu i
chan man
Ġqallarisqa ku
Ġchi lla
Ġ18 3
Ġ18 00
Ġ18 43
Ġhu man
Ġhu er
Ġyacha chinapaq
chaq kuna
chaq kunata
ĠwaÃ±usqa Ã±am
Ġpar ina
Ġpar uru
pe rio
Ġlli phi
yki rayku
Ġkun win
Ġkun tista
ris pan
asqa manta
Ġw ins
Ġw ei
Ġhin aptinqa
ut uy
19 50
19 47
19 76
19 77
19 52
taqa yta
Ġv ÃŃas
Ġv olÃŃvia
llay ta
Ġkawsay chis
Ġkawsay ninpi
mar tin
tawan chu
kh o
Ġre con
Ġre emb
Ġre cife
Ġbuliwya pipas
Ġyura kari
all ana
Ġdios pas
Ġra kha
le Ã³n
Ġmus u
Ġmus ya
Ġmus yan
Ġlla qa
Ġlla kipi
Ġllaqtan kunaq
hina lla
Ġo Ã±a
Ġo to
qi lla
Ġco to
mayu pura
Ġwarmi kunaqa
Ġpukyu manta
Ġar ti
Ġar que
Ġar men
Ġar ose
Ġkus h
Ġkus kancha
ayki llapa
Ġju Ã¡rez
Ġnin man
Ġnin kuman
aynin chik
Ġtar de
ba cho
ba Ã±os
Ġrima sh
Ġrima riy
Ġrima kunam
qh uya
sun man
Ġpha wayta
ari chisqa
Ġ15 3
kis isyun
Ã¡n uco
Ġqan kunataq
pacha manta
Ġruwa pu
Ġruwa sh
Ġsutin kuwan
Ġ9 80
pin d
Ġvi rales
Ġvi eira
Ġtaki yta
Ġse de
Ġse gur
ga z
ve ira
Ġ17 4
Ġyuy ayta
isqan ta
Ġkawsa chun
ras ani
Ġachka raq
Ġca Ã±a
Ġca tarina
Ġku chuna
qo rqanku
unchay kunapiqa
Ġsaq ru
Ġsaq raq
Ġyaku taqa
Ġna zi
Ġna gasaki
du e
ec ts
Ġ12 9
Ġat ska
su ch
Ġran tiq
apan uy
.. ..
Ġwawa kunaman
Ġqhaway ka
Ġtayta ykuna
kichis paq
Ġ14 1
Ġ14 6
Ġ14 92
taj ri
hun u
anan chispaq
kus pas
Ġkarqa ptin
Ġawqa kunamanta
Ġallpa kuna
Ġkamachi kuqkuna
ayku rqanku
ayku sqayki
Ġkash aqtinmi
12 0
12 2
mu ptin
Ġlu cÃŃa
Ġchu lli
Ġyachaq kunaqa
Ġmu ja
Ġmu Ã±oz
Ġba ja
16 6
asqan man
gen a
Ġwaq yay
Ġwaq yasqa
Ġkikin cha
ancha tam
niyki chisqa
ĠwaÃ±u pun
kuta kachi
20 3
Ġak hili
Ġyan usqa
Ġkas ta
Ġdiospa j
Ġchur ayta
Ġne ga
ĠwiÃ± asqa
âĢİ ;
waq chu
Ġllaqtakuna s
ver pool
Ġqi lla
be arn
Ġsinchi chu
ĠÃ±u Ã±un
ĠÃ±u flo
ĠÃ±u qaykuman
Ġllapan chis
Ġpampa chasqa
im puri
Ġen g
Ġen ton
Ġ22 5
Ġqispi chiy
Ġsimin qa
Ġrunasimi llapi
muy ta
Ġmin as
Ġaran i
Ġyuyay k
Ġmunan kichis
Ġlicen ci
Ġfa cto
uku res
Ġpas o
ĠÃ±awpan pi
Ġson ora
Ġrurasqa m
Ġpachan pi
Ġrap rayuq
kas yu
Ġnis han
ge orgia
Ġz or
Ġkul ta
aqtin ku
Ġbo u
ĠÃ±an kunapi
Ġdyus man
ata spa
Ġnina ta
Ġwillay kuykuna
Ġnu qaq
Ġkaynin kunayuq
Ġpo pul
Ġcor tÃ©s
Ġto la
Ġto luca
Ġ27 0
Ġbu wis
llata taj
Ġso ciedad
mis hana
den burg
Ġor tho
Ġbar co
Ġbar roso
Ġtuk tucha
Ġpaqari mun
Ġpaqari muq
fe lipe
Ġqar quy
ĠmaÃ±a kusqan
ĠmaÃ±a kuychis
rÃŃ quez
Ġapa murqan
Ġyuraq marka
Ġalli chanapaq
ykichis pas
Ġte t
Ġjatun cha
los o
apa chana
ĠseÃ±or qa
Ġmunay nill
Ġruray kunata
ĠØ ®
tus i
Ġsonqo ykichispi
Ġuj tawan
Ġkuy ay
Ġwin dows
Ð¸ Ð¼
Ġpurin apaq
arin ku
Ġrunallaqta p
Ġllika p
Ġphu ku
ish ka
Ġwiki mediap
Ġkamachiq nin
Ġqam kuna
38 4
Ġcom o
Ġcom unal
Ġval era
à¤ ²
kaws aq
Ġmur uqucha
Ġash ta
risto ph
Ġwawan kunaq
bur y
Ġjam uspa
Ġkamachin anpaq
oni ca
Ġpul inisya
Ġfi guero
Ġruwasqa yki
Ġchayam uspa
Ġuniversi tario
Ġlluqsi mun
Ġxi x
usqan manta
Ġruwasqan kunata
Ġruwasqan kuta
Ġsara jevo
Ġukhun cha
Ġrikun i
rimay kuna
Ġkachka ptinmi
pha llcha
fo x
and re
son ene
Ġtun qu
198 6
Ġjehova j
chaymanta pacha
imay nan
bas co
ÙĪ Ø±
ĠiÃ± ispa
Ġber mejo
Ġangel qa
allampa kuna
Ġunq una
Ġimayay kunata
Ġsaya pa
Ġkum binsyun
Ġ185 8
Ġkuska lla
Ġiman ku
Ġ35 1
Ġ35 5
Ġinlisya ta
Ġkhuy aq
Ġfacultad nin
99 9
dan ya
Ġcer cado
ĠÃ±uqa pas
Ġyachachi kunan
Ġchaskin anpaq
ĠØ§ÙĦ ÙĤ
Ġlaq hi
Ġlib r
Ġpal istina
Ġunay manta
Ġth aqu
rit z
Ġir landa
Ġmill uni
guna ta
Ġregi one
ger manu
Ġqon qaylla
Ġwatan man
Ġwatan kupi
Ġmuru cha
Ġmuru chan
Ġbus taman
Ġaklla kusqan
imayna tan
imayna mantÃ¡
ispaÃ±a manta
Ġkamachisqan ta
Ġchimpa chikuq
Ġqespi chiq
Ġunancha rqanku
196 6
Ġkawsari mp
Ġmusi kupi
Ġharawi kunata
Ġpawlu p
qillqaq kuna
Ġqos aq
wanku risqa
Ġchaymantataq si
Ġame rica
Ġatuq qa
Ġger ard
Ġtak ispa
Ġbil arus
Ġnanay wan
Ġmanchari kuy
Ġmanchari kuychischu
wakin llapi
iqtay niyku
Ġbal divi
Ġsol dad
Ġespiritu wan
Ġyachachisqa yki
puri kunanchikpaq
ord ina
Î· Î¼Î±
eli c
Ġlaguna s
Ġpuy ka
Ġpru tist
Ġza greb
wid ul
ĠÃ±uqanchik pa
bir ya
Ġqhawariy chis
Ġkis war
Ġmacha la
Ġrimaynin kunam
tanta sqa
tuna ri
ĠÃ±uk ini
Ġfor taleza
Ġyuyaynin kuwan
Ġmois espa
ĠaÃ±aki kunapas
Ġris aq
Ġsinchita puni
Ġkicha ri
Ġrispa mpa
Ġchh aph
jtin chus
Ġkut is
Ġsit wa
kris tup
oo oo
Ġpon tifi
kawa llu
Ġfariseo kunaqa
bul garya
Ġmila g
media wiki
uska di
iqta ku
Ġchaqrusqa m
Ġvene zuela
Ġchala pi
vie jo
ĠÃ±in mi
Ġqhipan pi
Ġapos toles
Ġmaqay pi
Ġsak sa
Ġtusuy kuna
Ġhill s
chkay ku
Ġoli vos
yi w
Ġisi boro
Ġruraynin kuwan
Ġbos ton
Ġcrist on
ĠÏĢ Î±
Ġaypa lla
Ġbautiz aq
ms m
Ġsami q
Ġhir ka
Ġhir oshima
Ġkam pan
Ġchus un
ĠÃ±au paqta
ĠthuÃ±i chisqan
kuqtin taq
Ġashwan pis
Ġer qe
Ġhen ry
Ġcham qaspa
Ġatiyniyoq mi
Ġanto ine
Ġqatiy ka
gÃ¼ e
Ġbay ern
Ġsaman ku
Ġmerce des
gr Ã¡
Ġqil qan
Ġpillun ya
Ġmunapay asqankuta
Ø² ÙĬ
Ġquin tana
Ġkusiy wan
Ġcasos pi
Ġachu ar
Ġyakum uksi
suma j
Ġmunana kunan
Ġkampiuna tu
pol is
Ġwidyu m
Î¹Îº Î®
ÈĻ pa
riku way
Ġabi mael
Ġjuj uy
Ġyakuma manta
Ġtukukuy ninmi
Ġjer Ã³nimo
Ġtian jin
tom Ã¡s
gana ti
Ġtemp lo
Ġoffi cina
Ġsarun chasqa
à§ į
waw qe
Ġkami run
Ġmamallak tata
nej pi
Ġchullpa kuna
Ġbolivi api
Ġpoqo y
Ġnillan taq
Ġrepa ran
Ġusus in
Ġthay suyu
cheqaq tapunin
Ġjohan n
bon garÃ¡
Ġusi yanyapi
Ġqhapaqsuyun manta
Ġik wayur
Ġcel endÃŃn
Ġflor encia
Ġefec tos
Ġbanla dish
Ġllasa tura
Ġmusp haspa
Ġkamaqill qan
Ġpromete rqan
Ġagra ria
bap tiste
Ġnapo li
Ġom iste
ug las
Ġalban ya
Ġkhish kayuq
niqir ya
Ġdol ores
anqayuq Ã±am
Ġwiyu lin
ĠgÃ³ mez
Ġkunturi ri
Ġithiyup ya
Ġgalle gos
Ġlangua ge
hill urina
amento ta
deau x
Ġqullq isapa
Ġwawanpa pis
tepe que
Ġenvi dia
Ġaypasqa kunapaq
Ġconsti tu
Ġkhus kan
Ġfire fox
Ġcolom bia
Ġpwi blu
Ġpikch un
ĠecolÃ³gi ca
aqakuynin chiqta
Ġunanchaspa Ã±ari
Ġsmi th
coron el
Ġkapuna kuq
Ġbelal cÃ¡zar
chten stein
waray u
arhintin ap
Ġpikunaman chus
Ġclia th
Ġkunwin tupi
Ġreemb ol
Ġarose mena
ukures ti
Ġbustaman te
Ġbaldivi eso
! ,
2 15
2 11
2 24
3 60
4 20
7 68
] ",
a taq
a vi
a dolfo
b ano
b rica
c ci
d uy
d uyuq
d ing
e in
e um
e tts
e fesios
f ir
f ano
g am
g res
h t
h wa
h aya
h erto
i us
i lu
i kuq
i dea
j kuna
j ayupaya
k ka
k ja
l un
l yn
m t
m ber
m ista
n wall
o rqanku
o chuk
o quia
p ero
r uyu
r ar
r ayuqmi
t isqa
t ran
t elo
u tampu
w ei
w orld
x ar
x cala
y kun
¡ Õ
Ñ ħ
Õ ¡Õ
Ö ´
Ø ®
à ·
ä ¹
Ġ ÃŃn
Ġ ose
Ġ Äį
Ń ¦
an us
an pas
an tanka
ch tit
ta spa
ta raq
ta raqu
un ancha
ay pata
ay wiy
pi y
pi chi
pi rwa
Ġk lisa
in lla
in es
in ca
in kisiwi
in tunpi
aq an
aq kunatam
aq ninkunaqa
una m
ma riya
ma kiya
is in
is ku
is han
pa taq
pa risqa
Ġs tra
Ġs yi
wa Ã±u
wa machuku
ri kanu
ri chard
Ġll osa
ti m
ti ru
ti chi
ti wanaku
Ġh ist
Ġh il
Ġp reso
man cha
man ki
Ġka h
Ġka mpa
Ġka kuq
Ġka mayu
Ġka Ã±an
Ġwa wayuq
Ġwa chanku
Ġwa orani
Ã± aq
Ã± wa
Ã± ut
ka la
ka sh
ka chun
ka chispa
Ġq ing
Ġa pi
Ġa kuna
Ġa may
Ġa bo
Ġa mpu
Ġa gri
Ġa Ã±askitu
Ġa varo
Ġn g
Ġr uma
Ġr ino
Ġr arqa
Ġllaqta manmi
Ġch ulu
ur q
ur is
us s
us er
us tani
qan mi
ki ri
ki kunata
Ġm esa
wan ay
Ġma kipi
Ġma hua
Ġma wlli
Ġsi lis
Ġsi ena
Ġsi chura
ru qa
ru ri
ru pun
Ġnisqa kama
Ġpa karaw
ap law
ap unku
Ġd as
Ġd isip
Ġwata kunapiqa
as am
as taq
as haninka
as sisi
anqa kunaqa
chi ta
chi mun
chi kurqanku
chi wanchis
Ġt ÃŃ
Ġt ea
Ġt inkisqa
Ġt enerife
Ġi li
Ġi uli
Ġi lia
Ġi gua
Ġi van
ĠÃ± anqa
Ġhuk ninmi
Ġhuk kunatapas
ar al
ar ca
nin g
Ġri j
Ġri x
Ġri vas
Ġri ranllapa
wi tun
Ġruna k
Ġruna kay
on ne
Ġkay tan
ra t
pas chÃ¡
pas ip
Ġya ra
Ġya ws
kun si
tu may
tu al
Ġqh ura
Ġqh illi
Ġsu f
Ġsu may
si c
si Ã±ur
uma lli
es cri
Ġchay kunapi
Ġchay anaman
Ġpi chiku
Ġpi shqa
co lum
Ġj ere
Ġj ayupaya
chay ku
chay kunata
chay tam
chay na
ins k
Ġman chester
Ġman ayÃ¡
ul gen
en do
en za
la us
Ġwi chasqa
Ġwi chari
Ġb ang
Ġb elo
Ġb russel
os is
Ġta u
Ġta rika
Ġta puri
Ġta raqu
kuy a
kuy pa
kuy ku
kuy ki
Ġc anta
Ġqu m
Ġqu il
Ġqu tucha
Ġy us
Ġy erushalayim
Ġsuti y
Ġsuti ykita
kay kunapi
kay piqa
gu ita
Ġkarqan i
Ġkan ar
Ġkan pas
or Ã³
Ġas arsuyu
usqa ta
Ġsutiyuq si
chis man
yan aqucha
ha ru
Ġmana pas
Ġan kucha
ws ki
ws on
ws tone
Ġl ÃŃ
Ġl aris
Ġl ÇĲ
Ġpacha kunaman
Ġpacha manmi
Ġpacha kam
al eo
Ġti betu
Ġkaq pa
Ġkaq tapas
Ġkaq niyoq
riya rqan
Ġpu Ã±uq
Ġpu hili
Ġmi x
Ġmi ku
Ġin as
Ġin kan
ci er
ci dad
ci tos
ci dae
hi ki
hi rka
Ã¡ sica
Ġall payuq
Ġcha co
Ġg on
Ġg el
ura pa
anta marka
kunapi ka
Ġsa chas
Ġsa rumilla
Ġur man
pay Ã¡
Ġmay man
Ġ3 40
ĠwaÃ± urqanku
Ġmun aymi
ro l
isi pi
Ġpay a
Ġpay lla
Ġpay kunapas
Ġpay taj
Ġima pa
Ġima hina
Ġima jtinchus
hu al
Ġru waqmi
Ġis pay
ran chu
Ġni Ã±a
Ġni tinqa
Ġni wanchis
Ġni wtrun
sa chus
Ġhina llan
uti y
kin naq
kin gs
Ġaswan tam
vi al
vi den
Ġli tuwa
Ġu pi
Ġu go
Ġu ganda
Ġu wiha
Ġwan sa
Ġwan kayuq
Ġwan kasanku
Ġyachay ninkunata
ca che
chin ayki
Ã³ filo
Ã© ry
Ġmar zo
Ġmar seille
rqa taq
da pi
tan pu
Ġqha pari
Ġrimay niyuq
ĠÃ±aw is
Ġqallarisqa m
Ġdi us
Ġ18 48
Ġ18 37
Ġhu ey
Ġhu manos
Ġ5 000
Ġtu may
Ġtu pan
Ġtu pun
Ġun anchayninta
chaq mi
Ġla ur
Ġla wqa
Ġla kachu
mana taq
Ġhay kuy
Ġhay unmi
pun tia
Ġpuq usqa
yki p
yki chej
Ġway ay
Ġway ruru
Ġway llunk
Ġkun sul
Ġwilla rqa
Ġwilla kamun
ris hka
Ġw uliwiya
Ġraymi pi
Ġraymi kuna
Ġhin araq
ut us
rayku wanpis
19 71
Ġyu paspa
Ġ4 30
Ã³n g
Ġe c
Ġe pi
llay kichis
go ku
Ġkawsay wan
Ġkawsay taq
mar go
Ġwasi taqa
Ġwasi chaypi
Ġriku span
Ġati kunchu
Ġqillqakuna pas
Ġbuliwya manta
de ma
Ġurqu kunata
le mu
rin o
Ġham usqayki
Ġllaqtan mantawan
Ġllaqtan chikman
min ta
chun mi
Ġo mar
Ġinti q
Ġinti chaw
Ġ6 50
Ġes qui
Ġes pos
Ġes pecial
Ġmamallaqta kunap
Ġancha tas
Ġgri ego
Ġar turo
Ġkus ma
Ġqillqasqa pas
Ġsuyukuna pa
Ġju i
Ġju Ã±una
lo ja
Ġuk si
Ġro bin
hin di
Ġyupay manta
Ġyupay chanku
Ġchin o
Ġal qa
Ġal do
ba gu
ba do
sin ku
Ġmuna kusqan
Ġmuna kuynin
Ġmuna kunki
Ġmuna kusqanrayku
Ġrima riyku
rum pi
Ġja ma
niy manta
Ġmis yunkuna
Ġastawan raq
Ġpha ta
Ġpha llcha
ari chisqan
Ġ15 00
Ġqan pa
Ġruwa kurqa
Ġ9 8
Ġanta kuyu
Ġimay ayninta
Ġimay nas
Ã±u qayku
Ġse llasqa
ga te
ve t
Ġ17 3
Ġ17 5
Ġyuy ana
Ġpun kun
18 8
Ġparki manta
unchay paq
unchay piqa
Ġsaq ma
Ġsaq run
Ġruraq kunap
Ġyaku pas
Ġyaku tam
Ġna cen
Ġ12 6
Ġtari rqanku
ho yo
su ri
su cre
Ġran tiy
Ġran tinpi
que bec
Ġkaru chu
Ġpachapi m
gi da
Ġpe tit
Ġpe lileo
me jÃŃa
Ġkasqan taqa
ir re
Ġkastillanu chay
anan chis
anan llapa
Ġsuy asqa
Ġ16 9
Ġ16 00
Ġno va
ph us
Ġallpa m
rus pi
rus ya
Ġkamachi rqa
mu ri
isa qa
Ġchu chu
Ġchu pan
Ġchu icuni
Ġyachaq kunamanta
Ġyachaq anapi
Ġmu chuq
Ġyana urqu
Ġ13 1
tri x
Ġba ure
pus apuna
mus unchik
16 8
Ġqillqasqan ta
ke y
gen t
gen bos
aqa kuspa
aqa kuyninta
th os
Ġwaq cha
par ina
par yaqaqa
13 7
acha m
acha kunata
acha llina
Ġbi lin
Ġqhawa pay
Ġ20 5
Ġatin kuchu
Ġyan aq
Ġel oy
Ġkas pan
Ġchur am
Ġchur anapaq
Ġwakin qa
Ġsun qucha
Ġle oni
Ġrun ayu
chuk i
tas ta
qun ku
ju ana
kha ri
las iyu
paqa riy
Ġmaq ni
ankupaq mi
fi a
Ġurin pi
Ġmo der
Ġmo hamed
Ġukhu piqa
Ġkur regi
no vial
Ġen gel
kusqa manta
Ġqispi kusqa
qalla w
Ø§ Ùĩ
Ġmin aq
Ġmin uywa
cas ara
Ġqatiq nin
Ġruway kunamanta
amp ana
ko qa
Ġ30 5
chej pi
Ġwaqa spa
pura qa
Ġransiya pa
Ġpas kwa
run aq
kusqan man
dor ra
Ġkasqa chu
Ġkasqa ykita
Ġqo llan
Ġpachan ka
Ġme xico
Ġchurin kunan
Ġchanin chaq
Ġpin winu
Ġz u
Ġz um
Ã« ki
ĠÃ±an kuna
Ġnu qayku
Ġyachachiy ku
Ġphi Ã±asqa
Ġphi rriÃ±aphi
Ġkaynin pa
Ġcor ape
ĠsuÃ±ay pura
tt gart
Ġkacha rin
Ġkacha musqan
Ġfran Ã§ois
Ġpan ti
Ġpan tan
Ġbe llo
Ġbar inas
Ġtanta llawanchu
ĠÃ±o qaq
Ġmancha kuq
ika pun
Ġapa mu
Ġjan uary
nu eva
Ġindi gen
ĠiÃ±iy pa
ĠiÃ±iy wan
qill qana
Ġchili p
Ġara uc
Ġsuyun si
Ġsuyun chik
Ġsuyun chikpi
Ġmon ro
Ġmon tero
les tina
Ġand inos
Ġjatun chasqa
ck er
cul o
los enses
apa chi
Ã¼ ssel
Ġtant ana
Ġjall ch
Ġmunay nillan
pur ina
ĠØ ³
Ġpuri rin
Ġyur isqa
Ġsam aq
Ġuj nin
bre o
tr y
tr yapi
tr ong
Ġwayra ta
Î¿ Î³
Ġyanapa kun
Ġtay pi
Ġjo Ã£o
ram Ã³n
ram sar
ak cha
ak llan
Ġkamachiq ninkuna
Ġrey manta
Ġrey kunaman
Ġchinka pun
Ġchinka chinapaq
Ġcom pa
Ġhi ki
Ġrimana kuna
tos cana
Ġtaq e
Ġestado pa
Ġwawan kunamanta
Ġaycha ta
Ġkamay oq
Ġchallwa kuna
Ġqun tay
iru manta
Ġchayam unqa
Ġwis n
Ġgar cÃŃ
Î¹ ÏĦ
hua tl
Ġnobel pa
pak istan
Ġci encia
psi da
qha li
was k
was kh
bar ran
Ġrikun kichu
tawa manu
Ġkachka ptinqa
Ġser gio
Ġ186 9
Ġpachakwata pis
ble a
Ġfe br
Ġjehova man
Ġkaw llay
anchan anpaq
kam unqa
chayuq mi
Ġkallpa chay
akun anta
aran llapa
Ġtakin apaq
aytu kuna
Ġtuta yay
Ġkusa la
chasqan kuna
Ġhara win
val paraÃŃso
Ġiman Ã¶
boo k
fran cis
Ġ35 2
Ġsupay ta
arhintina pi
Ġgo d
ikrasqa kunaman
ikrasqa Ã±am
Ġnihun pa
Ã¯ ta
Ġale ut
Ġrura kunanku
Ġchaskin qa
ĠØ§ÙĦ ÙĦÙĩ
Ġllap tapi
har d
Ġchiqan chasqa
Ġshimi pi
Ġsipas cha
wiya cha
Ġmari due
Ġaf rica
col n
Ġkinray ninmi
Ġqe lla
Ġprofe tan
Ġchimpa chikuy
Ġqespi sqa
Ġrurun kunaqa
Ġwaqlli chiq
196 2
ces o
Ġban co
eri zo
ala ta
Ġad Ã¡n
Ġchayna llata
Ġparl asqa
Ġchaninchasqa m
Ġqol qen
Ġyupanki p
Ġfo to
Ġpaqta taq
Ġmel bourne
Îµ Î¯Î±
Ġnoqa manta
Ġraphin kuna
tuk tu
Ġfu ente
Ġyachachisqa s
Ġgua te
ĠhuÃ±unakuy pa
Ġjuli Ã¡n
kisi li
Ġchacha puya
ĠantaÃ±iqiq pi
Ġwal ker
Ġquchu p
chakuy ninta
Ġtes aloni
Ġhama ch
pal pa
ĠÐ ³
Ġmamay ki
Ġsik llalla
Ġjucha man
kasha pampa
lata kunka
Ġjud Ã¡
niykichis pas
chÃ¶ mi
Ġorqo man
Ġorqo manta
Ġtakichaqmi pas
my entukuna
Ġtull pu
Ġhor qo
Ġjohn son
Ġaj llasqa
Ġagu ilar
km insuyu
Ġkamari chiyta
Ġruntu ta
Ġtukun anta
Ġpri mera
cali entes
Ġvalle jo
Ġala lay
Ġshina pash
Ġ% ,
tario ykuq
willa Ã±iqi
Ġsuticha rqanku
cara cas
pre fectura
ĠÃ¡ l
Ġore gon
Ġpen nsylvania
Ġmal wina
Ġgal e
Ġqhapaqsuy unpi
Ġqhaliya chirqan
Ġwawas ninmanta
Ġvillar rica
Ġcho que
Ġsanancha sqan
Ġpil ku
Ġpil Ã³n
Ġim Ã«
Ġhata riq
Ġhuktawan ri
ĠwaÃ±uchi rqanku
rÃ© m
llapaq chu
rapa llqa
Ġsala do
Ġita lia
Ġkunris unman
tl Ã¡n
Ġbru ja
Ġyo ung
Ġuyaris haspa
Ġaypa rqan
Ð¼ Ð°
kaÃ± ina
Ġkilu mitru
Ġsamay pata
mira flores
Ġsatan asqa
Ġsatan Ã¡s
Ġmunaynin wan
anankupaq ri
Ġqapa chiqa
universi ty
Ġchus chi
Ġplaza challanpim
vis or
Ġwatu kuq
Ġnurwiga pa
Ġcont ran
achu qalla
qhawa riychis
Ġvin ces
Ġjerusalen man
Ġrunamasin wantaqmi
Ġwiksa lli
ach kiy
Ġglo bal
Ġbis marck
Ġanchay kachaq
Ġchaqn asqa
Ġdin usawru
Ġmora zÃ¡n
Ġbearn pa
ÐºÐµÑĩÑĥÐ° qu
peri al
Ġkansillir nin
Ġcheqas man
Ġkati yun
Ġalvarado p
anto ine
Ġkuya winu
Ġuta h
Ġqirisan kunaqa
Ġsy dney
Ġpati willka
ameri cano
Ġpie tro
rand t
Ġchil ena
Ġkusisami yoqmi
Ġwatana kunku
Ġestrepto co
Ġsaw si
Ġsalo mÃ³n
Ġingen io
sol anum
ux Ã±a
ĠtÃ©c nica
Ġtinta ya
Î¿Î» Î¹ÏĦ
Ġtiempon pi
Ġgusta vo
Ġjanaq pachapi
ale jandro
Ġsanti este
Ġcami lo
Ġdocum enta
Ġpalab ran
Ġbritan ya
Ġkilugram u
ruray chaqa
Ġich huna
Ġjuni o
Ġfrank furt
Ġandre w
Ġhana k
Ġamb orÃ³
aram uri
Ġbaqu erizo
bac teria
ĠsuÃ± aymi
Ġhal aykurqan
jac ques
æĺ İ
paw lu
yawa tisuyu
putu mayu
Ġtiyapuynin kuwan
Ġdemokra ta
Ġllum pay
Ġkayrayku ri
Ġkunkay oqta
Ġqoll qe
Ġsuwan kunamanta
mampi ru
Ġpant anal
Ġtistam intunpi
Ġinsiklupidiya m
istotel is
Ġpeni ci
Ġkayni mpa
umba i
Ġsuperi or
Ġeliza beth
Ġod isi
Ġsello ykuwan
Ġexten sion
uriq hasqu
Ġsiwin aqucha
Ġuyaq rinman
Ġrow ling
Ġminis tir
Ġmedic ina
Ġalek san
Ġwatanku kama
Ġhuhsunqu pam
ĠpÃ¡r rafo
Ġyapasqan pas
Ġbl uki
Ġsanamp anqa
pind insya
impuri chiyta
ataspa ri
herto genbos
chtit lan
Ġavaro a
Ġmahua d
pasip hiku
Ġchayanaman paq
ulgen cio
Ġpachakam aqta
sachus etts
Ġkurregi myentukuna
Ã¼ssel dorf
Ġmaridue Ã±a
Ġsantieste van
hertogenbos ch
) ''
- %-
2 14
2 20
< /
a rika
b un
b ran
b ant
c p
c uma
c anta
c lay
c ty
d ras
d ÃŃo
e wi
e mpi
f la
f Ã©
f riedrich
f rÃ©dÃ©ric
g ura
g Ã©
g all
g uni
g gio
h ÃŃa
h Ã«
h urankichu
h Ã¡za
i qay
i kunku
i chikun
j im
j isk
k ispa
k sa
k ec
n h
n s
n uq
n apuruna
p Ã©
p res
p Ã«
q ul
r qu
r ent
s man
s za
s ton
s ula
t che
v ya
v Ã¡r
w aqta
x y
x aka
y unqa
z Ã³w
É Ľ
Ø º
á ½
å ®
æ ľ
ç Ķ
ì ķ
Ġ ~
Ġ ÑĢ
Ġ à¸
an taq
an ce
ta do
ta wqa
ta hina
qa l
qa ri
qa tar
ll aqucha
un uy
un anpaq
ay kama
ay muray
pi k
pi raq
Ġk wir
in pa
in manta
in kunata
in chan
aq lla
aq wi
ma so
ma rio
ma ine
ma chiqinqa
ma gallanes
is u
is la
is hin
is ario
pa qay
pa ÃŃs
Ġs pi
Ġs ci
Ġs oq
Ġs pin
Ġs ho
uy q
uy qu
mi tu
mi yun
mi kha
ri tup
ri vera
ti mo
ti vidad
Ġp lu
cha mpa
ya pu
ya chiy
man chi
man chester
lla tan
lla suyu
lla pin
lla jta
Ġka ch
Ġka sunchik
Ġka llantaq
ku raq
Ġwa lan
Ġwa kichis
Ġwa llanka
ka mu
ka purqanku
Ġq in
Ġq uni
Ġq usqayki
Ġq ulumi
Ġa dur
Ġa fi
Ġa risti
Ġa gro
Ġa dela
Ġa costa
Ġn y
Ġr erqa
Ġch ul
Ġch illan
ur pin
us uyu
qan manta
qan tu
qan chu
ki l
ki p
ki Ã±a
Ġm Ã¡n
Ġm aqu
Ġm Ã¼
Ġma m
Ġma es
Ġma di
Ġma de
Ġma chun
Ġma mantaq
Ġma ruku
Ġsi ria
Ġsi pawa
ru wa
ru asyatiku
Ġnisqa kunap
Ġnisqa yki
Ġpa i
ap Ã¡
ap ura
Ġd Ã¡
Ġd amas
as kay
anqa chu
chi ptin
chi qaq
chi wanchik
chi hÅį
Ġt on
Ġi ca
Ġi mana
Ġi thi
Ġsimi kunawan
ar qayku
ar sen
nin kunawan
li ti
li ka
li chi
Ġsuyu xa
Ġruna pi
Ġruna kamaq
Ġkay kunan
Ġkay pipas
Ġkay kunas
ruw ay
Ġya ruwillka
Ġya wirka
tu mi
tu mipampa
Ġqh uy
Ġqh isqa
Ġqh ur
Ġqh ucha
Ġqh upi
Ġsu m
Ġsu ph
si f
si ma
si yu
si llu
uma ch
Ġha wk
ill ika
es pe
Ġchay tapas
yu ta
chu m
Ġpi ch
Ġpi lla
Ġpi lli
Ġpi no
Ġpi nipi
taq ui
co llo
Ġj uti
chay wanpas
ĠÃ±iq en
ĠÃ±iq uin
ins tein
ul ti
en ton
la wa
la mar
la wriqucha
qu llana
tin chis
Ġqa parin
Ġwatapi pas
Ġkillapi m
Ġkillapi qa
Ġta pay
Ġta ris
Ġta kaq
Ġta yaqaqa
Ġta paqari
Ġc li
Ġc um
Ġqillqa may
Ġqillqa pampa
Ġqu chanta
Ġsuti pi
Ġsuti chay
kay kuna
kay nin
ist s
ist ro
Ġde ut
Ġde ben
Ġkan anqa
Ġkan tu
way anay
kama s
tun kura
or qo
Ġay m
Ġas n
Ġas am
Ġas sisi
usqa y
chis manta
yan mar
Ġan tin
Ġan tun
Ġan anta
Ġan te
Ġl ist
Ġl and
Ġpacha kama
Ġpacha Ã±as
Ġpacha kawri
al aq
mon a
Ġti w
Ġkaq kunapi
Ġkaq kunatapas
Ġkaq kunataq
Ġpu j
Ġpu llu
Ġpu Ã«
Ġpu maqucha
Ġpu ebla
Ġrunakuna tan
Ġin fi
Ġin kisisyun
ci do
Ġkaws as
to ya
hi ta
ni k
ni yu
Ġpaqa y
Ġpaqa rispa
Ġcha paq
Ġcha kiy
Ġg r
Ġg era
kan tur
inki q
anta wa
anta wan
chik rayku
Ġsa c
Ġsa chakuna
Ġsa llqan
Ġqalla r
pay ana
Ġqhi chi
Ġmay lli
Ġmay niq
Ġ3 20
Ġ3 28
Ġ3 26
Ġ3 80
Ġ3 36
llan paq
Ġrur arka
Ġpay wanmi
Ġpay wanqa
Ġima kay
Ġima kunam
Ġima llapas
hu as
hu go
hu ara
hu ira
hu ila
Ġis ka
Ġni kurqan
llaqta yuq
llaqta masi
Ġkama kun
uti q
Ġf olk
Ġaswan taqa
Ġqhapaq qa
Ġqhapaq kuna
vi ri
vi li
Ġli to
Ġli tro
sh ukya
Ġu f
Ġu wis
Ġu gru
Ġwan chus
Ġwan tuq
Ġyachay ku
Ġyachay ninman
Ġallin kuna
Ġallin llam
riy unka
Ã© llar
rqa kuchu
da i
na manta
na dur
Ġrimay pa
Ġrimay piqa
ĠÃ±aw ray
lu mbus
chiy pi
chiy man
chan in
Ġdi e
Ġdi re
Ġchi chi
Ġchi ar
Ġchi kus
Ġchi riq
Ġchi chiku
Ġchi linu
kuq pas
Ġ18 12
Ġ18 11
Ġhu ara
Ġhu mani
Ġhu amÃ¡n
Ġhu Ã¡nuco
Ġwar anta
Ġun o
Ġun msm
Ġpuk llarqan
Ġama m
kunan chu
kunan chis
Ġpar k
kunap uni
Ġhay wari
pe za
pe che
Ġwikipidiya kuna
yta pas
Ġway qi
Ġway nas
Ġway sallpu
Ġway aramirin
Ġkun chuku
ol Ã¡
ut ur
Ġkuti rispa
Ġkuti chirqa
19 4
19 16
19 30
19 36
19 41
Ġhan pi
Ġv ladi
Ġe cheandÃŃa
mar in
mar cos
anku manta
anku kama
Ġwasi y
Ġwasi kunam
Ġwasi kunapas
Ġriku rqanku
Ġriku rqani
kh un
ara k
Ġllaqtap usay
Ġati chkan
Ġre i
Ġre para
chka rqa
chka ptinmi
de d
de ric
Ġra ma
Ġra bona
iti manta
Ġlla war
Ġlla wt
rin qaku
ptin chik
Ġllaqtan pa
min tu
hina taq
Ġo jo
Ġo dre
pampa marka
Ġriman i
Ġriman chik
Ġinti qa
Ġinti llama
qi ris
Ġco lle
Ġco py
Ġco fÃ¡n
Ġco unty
um puy
Ġami go
Ġar thur
uru puna
Ãº menes
Ġumalliq ninta
Ġju chayoq
Ġnin si
san ti
aspa qa
raq si
raq chÃ¡
Ġro b
Ġro que
mama llak
Ġyupay chanapaq
Ġchin an
Ġtar ina
Ġtar ispa
Ġal me
ba k
ba ja
Ġmuna pa
Ġmuna ran
Ġrima risqan
qh ispi
Ġja k
Ġmis sissippi
china kusun
ari rqan
ari Ã±a
Ġqan kunaq
Ġqan kunapura
ĠÃ±awpaq kaq
bo b
bo gotÃ¡
pacha ku
pacha mama
Ġruwa s
Ġruwa kunan
Ġruwa kunqa
Ġsutin kunata
Ġanta rtika
za ga
za ciÃ³n
Ã±u qaqa
Ġriq sis
Ġse mina
ce um
Ġ8 7
Ġ17 90
Ġyuy arispa
se u
se jo
Ġkawsa kuyta
Ġpusaq kunawan
18 1
han chis
qo cha
Ġyala wpi
anakuy ta
unchay taq
unchay ninman
Ġsaq espa
Ġsaq esqa
Ġyaku man
Ġna wat
bli co
Ġ12 1
Ġkawsaq kunapas
Ġkawsaq kunapaq
Ġat hapaska
Ġat lÃ©tico
Ġtuku sqan
Ġtuku rqa
Ġtuku kuynin
su b
su pay
su wit
uni ku
Ġkunan raq
Ġkunan raqmi
Ġpe Ã±a
Ġmusuq llaqta
kaq lla
Ġwat hiya
kus panmi
illay ta
Ġno vi
Ġno vie
Ġuywa kunatapas
ph es
15 5
Ġsuntur qa
Ġawqa kuna
Ġallpa kunata
Ġallpa pura
rus achamanta
Ġkash aychis
12 6
isa ca
Ġchu tu
Ġyachaq pa
Ġmu Ã±a
Ġyana qa
Ġyana cha
Ġ13 8
Ġba ile
Ġba hamakuna
Ġba hia
Ġba hÃŃa
16 3
Ġllan p
Ġllan kanuku
Ġllan ganati
ke j
Ġlaya kuna
Ġkris tuwal
Ġwaq ll
Ġwaq rayuq
14 38
13 3
ancha riq
Ġgu aran
Ġbi yu
Ġqhawa sh
Ġqhawa rqa
Ġqhawa chiy
Ġatin ichu
Ġkas pi
Ġchur kampa
ik su
Ġkamachiy man
Ġkamachiy kunata
Ġ11 00
aska tche
Ġque bec
Ġle che
Ġle gal
Ġcar pin
ĠwiÃ±ay paj
Ġjesus paq
Ġcon ce
Ġcon necticut
Ġtiya kuynin
be yn
Ġrumi kuna
Ġrunap pas
Ġatiy ninpi
Ġ24 5
im ina
Ġmo cha
Ġmo che
Ġmo vimiento
Ġkur kuta
Ġkur unku
kusqa chu
Ġqispi m
Ġqispi chin
Ġtawa manu
ĠhuÃ± ukuy
Ġmin ut
Ġpur um
Ġkaspa pis
Ġcu Ã©llar
Ġlo uisiana
Ġwaqa chi
Ġfa c
uku cha
Ġpas to
kusqan kumanta
Ġpuka ran
Ġkasqa yta
Ġunquy paq
Ġqo llana
Ġme si
Ġnisqan mi
Ġchurin pa
kas kar
Ġchanin kaqta
ĠÃ±awi rina
Ġz ur
Ġz ona
ĠÃ±an mi
Ġnina chasqa
Ġ26 1
Ġwillay kun
Ġnu qaqa
Ġyawar nin
Ġphi lip
Ġpo bla
Ġpo esÃŃa
Ġpo docarpus
Ġ29 0
Ġcor ona
27 5
Ġuni ficado
24 5
so ta
so uth
llata pis
kar pay
Ġdo ctor
Ġdo uglas
ampa tu
Ġllu j
Ġyachan ankupaq
Ġyachan kichu
ent re
Ġmuyu pachaq
Ġche j
Ġpan pacha
den s
den as
cho acÃ¡n
Ġbar rios
tar puy
ĠÃ±o qaykuman
26 4
26 8
Ġapa rqanku
Ġkrus raykuwanpis
Ġindi ana
ĠiÃ±iy niy
apay aqkunapas
Ġyay kuna
Ġyay kunanpaq
Ġmon ta
Ġmon tana
Ġmon talvo
tura hu
Ġand res
qusqu pi
cul tura
sis uyu
Î± Î¸
Ã¤ nu
Ã¤ nun
Ġchaski yta
apa k
Ġpata te
bu riy
qin cha
Ġmunay niyuq
pur un
pur us
Ġmaqanakuy pa
Ġtin kuy
Ġruray kuna
Ġruray kunaqa
ĠØ ¬
ĠØ ¯
Ġhucha pi
Ġchunwa pi
Ġtantanakuy ta
Ġsam inchasqa
Ġriqsi chin
Ġriqsi chirqa
Ġx vii
Ġx xii
Ġindihina kunap
Ð¸ Ñģ
Ġyanapa wasun
Ġyanapa wananchispaq
inti qa
Ġkanan chu
pruwinsya kuna
Ġunu wan
Ġau qa
tad t
Ġphu tu
Ġhur wat
ish kay
Ġwiki liwrukuna
inka wasi
Ġpor tugu
Ġpor venir
Ġqam paq
Ġpuriq llam
ed er
Ġho ward
Ġkaus aynin
Ġab del
Ġab iseo
Ġab unÃ¡
Ġcom pu
Ġcom pos
Ã±o qan
wanqa ku
à¤ ¨
ĠhuÃ±u kunapaq
Ġut recht
Ġestado qa
Ġwawan kunata
Ġsunqu manta
bur gh
Ġparti ci
Ġchallwa mayupi
Ġkamachin an
Ġqun qur
dy s
Ġwakcha kunaman
49 2
suy k
ĠÎ ¶
ĠÎ »
Ġaq ri
Ġon e
Ġon u
Ġon line
Ġdis posi
Ġperu pi
usa h
chaqa llu
ĠÃ±isqa ta
phi rriÃ±aphi
Ġmor o
Ġkallpa chan
Ġkallpa chana
Ġam Ã©
Ġqara manta
48 9
para qas
Ġwik isimitaq
can te
Ġespi rituy
kush ani
Ġllimphiq mi
ven ta
Ġyachaywasi kunan
Ġquri ch
Ġtuta manta
Ġ185 1
Ġchaki ykita
Ġtur ku
puna ta
Ġkamachina ta
Ġlloq sin
Ġlloq sis
mer ce
Ġsimikuna llapim
Ðº Ñģ
Ġhe in
Ġchaskin apaq
ĠiÃ±uku p
ĠØ§ÙĦ Ùħ
ĠpuÃ± ush
Ġwillan aypaq
Ġchak r
Ġsipi sqa
Ġkawa kunapaq
Î» Î¹
kusun ki
Ġ36 2
Ġge orgia
Ġsur ku
Ġsur eÃ±o
ĠwiÃ±a chiy
Ġlin nÃ©
Ġmara kay
Ġtra dis
Ġwatan tin
bra bant
chanta pas
unki ku
col Ã³n
ullu manta
Ġkinray pi
Ġqallariy ninpi
Ġhis uw
Ġqespi chi
Ġwaqlli chirqan
Ã§ on
Ġkawsari rka
ip b
Ġruran anpaq
Ġdu arte
Ġsh uy
Ġmunakuy qa
Ġkinsa kaq
Ġchuk iyapu
Ġrikuspa taq
Ġsonqon pi
Ġsonqon kuwan
Ġmach kha
ard ino
Ġyarqa y
Ġllapallan mi
Ġpuna pi
rumi Ã±awi
titu d
cor dia
Ġraphin kunata
warqan ki
tachu elo
Ġcul tur
Ġpuqu chiq
Ġsuq tantin
Ġtan qana
Ġwill k
Ġanqas qucha
Ã¨ re
Ġsuwa kunkichu
Ġrayku m
Ġhaw kay
ex odus
Ġputu mayo
ipa china
yupay kuna
ab d
Ġsuya kuynin
Ġwaway ki
Ġwaway oq
Ġyapa manta
Ġqhawariy nin
Ġkhi r
Ġqari pas
Ġbas el
Ġwankurisqa m
Ġsil ves
Ġve lla
Ġqhas qun
Ġaj ayu
Ġray kun
cur sos
bia ÅĤ
Ġvalle grande
Ġala b
ĠaÃ±aki kunap
cum Ã¡n
Ġtuma wi
Ġbor deaux
Ġfamili as
Ġmisti kuna
gs berg
edi t
ida ho
Ġet Ã©n
Ġmuchu chisqa
ĠÃ¡ rea
Ġpilikula pi
qullaw pi
Ġmal ta
sk rit
Ġwir p
ÑĤ Ð¾
Ġyachakuq kunapa
Ġuyariy ta
Ġvo lu
Ġmunanku chu
gy hÃ¡za
kuchkan mi
aqway ta
wn s
Ġnan ayta
Ġkasara kuy
Ġmuhu qa
bus na
jam in
tolo gÃŃa
Ġmusph arqan
inde pa
Ġtha t
Ġsayay kuspa
ester pa
Ġhuchan kunamanta
Ġplan ti
Ġpisqa yuq
Ġrakina kurqan
Ġtunkura wra
Ġderechonchis kuna
wasqan rayku
Ġreligi Ã³n
Ġaka tanqa
Ġservicio kunawan
Ġkal syu
Ġji ang
Ġmuksichaq wan
stan dard
Ġvol Ãºmenes
Ġawqanakuy pi
ali anza
kaw pay
Ġrimar in
mad ura
maman pa
Ġphax sin
Ġukyan anpaq
sinchi yasqa
Ġkurur ay
Ġtel ev
Ġcham qa
Ġantawaylla cha
Ġpeter burg
ĠÃ±akÊ¼ ari
Ġministrun in
aÃ±askitu qa
Ġgen us
Ġjac ques
Ġwaqaycha sun
Ġrant ista
Ġseco p
Ġgubir nadur
Ġwiksa chaki
Ġregion ales
ĠchÊ¼ ampay
Ġchhay naqa
Ġpillun kuy
Ġwisa w
Ġisraeli tasqa
Ġsaqi llasqa
Ġpr onied
Ġqoy llur
ĠjallpÊ¼ api
Ġsel va
inter net
Ġsp rin
Ġmisi ones
asaq taq
Ġtsa chila
Ġbearn pi
ah med
ide ae
chacha puyas
Ġafrika pipas
qaya ra
lly wood
Ġrikukuq pi
Ġkayhina ta
Ġsouth ern
Ġmiraynin kunan
than ks
Ġkachkay ninmi
Ġlara w
alis co
Ġqhepata taq
Ġchayamuq tinmi
Ġkhuyapaya kuq
Ġsusyalismu man
Ġmamallak tapi
enda rio
Ġwayu pata
inc lu
Ġeduca tivo
Ġmaymanta chus
Ġmuchus pa
atiy niyoq
Ġmuksichaqta m
Ġocci tan
Ġocci den
mel gar
Ġrub Ã©n
Ġrub ens
Ġulla chiya
Ġllullu chapampa
Ġaway tiya
Ġfl isqa
bern ardo
jil taq
Ġhinaptin si
johan n
Ġrikhur isqa
Ġkomunismo taqmi
Ġtiqsimuyu pi
à± į
ĠpolÃŃ tica
Ġyayan chiq
rurun kunatam
Ġkatal unya
ĠsÃŃn tomas
Ġjor dan
kusikuy niyuqmi
Ġtul kan
Ġribe ralta
Ã©xo do
Ġpied ras
Ġkong reso
michi gan
Ġqhu puyuq
chino psis
lumin ense
Ġfaus tino
ÐºÐ¸ Ð¹
cli f
Ġkol kata
Ġrasu mpa
Ġvall ecas
Ġsindi katu
Ġnove la
pukllay kamachiq
ĠyaÄīha kuq
apulu pampa
Ġiki tus
Ġvul gar
Ġbutan ika
Ġayllus kakuna
Ġpruphis yunmi
Ġbird life
Ġhos pital
Ġav eni
Ġtamp umach
domin go
Ġcoo pera
Ġsikritar yu
impa pura
mathi yu
usill um
Ġtrata miento
Ġanth ony
dire cciÃ³n
Ġmayordo mo
Ġrikurisqa lla
proven ce
ĠlingÃ¼ ÃŃsti
rÃ« kur
Ġutur unku
Ġdif teria
Ġhuaman ga
Ġproj ects
amana ku
sona te
Ġtac na
Ġqullan anchikpa
Ġreuni on
Ġpalabr anta
Ġispirituy taq
kumun ista
Ġchukuy tu
Ġluth er
Ġlicenci ayuq
Ġgerard m
Ġprutist anti
Ġpontifi cia
Ġkamaqillqan ninwan
Ġtea tro
Ġyaws amaq
Ġinas yu
Ġguate mala
Ġdocumenta tion
rent ly
sza wa
Ġwalan asta
Ġchillan es
Ġgera is
Ġsallqan tay
shukya chishka
mamallak tata
Ġalme ida
Ġsemina rio
Ġnovie mbre
askatche wan
beyn ti
Ã¤nun Ã¶
Ġkawsarirka ku
Ġsilves tre
Ġqhupuyuq nin
" ).
) (
) Íĺ
, '
. âĢı
2 10
2 28
2 30
3 25
3 45
4 10
4 60
6 12
8 10
9 80
? Â»
a te
a kurqan
a kuyta
a Ã±as
a bra
a waka
b olognesi
b aque
c ter
c ero
c Ã©s
c uro
c Ã©sar
d run
d dam
e e
e ter
e milia
e vich
e tano
f ue
g ris
g ger
g Ãºn
h pi
h aqta
h Ã©
h oq
i taq
i chin
i min
i pampa
i kuspa
i ba
i va
i ke
i Ã¡s
j ano
j tinku
k ol
k Ã¶
k onz
l aqu
m q
m ulla
m ys
n aqmi
o pa
o ka
o tu
p tun
p lu
p Ã¤
r er
r ÃŃa
s l
s apan
s ze
t say
t Ã©n
t ford
u u
u gu
u al
u pu
u ja
u psi
u puraki
v ill
w us
w en
w riya
w ispa
w aqucha
y p
y de
z en
z Ãº
° ĳ
° æĸ
³ å
µ ·
Â «
Â ·
Ñ ı
Ö ¸
× ª
× Ķ
× ľ
á Ģ
ä »
æ ²
Ġ ulu
Ġ Ð½
Ġ Ã¡r
Ġ à®
Ġ Ùĥ
Ġ ÅĽ
ħ Ð°
ı °
ı å
an si
an xi
ch hay
ta e
ta ciÃ³n
qa taq
qa tilla
qa paka
ll usqa
ay kuq
ay paj
pi ri
pi tam
Ġk ish
Ġk ey
in f
in dus
aq kamataq
ma Ã±a
ma chaqa
is yu
is lu
is takuna
is lay
is ed
is luwakya
pa ray
pa ran
Ġs wa
Ġs hin
Ġs tar
Ġs har
Ġs hak
Ġs Ã³crates
wa chanqa
uy qa
uy oq
mi d
mi ami
mi jÃ³
ri qa
ri chiy
ri chun
ri um
ri kusqa
ti kuna
ti bet
Ġh asta
Ġp le
cha kunawan
ya man
ya mpara
lla ki
lla wanmi
lla Ã±an
Ġka si
Ġka tin
Ġka punku
Ġka pak
Ġka Ã±amu
ku way
ku Ã±a
ku mu
ku tana
Ġwa mpu
Ġwa turi
Ã± uk
ka mana
ka punku
ka murqanku
ka lalit
ka mbuya
Ġa do
Ġa mantan
Ġa taqu
Ġn ol
Ġn asa
Ġr unt
Ġllaqta masi
Ġllaqta huÃ±u
uq yaq
uq sina
uq shapampa
ur duy
uk llan
us ca
us se
qan kunan
ki llapa
Ġm elo
wan anpaq
wan akuna
wan tar
wan aykichispaq
Ġma chi
Ġma ray
Ġma riy
Ġsi da
Ġsi kra
Ġsi wis
Ġsi rinka
Ġnisqa y
Ġnisqa tas
Ġpa u
Ġpa kan
Ġpa pan
Ġpa tata
Ġpa chayuq
Ġpa ine
Ġpa chanta
Ġd ro
Ġd urazno
manta chus
Ġwata chÃ¡
as way
chi ran
chi rka
Ġi p
Ġi ku
Ġi gu
Ġsimi pa
ĠÃ± isqan
Ġhuk pa
Ġhuk man
ar Ã¡
ar qi
Ġri h
Ġri pus
Ġri kunanpaq
Ġri puspa
wi kch
am Ã¡
am ente
li w
li us
li tuwa
Ġsuyu paq
Ġki ma
Ġki la
Ġki yaqa
rqan taq
Ġruna tan
on ey
iq ira
Ġkay kan
Ġkay pacha
Ġkay ninpi
ra ju
yuq ta
Ġmama cha
Ġmama manta
kun gu
kun aykichispaq
tu ku
tu to
tu tawan
tu bre
Ġsu pa
Ġsu pre
si wi
si cum
paq tataq
uma m
uma rka
Ġha la
Ġha ve
Ġ2 14
es es
Ġchay wanqa
Ġchay arqanku
Ġchay paqqa
Ġchay ananpaq
chu pi
chu llunku
Ġpi kuna
Ġpi ne
Ġpi wanpas
Ġpi tachus
Ġpi llapas
Ġpi manchus
Ġpi xar
Ġj n
Ġj amp
chay nin
chay raykun
er do
Ġman ejo
en ne
en qanku
la k
la ti
Ġwi qu
Ġwi kis
Ġwi chqa
qu ÃŃn
qu ote
tin chiq
Ġb es
may pi
may nas
Ġqa q
kunata wanpas
ana caste
ana ike
Ġta ya
Ġta pun
Ġta puq
Ġta tanta
Ġta kisqan
Ġta bla
Ġta cuarembÃ³
kuy chik
kuy tam
Ġc g
Ġc lu
Ġc Ã³n
Ġc Ã¡r
Ġc eli
Ġqillqa kunayuq
Ġqillqa kunapi
Ġqu er
Ġqu ÃŃ
Ġqu chan
Ġy unqa
Ġsuti kunatam
Ġsuti chanku
gu alberto
Ġkarqan Ã±a
ist encia
Ġkan anchik
Ġkan Ã±achu
way ru
Ġ19 2
Ġay o
Ġay ha
Ġas wa
Ġas nu
Ġas uka
Ġas anqaru
Ġsutiyuq ta
yan o
ha b
ha e
Ġan de
Ġan yay
di l
Ġl um
Ġl jubljana
Ġhawa ii
Ġpacha manqa
Ġpacha maman
al ban
al bert
al hirya
Ġti kipaya
el es
Ġkaq tam
Ġpu ch
Ġpu chka
Ġmi ami
Ġmi chel
Ġin latir
Ġin tr
Ġin forma
ci pi
Ġkaws ayuq
Ġkaws arqanku
to k
to ma
to ba
to ria
to citos
Ġpaqa riynin
Ġall Ã¤
Ġcha sh
Ġcha kis
Ġg ay
Ġg oro
ura kuna
ura qay
Ġhatun qucha
chik tapas
Ġsa ca
Ġsa hun
ĠÃ±a kari
Ġmay pis
Ġ3 14
Ġ3 30
Ġ3 29
Ġ3 41
llu p
ĠwaÃ± ura
ro u
isi k
dar anaike
Ġpay kunap
Ġpay kunapaq
Ġpay llapaq
Ġru diyu
Ġis kan
Ġni yku
llaqta qa
sa k
sa ka
sa ki
sa mana
Ġhina llapas
Ġkama kuy
Ġf ÃŃ
Ġf uku
Ġf lam
Ġf Ã©lix
llam pa
Ġsan t
Ġsan tia
Ġqhapaq suyu
Ġli on
Ġli rqay
Ġli verpool
Ġu wi
Ġu tus
Ġwan kar
Ġwan aku
Ġyachay kun
ca ll
ca pa
ca da
do c
Ġallin taqa
Ġallin chanapaq
te gui
Ã© taro
Ġmar as
Ġmar qu
Ġmar kan
da manta
Ġqha tuy
na miwya
lu z
lu wa
chiy mi
chiy wan
Ġdi visor
Ġchi chu
Ġchi lata
Ġ18 18
Ġ18 28
Ġhu m
Ġhu illka
Ġchun wayuq
Ġkastilla p
Ġun d
Ġun anchay
Ġun ucha
Ġyacha kurqan
Ġyacha kurqa
Ġyacha pakuy
Ġla ja
kunan kama
kunan kamapas
Ġhul yu
Ġuy wana
pun chu
pe ka
Ġwilla riy
Ġwilla kunanpaq
ris ta
asqa yki
Ġw es
Ġw oo
ol ulu
Ġwak chay
Ġkuti purqan
Ġkuti murqan
Ġkuti munqa
Ġiskay chunka
19 3
19 10
19 14
19 40
19 32
19 04
19 06
19 51
19 57
Ġ4 000
Ġ4 70
Ġhan ka
Ġpuquy kunata
Ġe j
Ġe ze
Ġe jer
Ġkawsay ninqa
suyu p
tawan qa
anku taq
Ġwasi piqa
Ġriku r
ara j
ara hu
Ġati rqachu
Ġre it
ulla h
kunamanta taq
Ġyura ta
Ġyura manta
Ġyura kunapi
de u
de rick
Ġra kis
Ġchunka ta
Ġchunka chÃ¡
Ġurqu man
le ans
Ġmus qu
Ġmus huk
Ġlla chay
huk kuna
Ġham ps
Ġayllu qa
Ġo bispo
qi l
Ġco li
Ġco sta
Ġhanaq manta
Ġes p
Ġar en
Ġar ca
Ġar qi
uru Ã±a
Ã±i wa
Ãº m
Ġkus kam
Ġtiyan ki
Ġtiyan apaq
Ġtiyan anpaq
wiki rikch
Ġju de
Ġju dio
Ġnin riy
kuspa pas
Ġmit ma
Ġmit maq
Ġro c
Ġro man
Ġro jas
Ġro manos
hin as
Ġal tay
Ġal Ã©r
Ġal hirya
Ġal varez
Ġnisqapi pas
ba ut
Ġmuna kurqan
Ġmuna kuyta
Ġmuna kunchu
Ġmuna rqachu
Ġmuna kusqay
Ġrima tam
niy wan
mun ankupaq
mun dun
Ġpha la
Ġ15 2
Ġ15 42
war t
ĠÃ±awpaq nin
bo la
kunapaq chu
kunapaq taq
Ġruwa ran
Ġsutin taq
ja qay
ja Ã©n
pin g
pin u
Ġtaki rqan
Ġimay n
Ã±u ta
Ã±u ka
Ã±u kaka
Ġse qu
Ġ17 8
Ġ17 85
Ġqulla rrÃŃ
Ġsay ri
Ġsay asqa
ras a
yay kuna
Ġca Ã±
Ġpun kupi
Ġpusaq ninkunaqa
kunaman qa
18 7
18 71
va d
Ġpro verbios
Ġsaq in
Ġsaq ispa
Ġsaq iy
Ġkachkan i
llapi chu
Ġna ci
Ġna bÃ³n
Ġ12 4
Ġ12 8
Ġtari pakuq
Ġtuku kunqachu
ho e
su pi
Ġran qh
Ġkaru man
Ġpachapi Ã±a
Ġqhaway kacha
kichis pi
Ġ14 4
Ġmusuq ya
Ġinka kunaqa
Ġkitilli kuna
Ġ16 8
kunatapas h
tay oq
Ġ10 7
Ġ10 8
Ġuywa kunapi
Ġuq hari
ph e
ph en
ph or
ama taq
Ġallpa qa
Ġkamachi kun
Ġkash pa
12 5
isa ka
Ġnirqan chu
Ġmu chik
Ġmu ga
Ġyana tama
17 0
Ġ13 9
it is
it hiyup
tri dor
xi mo
16 2
16 9
ke ra
Ġph ara
Ġlaya kunatam
Ġ* *
Ġkikin ku
14 4
13 1
chisqan manta
niyki wan
niyki chista
Ġgu angdong
Ġqhawa kun
vin o
Ġper qa
Ġ20 2
ĠwaÃ±u chisqanku
20 6
20 8
ima paqtaq
Ġyan una
Ġkas ka
ik o
Ġkamachiy kunatam
Ġus ha
Ġus ed
Ġle tras
po xtla
Ġcar re
ĠwiÃ±ay ta
ju j
Ġcon tr
Ġkantun pa
kikin pa
be lla
Ġawqaq kunata
ĠÃ±u Ã±
Ġatiy mi
Ġatiy man
Ġ24 9
Ġmo que
Ġmo zar
Ġmo ore
Ġmo desto
Ġqillqay ninmi
Ġen emi
Ġ22 9
Ġcre es
kusqa ykita
Ġ25 2
Ġhampi kuna
Ġtik r
Ġtik ras
Ø§ Ø¨
Ġ23 7
muy la
Ġmin utu
Ġmin kasqa
cas io
cas tle
Ġpur ish
Ġkaspa m
Ġruway qa
Ġruway kunawan
Ġyuyay pi
Ġpisi paq
ko ko
Ġcu ento
Ġlo yo
Ġumalliqnin qa
willka pampa
willka waman
uku chi
Ġpas kasqa
run ku
car l
car ra
Ġpuka ram
jina taq
Ġunquy ninmi
Ġsal qa
Ġsal cedo
Ġqo tucha
aswan ta
he b
vo lu
kas mayu
Ġchanin pi
ge rald
ge orges
Ġz apo
Ġz inc
Ġbo a
Ġruwan i
Ġrepubli kanu
Ġnina kun
Ġnu i
Ġphi lipina
Ġphi ladelphia
Ġkaynin paq
Ġuni dad
Ġ27 1
kar ara
Ġyachan anpaq
gar et
ent uyuq
Ġkacha risqa
Ġkacha rpa
Ġmuyu m
Ġmuyu ta
killa pampa
Ġso u
Ġriqsisqa chu
Ġap uq
Ġpan cho
mis souri
Ġbe en
Ġbe llas
Ġor uro
Ġor leans
Ġqhari wan
Ġqhari manta
Ġbar ri
Ġbar tolo
tar enas
Ġpichqa qucha
Ġmancha chikuy
26 0
26 2
26 5
ika kunata
ika kunaqa
Ġapa kun
Ġda wid
Ġpara is
ĠiÃ±iy kamaqa
Ġyay kuspa
Ġyay anchis
ykichis chu
Ġara pa
les wig
Ã¶ qa
Ġand ino
Ġand rÃ©
Ġimayna tas
Ġkashan ki
cul ar
chinapaq pas
Ġtiyaq lla
uÃ±i china
Ã¤ sh
Ġaswanta raq
yana urqu
Ã¼ bin
partam in
Ġrimanakuy pi
Ġrimanakuy mi
bu tan
Ġyachachiq kunaqa
Ġmaqanakuy mi
Ġmaqanakuy piqa
Ġach kiq
tus uy
Ġkapchiy mi
Ġamarumayu p
eni x
Ġqay llam
Ġyur aqmi
Ġsonqo y
Ġsam wa
urqu kunapi
Ġriqsi y
Ġriqsi chiy
Ġriqsi kuq
Ġkanki chej
Ġx a
Ġpukllaq kuna
Ġrimasqa pas
ÙĬ Ø¯
Ġromanu kunap
Ġpaykuna ka
tro it
Î¿ Îº
musuq llaqta
Ġrus aryu
Ġjo an
Ġjo anne
con sin
Ġpuriy man
Ġunu pi
Ġraphi qa
Ġllaki kuna
aspi cha
muyu riq
Ġkar lus
Ġkulumbya pa
inka wi
Ġqam pas
Ġho uston
Ġkaus anankupaq
Ġab dul
Ġchinka punqa
Ã±o la
Ġpirqa m
à¤ ®
à¤ ¸
Ġut ku
uqu llu
Ġaycha lli
uchu m
Ġchallwa kunata
Ġchallwa kunatam
Ġchallwa wachu
Ġruwasqa chu
Ġpala w
36 5
Ġvilla mil
Ġsar ap
Ġhuch h
Ġlluqsi munqa
paya ku
qha waq
was ka
was panku
nam balle
Ġnas i
Ġnas sau
Ġcam pu
Ġcam bi
Ġcam pus
Ġcam ell
Ġcam eron
uc n
fo lia
Ġqur wara
Ġchaywan si
jes uc
Ġkin ya
cel ejo
Ġtun quri
Ġhuwan pa
ji ra
achi m
achi tuta
imay ay
kam usqa
ninku qa
Ġkunka kunap
Ġnew ton
ĠÃ±oqa man
ĠÃ±oqa rayku
Ġyachachisqan kunataq
para wa
Ġmaki wan
Ġmaki yuq
ĠiÃ± un
ĠiÃ± ukun
can u
Ðµ ÑĢ
Ġmiray ninmanta
Ġher mosa
Ġsaya chi
65 1
Ġiman am
Ġpaka llapi
__ _
Ġtur ay
Ġ35 9
tre al
Ġkawsaykuq kunap
Ġkamachina kuna
Ġwapsi wan
Ġwapsi kunam
Ġrakin qa
Ġaws tral
Ġaws triya
áĥ Ķ
Ġyanap ayuq
Ø¨ ÙĬ
Ġkaran ku
Ġasi a
Ġasi y
ĠwillaÃ±iqi qa
ĠÃ±uqa m
ĠÃ±uqa wan
Ġchaskin ancha
Ġkristiyanu kunapaq
puq una
ĠØ§ÙĦ Ø¹
inqa ku
zi mi
zi ano
chawpi pacha
Åį to
Ġth apay
Ġsipi na
saq manakuy
ĠwaÃ±un mi
Î» Îµ
Ġmill ones
Ġpat mama
Ġpat sach
Ġpre cis
wik sa
usi yanya
chen ko
Ġthu mana
kuptin pas
ĠÃ±awin chay
shi re
Ïĥ Î±
Ġpunchaw kuna
wara wi
Ġhar d
Ġqe chu
Ġprofe tiz
Ġmira chispa
chinchik mi
Ġnuna kunata
Ġpaq pa
Ġquta wasi
Ġharawi ta
Ġpla ton
Ġban da
Ġban daranaike
Ġyupa ma
Ġmunasqa y
ĠbolÃŃvar mantam
Ġurma rqan
Ġurma muq
Ġurma chiyta
Äģ l
Ġcan as
Ġcan yon
Ġcan seco
Ġispi ritun
Ġispi ritup
gio vanni
Ġpachamama man
Ġsonqon ku
Ġilanda pa
Ġver de
espa Ã±ol
Ġyarqa chikurqan
Ġachkiy pa
Ġmanchari kurqanku
iqtay ninchik
Ġwit khu
charqan i
kichik chu
Ġphuyu tar
Ġsunqun pi
Ġraphin tinqa
Ġlar q
Ġrikhurin man
llamanta taq
sir ya
ush qa
Ġayll ukunaq
puri kuq
Ġqankuna rayku
ĠØ¹ ÙĦ
Ġtan kayllu
Î· Î½
masin chis
ex up
Ġkaqwan taq
Ġgran d
Ġmuch usqa
Ġatiq chu
Ġatiq tin
ĠÃ±awpaqta raq
Ġpuy s
Ġwal t
Ġwal ter
Ġmikhu chin
Ġå ®
Ġins ec
Ġsunquy ta
alli ykuq
uju paq
Ġros ales
Ġnuqa pas
Ġdes ensi
Ġtarin apaq
op ol
ĠÐ ´
Ġqasi lla
Ġempres aq
Ġempres aqa
ev es
Éµ yuq
Ġqus anwan
Ġmag yar
Ġkanada pi
Ġkha tata
Ġchill kin
Ġmacha chi
Ġmacha lilla
Ġben di
Ġrimaykunapi Ã±am
Ġnapay kamuy
Ġfor ma
ulo use
Ġcristi Ã¤nu
Ġruntu ma
rurasqan pa
cur so
Ġchaykuna tan
Ġllik lla
Ġbarcelona pi
we ll
Ġcl yde
Ġkhuyapay ayku
edi ciones
Ġliber ta
Ġet c
Ġchh aq
Ġayqi rqan
tem berg
pre si
ĠÃ¡ tha
Ġchall wata
bay op
Ġbri an
Ġhuchalli kuq
Ġapayka chanam
ves ti
kuchun chu
chupa llas
Ġvene to
Ġchala lan
vie w
Ġac cra
ĠÃ±in ku
Ġbon n
llalla wa
kami run
uÃ±a kuna
Ġkachay kuna
Ġdon ald
Ġyachaqa rqan
ikllu riy
tho fa
Ġhill urina
chiki tus
Ġtha Ã±i
Ġjis usta
Ġkawsasqan pi
Ġoli veira
Ġkutin chiq
à¥ ĩ
Ġisi doro
walla kuna
Ġkir kisuyu
Ġsis ayuq
Ġplan e
Ġbos que
Ġyuyari kunayki
Ġuyaris panku
Ġcomunidad es
chur ÃŃy
qar anqa
vÃŃ tico
Ġé ĩ
Ġpalla sqan
Ġsatan as
Ġvol can
Ġllakta kunapi
Ġrimar ispa
Ùĥ Ø±ÙĬ
Ġchus ku
Ġtiy aynin
ambi ente
Ġtex koko
Ġste wart
Ġcont ray
Ġruraykamay kuna
Ġgen Ã¨ve
Ġyachasqan ku
Ġphista kunku
Ã¢ nia
Ġpukllana manta
Ġkata lan
Ġdar win
Ġdimuk rata
maki dunya
ĠÃ±ut qu
Ġteqsi muyuntin
pÃº blico
hata riy
Ġonqoy niyoq
Ġsuwidsuyu pa
Ġinfec ciones
unchawnin kunapaq
Ø§ÙĨ ÙĬ
Ð³ Ð¾ÑĢ
Ġdor is
Ġiqi p
Ġbro wn
Ġhudyu kunap
Ġluz mila
suma lya
ye vich
asun ciÃ³n
asun syun
llanqa taq
chacha kuma
Ġtaripan apaq
ipay anku
Ġraqay kuna
ĠjehovÃ¤ qa
fal en
olÃ³gi ca
Ġguill Ã©n
nar nia
nar ciso
inneq pi
Ġphis kuna
ĠÑģ Ð°
Ġsip uru
Ġyakuy wa
Ġrikus panku
uras nu
ptiyki qa
pawqar tampu
Ġlatina pi
Ġpalab ranpi
Ġanda marca
Ġsaywan pi
johan nes
Ġniko midya
Ġteo doro
jeho va
jeho vÃ¡
Ġkamaqill qa
wor th
Ġkla wil
cate cas
rena baque
west falen
Ġqor pacha
Ġatisqa chu
augus to
cristi Ã¤nunÃ¶
Ġmaru cha
Ġsaqa pampa
Ġcarcel man
Ġkuyuchin ayuq
Ġidio ma
Ġyagua chi
Ġpied ra
Ġtama rugal
Ġsamar in
Ġlie chtenstein
ĠĠĠĠĠĠĠĠ ĠĠĠĠĠĠĠĠ
ÃŃni ve
Ġwhi t
Ġllalla wa
Ġofi cin
Ġofi cina
Ġlocal ised
hol stein
Ġrou ge
gusta vo
Ġcaperna Ãºm
vene zia
Ġqat ispa
Ġqillqakamayuq nin
Ġmashi kuna
Ġautori dad
Ġhitler pa
Ġullun ta
Ġvac una
Ġdumin gu
Ġeugen io
åľ °æĸ
Ġpav Ã³n
Ġmikhurqan chu
ĠatlÃ¡n tico
Ġirram inta
Ġmagal y
Ġladon pi
Ġphaw rika
ecu arunari
rÃ©n Ã©
ìĸ ´
sham ayka
Ġuhu pi
Ġecon Ã³
Ġalcal Ã¡
Ġgali cia
Ġscho ol
Ġub inas
Ġdom enico
Ġistan bul
Ġchayawi ta
Ġsadu ceo
Ġkuntista rqa
Ġeng lish
Ġortho do
Ġtet Ã£
Ø²ÙĬ Ø²
Ġconstitu cional
kja vÃŃk
Ġrino virus
Ġchulu mani
Ġiuli us
Ġarauc anÃŃa
Ġextension s
guni llas
ĠmÃ¡n cora
Ġqillqamay t
Ġwaynas ipas
Ġbiyu biyu
Ġcompos tela
clif fe
Ġcoopera ciÃ³n
fue gos
Ġpixar wan
ĠcÃ³n dor
Ġreit her
ithiyup ya
Ġloyo la
Ã¼bin gen
exup Ã©ry
Ġdesensi bi
åľ°æĸ ¹
- -
0 20
2 18
2 12
3 19
3 10
3 36
4 39
6 44
8 50
8 85
9 50
a gu
a way
a tun
a llay
a Ã±ay
a th
a gus
a zi
a ix
a talaya
a chisunchik
b uru
b las
c risto
d res
d gos
d Ã´
e ga
e ger
e ast
e phes
f s
f le
f indi
g no
h pa
h ra
h tu
h isto
i Ã±
i ca
i um
i chanapaq
i wicha
i xiamas
j kunaqa
j and
k or
k has
k Ãº
l Äħ
m l
m Ã¼nchen
n ay
n ut
n isqan
o yu
o ole
o gle
p r
p pi
p lo
p olÃŃ
q pi
q nin
r q
r ho
r Ã³mulo
s Ã¡
s ura
s port
t p
t Ãº
t uspa
t anakuy
t isa
t land
t mund
u h
u pas
u er
u di
u chus
u vre
v u
w chi
w uliwiya
x ta
y uk
y ia
y elpa
z er
z za
z cz
¥ ¿
¦ º
¶ Ķ
¹ ³
¼ Ģì
Ã ¹
Æ °
Ç Ĵ
Ç Ķ
Î ²
Î ¶
Ð ¿
Ø «
Ú ©
à ´
á ĭ
â ²
æ ³
æ Ŀ
è ĩ
é Ļ
ì ¼Ģì
Ġ Ã§
Ġ à°
Ħ ìĸ´
Ī Ĵ
an j
an des
an tinpi
an cay
an Ã§on
an jiltaq
qa yan
ll s
un qan
un ankupaq
un qusqa
ay as
ay ha
pi c
pi li
pi yuqkunapaq
Ġk war
Ġk wintu
Ġk ukay
in fo
in kisqan
in ville
aq ri
aq man
ma e
ma uk
ma chay
ma china
ma mpis
ma teu
ma lasya
is lam
is lao
is kultur
pa li
Ġs hallka
Ġs pÃŃ
kuna ri
kuna paj
uy un
uy aq
mi ya
mi ran
mi chel
ri an
ri ki
ri llu
ri rqa
ri kunku
Ġll o
ti ma
ti yana
ti das
Ġh uy
Ġh ura
Ġh illi
Ġp m
Ġp anqa
Ġp lay
cha kana
ya l
ya ru
ya ra
ya cÃ¡
man ga
Ġka a
Ġka ku
Ġka wri
Ġka llantaqmi
Ġka Ã±apa
ku ka
ku llu
Ġwa p
Ġwa la
Ġwa kipi
Ġwa llata
Ġwa chanqa
ka us
ka sti
ka rqa
ka ptin
ka tuliku
Ġq orqa
Ġ( âĨĴ
Ġa i
Ġa x
Ġa ku
Ġa kwa
Ġa ja
Ġa lumin
Ġn aq
Ġr uy
Ġr oq
Ġllaqta kunapaq
uq yan
Ġch aqu
Ġch har
ur uru
uk is
uk uni
us iya
qan pi
ki la
Ġm oqo
Ġm Äĵ
wan kichu
Ġma d
Ġma w
Ġma te
Ġma chuy
Ġma Ã±as
Ġsi kin
Ġsi pasqa
Ġsi mis
Ġsi dÃ³n
Ġsi kuwani
Ġpa ch
Ġpa taq
Ġpa chay
Ġpa ci
Ġpa pay
Ġpa sh
Ġpa takuna
Ġpa upa
Ġpa lumani
Ġpa gador
Ġpa lestina
ap olis
Ġd ay
Ġd um
Ġd ales
Ġd Ã¼sseldorf
as pim
as iri
anqa kunatam
chi kunata
chi mu
chi kunanpaq
Ġt uylla
Ġt run
Ġt ony
Ġi tza
Ġi tier
Ġsimi chu
ĠÃ± asa
Ġhuk pas
Ġhuk kunawan
ar l
ar chi
ar lem
nin chiq
nin kunapas
Ġri ca
Ġri ga
Ġri maqta
Ġri puq
wi i
wi llaq
am po
am urqan
am Ã©rica
li tsa
li guria
Ġki el
Ġki run
Ġki tupi
Ġki char
Ġruna chÃ¡
Ġruna cham
iq chi
Ġkay lla
Ġkay kunam
Ġkay pachapi
ra d
ra mi
ra de
ra pata
sqa pas
sqa Ã±am
Ġmama qa
pas i
pas yun
pas yunkuna
Ġya man
Ġya paq
tu wan
tu marka
Ġqh incha
Ġsu waq
si pas
si muyu
Ġllaqtapi wan
ina wan
uma suyu
Ġha b
Ġha ji
Ġ2 12
ill y
ill pa
ill tu
es p
es tu
es tro
es meraldas
Ġchay kunaman
Ġchay nam
Ġchay paqmi
Ġchay kamaqa
yu mbay
chu as
Ġpi Ã±as
Ġpi tapis
co re
Ġj ayu
Ġj aqi
chay ka
chay chu
er is
er rez
Ġman araj
en tal
la mas
Ġwi charqan
qu pa
qu us
qu ina
tin u
tin llapaqa
Ġb ing
Ġb oni
Ġb ukuresti
may pichus
Ġqa s
Ġqa par
Ġwatapi n
Ġwatapi chÃ¡
os ur
os hi
ana kunata
ana china
Ġta ray
Ġta riyta
Ġqill ay
kuy pas
Ġc res
Ġc Ã³rdo
Ġqillqa murqan
Ġqu lli
Ġqu Ã±i
Ġqu mu
Ġy urin
Ġsuti kun
Ġsuti mpi
kay taq
kay na
kay lluma
Ġkan anchikpaq
Ġkan sai
Ġas qupi
puy chis
ha ba
Ġmana chayri
chasqa s
Ġan chu
Ġan tawan
Ġan nu
Ġan tes
Ġan chhu
Ġuma ta
di go
di bu
Ã±a Ã±a
Ġl Ã¼
Ġpacha kuna
Ġpacha tapas
al kul
mon paq
Ġicha pis
Ġti ro
Ġti gri
Ġti gre
Ġkaq si
Ġkaq kunapaq
Ġkaq kunataqa
Ġkaq tataq
Ġpu b
Ġpu ca
Ġpu waq
Ġpu chq
Ġmi llu
Ġmi llwa
Ġrunakuna manmi
Ġkaws aqta
Ġkaws aptin
to grafÃŃa
Ã¡ g
ni gsberg
kch us
kch Ã¡
Ġcha u
Ġcha ra
Ġcha upi
Ġcha rasani
tigu riyan
Ġg lu
Ġg Ã¼
Ġg old
kan an
kan kaw
inki kunap
Ġhatun ya
Ġsa j
Ġsa ruma
Ġsa kisili
lin o
ĠÃ±a kay
Ġmay ch
Ġmay pacha
Ġmay ninpi
Ġ_ ________
Ġ3 10
Ġ3 16
Ġ3 000
Ġ3 25
Ġ3 23
Ġ3 45
Ġ3 48
Ġ3 90
llu m
llu mp
llan wan
llan kanuku
ĠwaÃ± us
ĠwaÃ± unku
runa llaqta
ro c
Ġrur ar
Ġrur arqanku
Ġima kunapas
Ġru ku
Ġis o
Ġis musqa
sqan manta
spa m
Ġni l
Ġni ch
Ġni yuq
Ġni wanku
Ġni pal
Ġni wanki
sa tan
sa waya
sa tipu
Ġ" )
kunaqa mi
re vi
re vista
Ġkama cherqa
uti llu
Ġf is
Ġf as
Ġf unda
Ġsan oya
Ġqhapaq pas
Ġqucha qa
Ġqucha piqa
Ġqucha manmi
vi cen
vi cente
Ġli mpi
Ġli ttle
Ġu to
Ġu lli
Ġu ficial
Ġwan acha
Ġwan wara
Ġwan killi
unchaw taqa
unchaw ninkuna
Ġyachay taqa
Ġyachay mantapas
ca o
ca u
ca lla
ca ciones
ca bana
ca tÃ¡n
chin ka
chin ayuq
Ġallin qa
Ġallin chasqa
Ġallin chan
Ã³ rico
te mp
pan ti
pan pas
pan apaq
mpa ta
Ã© lica
da wan
tan u
tan pi
tan ya
na h
na val
Ġrimay an
Ġrimay pipas
lu hiya
chiy paq
chiy chis
chan kichu
Ġdi li
Ġdi rich
Ġdi vor
Ġdi partamin
Ġchi p
Ġchi run
uli a
Ġ18 01
Ġ18 08
Ġhu as
Ġ5 20
Ġchun chi
Ġtu tu
Ġtu pay
Ġtu cu
Ġwar szawa
Ġun siya
Ġyacha pa
Ġyacha ku
Ġyacha sunchik
Ġyacha chisqanku
01 0
chaq i
maq ni
Ġama ku
Ġpar ya
Ġpar Ã¡
Ġpar ispi
Ġtukuy paq
Ġmayu ta
Ġmayu pas
Ġmayu pura
mana wi
Ġpuq unku
Ġlli killi
yki chu
Ġkatiguriya kunaqa
Ġway n
Ġwilla ri
Ġwilla kunaqa
Ġwilla sh
Ġwilla wanchik
Ġw en
Ġw ist
Ġw or
Ġw ol
Ġraymi chakun
Ġhin apunin
ol encia
Ġkuti chiku
Ġkuti payaq
Ġiskay lla
Ġiskay manta
Ġiskay ray
19 38
19 34
19 37
19 56
19 72
Ġyu mana
Ġyu qalla
Ġ4 40
Ġ4 60
chus un
Ġv ille
Ġe in
Ġe mil
Ġe ric
Ġe mpal
go as
Ġkawsay pas
anku pi
anku cha
Ġpus anapaq
Ġriku chikun
mp ya
oq mi
Ġllaqtap nmi
Ġati rqankuchu
Ġre d
Ġre ina
Ġre gal
Ġre forma
chka rqan
Ġqillqakuna paq
kunamanta q
de ga
all os
Ġurqu mayu
le t
Ġmus pay
Ġmus huq
Ġlla h
Ġlla wi
Ġlla Ã±u
Ġlla hta
ptin Ã±a
niyuq ta
Ġayllu kunaman
chun i
hina ta
Ġo mir
Ġo tto
Ġco c
Ġco re
Ġco stu
Ġes tridor
Ġwarmi kunamanta
lan u
Ġar tis
Ġar ms
ĠÂ °
Ġkus ata
ayki man
ayki manta
Ġju chan
Ġnin aq
Ġnin rin
Ġnin antan
lo a
lo ven
kuspa m
raq taq
Ġro o
Ġyupay nin
Ġyupay chaspa
Ġchin kanqa
Ġchin chanpi
Ġtar aputu
tapas h
Ġal va
Ġal bert
Ġal ergias
Ġal cides
sin chik
sin gapur
Ġrima spaqa
Ġja cha
Ġja huira
Ġmikh urqanku
niy pa
niy kunata
sun chu
mun anta
Ġlliw mi
Ġ15 6
Ġ15 21
Ġ15 41
Ġ15 99
Ġ15 53
Ġ7 30
kis war
kis kachay
ant h
Ġqan ra
Ġruwa kunman
ja ta
ja da
ja ime
Ġ9 39
Ġvi ejo
Ġanta ra
Ġanta killa
za za
Ġimay oq
Ã±u Ã±u
ga wa
ga briel
Ġ17 70
Ġ17 55
Ġ17 93
se f
se villa
Ġsay t
Ġsay lla
Ġsay aspa
che qa
che rqanku
Ġca chi
Ġca esar
Ġca talina
Ġca margo
Ġku chi
Ġku kata
Ġku cz
Ġku kuchi
Ġku banu
Ġpun ki
Ġpun kunta
Ġpusaq ninpas
18 2
18 41
18 92
han kichis
qo rqan
Ġpro ven
bi ta
bi lla
Ġaya pata
Ġsaq ir
uya ku
10 4
10 5
llapi pas
Ġna ciones
Ġqillqaq pa
Ġ12 2
Ġtari paspa
Ġat lanta
Ġtuku chispa
Ġtuku chirqan
Ġtuku kapunqa
ho ra
simi ta
Ġtayta llay
Ġtayta mama
mo xos
mo sillo
Ġ14 3
Ġ14 00
Ġkunan kamaqa
Ġpe rio
Ġpe tr
Ġpe Ã±ar
Ġrimaq qa
Ġrimaq kunaqa
Ġinka qa
Ġinka Ã±an
Ġkasqan tapas
ir uyuq
Ġchuq ui
qucha p
Ġsuy tiyuq
Ġ16 6
kus isqan
Ġchan pi
riq tin
Ġno e
Ġuywa qa
Ġallpa mayu
Ġkamachi kunata
12 7
mu Ã±
mu Ã±a
mu chun
Ġnirqan mi
Ġlu go
Ġlu zu
Ġlu mpaki
Ġmu llu
Ġkall panakuy
Ġyana paspa
it os
cen s
Ġba la
Ġba huaja
pus hak
mus qanta
qhi panpiqa
xi h
16 4
Ġchani yuqmi
th eo
Ġwaq manta
Ġwaq rayuqmi
Ġsapa llu
Ġkikin mi
par d
par ma
14 0
14 1
14 2
Ġhun tasqa
chisqan chik
ancha ri
Ġkanku chu
Ġgu ar
Ġgu il
Ġgu ev
Ġper nam
ĠwaÃ±u chis
ima paq
ria ga
Ġkamachiy manta
chana ta
po la
ucha ta
Ġrun ayuqmi
Ġqull paqucha
Ġcar lo
Ġcar rasco
âĢİ )
Ġuru pisa
ver gla
ju pi
Ġcon ven
Ġtiya koj
Ġmaq china
pam pas
Ġawqaq ninkuna
Ġrumi wan
Ġrumi yuq
Ġatiy manchu
cu gna
Ġllapan tiyki
Ġ24 1
Ġ24 2
Ġmo on
Ġkur wa
no m
no ord
Ġen er
Ġen rÃŃquez
Ġ22 7
Ġ22 8
Ġqispi lla
Ġqispi chiqkuna
Ġ25 5
Ġsimin chikta
Ø§ Ø³
Ø§ Ùģ
Ø§ ØŃ
anchik raqmi
Ġ23 6
ĠhuÃ± uspa
ati pa
Ġqatiq piqa
ita ine
Ġpuchuk ayninmi
ÃŃn g
ÃŃn sula
Ġruway tapas
Ġyuyay chakuq
amp uma
amp ton
ko v
ko rianu
Ġ30 8
Ġ30 9
Ġcu ar
Ġcu vier
Ġcu enta
Ġcu entos
Ġ28 5
Ġ28 9
pura manta
Ġcas cales
Ġcas telo
Ġransiya p
Ġpas taza
car ÃŃas
ena z
Ġunquy pa
Ġunquy ninkunamanta
mpi ra
Ġsal e
Ġqo chata
Ġrap hran
Ġme d
Ġme mo
Ġme xi
Ġme dio
Ġje fe
Ġje ric
Ġchurin pas
aswan pas
zo la
vo la
kas ma
Ġnis panmi
ĠÃ±awi kuna
Ġz ui
Ġaranway kuna
Ġbo y
Ġruwan qaku
ĠÃ±an pa
ĠÃ±an sa
ata kama
Ġyachachiy manta
Ġyawar pi
28 0
Ġpo z
Ġpo emas
Ġ29 9
Ġcor rientes
27 0
Ġllaqtamanta taq
Ġrepublika pas
unchawpi taq
24 0
24 1
50 8
Ġto urs
Ġbu ck
kar l
kar tul
kar tulsuyu
chuq us
Ġyachan kuchu
gar d
gar ay
ino tega
Ġchawpi pacha
Ġkacha riy
Ġbrasil niyuq
Ġso f
Ġfran co
Ġfran sya
Ġfran Ã§a
Ġbe ograd
Ġwaqay chaq
Ġwaqay pampa
Ġwaqay chanam
Ġbar ra
... "
Ġpaqari murqan
Ġqullqi cha
Ġqullqi chay
Ġtanta y
Ġmikhun ankupaq
win chu
Ġapa musqan
Ġda e
Ġda ule
Ġahina ta
Ġpara tiya
Ġyuraq chamanta
Ġalli puna
nu vola
Ġwaki tam
29 9
ĠiÃ±iy mi
ĠiÃ±iy piqa
ykichis manta
Ġte mb
Ġrik si
Ġmon ter
ariy mi
chuy oq
Ã¶ n
Ġpedro taq
tor res
Ġpachak nin
Ġkusi yta
Ġkusi kuspa
Ġkashan kichis
apa chanapaq
Ġpata ra
Ġrimanakuy paq
qin g
mpu pata
Ġmaqanakuy paq
Ġwaw q
Ġruray chaqa
Ġach anqa
Ġpuri chiq
Ġhucha kunata
Ġhucha chanqa
Ġpapa kunata
eni um
ham ut
ĠwaÃ±uy ninkama
Ġsam bya
Ġriqsi kun
Ġriqsi rqa
tari pakuq
Ġx viii
Ġpaykuna lla
Ġwayra qa
Ġwayra wan
Ġmikhuna kuna
Î¿ Î¼
Î¿ ÏĨ
Ġyanapa kuyta
inti yuq
Ġkanan kama
kuwan ki
con osur
llin g
Ġqillqan wan
Ġqillqan apaq
Ġqillqan anchikmi
Ð° ÑĢ
aspi manta
ak nalla
kur yu
Ġkar dinal
Ġkurku manta
Ġkulumbya p
Ġrey nin
Ġpor tal
Ġpor qui
Ġqam kunamanta
Ġqam kunawan
Ġqam rÃŃ
Ġpuriq llay
Ġkallpan chanapaq
Ġho llywood
38 9
for t
et ta
Ġcom uni
Ġhi p
yaku ri
yaku chaq
risqan ta
Ġpirqa ta
kamay a
kaws aqkunap
ĠhuÃ±u qa
qui el
Ġaycha p
Ġsunqu man
uchu muyla
ĠâĢĺ Â¡
Ġkasha jtin
Ġkamay nin
oni mi
39 5
Ġfi lip
Ġruwasqa Ã±a
Ġinter wiki
Ġuku pasyun
Ġchayam usqan
Ġwis inam
Ġvilla zÃ³n
Ġvilla montes
ĠhuÃ±una kuspa
Ġwamani piqa
tsi kta
ash ville
Ġsar ayaku
Ġlluqsi rqa
Ġlluqsi murqan
Ġxi ao
Ġwillakuy tan
Ġwati qay
Ġsutichasqa m
Ġllaqtaman pas
Ġruwasqan kumanta
Ġcam ino
pha la
fo lium
ĠÎ ¬
je ria
Ġaq us
Ġon tario
kunas ta
Ġkunti man
Ġfe de
Ġfe bus
Ġtor no
gan te
ĠÃ±isqa p
ji to
phi ya
rina tu
achi lle
Ïģ Ïħ
Ïģ Î¿ÏĤ
imay mana
Ġapay kuspa
Ġmor elos
ten ance
Ġyachachisqan ta
Ġqui roga
Ġmunici pal
aw ki
aw chi
ĠiÃ± inku
Ðµ Ð½
kush qa
Ġmiray kuna
Ġmiray kuy
Ġllimphiq ninkuna
Ġnisqap ta
Ġunq unapaq
ĠispaÃ±ul kunaqa
Ġquri kancha
aytu manta
Ġtuta llamanta
ipi na
09 3
val do
Ġiman kunamanta
Ġtur ri
Ġtur ismo
Ġ35 6
Ġchim pay
Ġnihun pi
Ġwapsi ta
Ġrakin kunataqa
yn ski
kawsay qa
warmi p
Ġrura kun
wanka pampa
Ġyanap anqa
Ġkaran ka
Ġkaran ki
Ġkaran llapa
van co
Ġasi kun
Ġyachachi kuynin
Ġpartidu manta
Ġchaskin an
Ġchaskin chik
ĠØ§ÙĦ ÙĪ
har to
Ġpal anta
Ġchiqan ta
Ġwillan ku
Åį saka
Ð½ Ð°
Ġsipi q
Ġsipi rqanku
Ġhamun ki
ĠwaÃ±un ay
Ġshimi kuna
Ġshimi chaw
Î» Î±
Î» Î®
Ġmill aymi
Ġ36 1
Ġ36 3
Ġaugus ta
Ġpre cur
gro Ã±o
Ġespa Ã±ola
Ġisa ÃŃas
ĠÃ±awin ta
ĠÃ±awin cha
ĠÃ±awin anpaq
Ã©r Ã©
Ġhar vard
Ġhar rison
Ġcal endario
brasil pi
Ġprofe cia
Ġchaka ta
Ġko rianu
Ġchik yan
Ġwayllukuq mi
Ġnuna t
Ġmusi kuy
Ġquta pata
chirqa ku
Ġrimasqan kuta
Ġriqsin chikchu
cre ate
Ġwarma llaraq
Ġtullu wan
Äģ ng
Ġmunakuy niyuq
Ġgra duyuq
Ġatuq rimachi
Ġniq ta
Ġniq pi
Ġniq llapa
anchar nin
Ġpisilla chin
Ġpachamama wan
Ġmicha m
Ġsonqon man
Ġsonqon kupi
Ġlor en
aka sqa
ren ce
à¸ §
à¸ ±
Ġraw ran
Ġqhawan ki
olog y
Ġreq sis
Ġnoqa wan
Ġtri b
Ġkiki llantaq
Ġsunqun kuwan
Ġlar un
Ġcol ca
Ġpukara pi
masi kunapaq
mos ca
ami rikanu
Ġparawayi pi
gon kin
Ġpru tina
Ġå ĮĹ
Ġyayku rqan
Ġyayku rqa
aykichis mi
dus isqa
Ġros s
Ġros as
Ġmitru manta
Ġkallpacha kuy
Ġchhika qa
Ġtarin anpaq
Ġtarin ankupaq
Ġqutu manta
Ġchuku lati
Ġyanapan apaq
op old
Ġmamay kita
Ġsik wanka
Ġkitu kara
Ġwayta pallana
Ġjucha chasqa
ep han
Ġkill ayuq
lata yuqkunapaq
Ġbern ar
allqa mayu
Ġrikcha rimuy
Ġkhi ki
Ġpuru wa
Ġmina qa
Ġbas e
Ġbas ili
Ġbas tidas
muna sqa
Ġsil q
Ġbra ga
Ġben fica
Ġlloqsi muy
Ġderechon chikpipas
Ġfor mosa
Ġkawallu ta
Ġagu irre
Ġkamari rqanku
Ġruntu kunatam
Ġishkay niyoq
ĠmÃ© dico
Ġrikuchi rin
Ġwallpa riq
Ġbor go
chinki man
qull usqa
Ġnikarawa p
Ġeste ban
Ġmisti kunapaq
Ġkhuyapay asqan
Ġkicha rin
bibli oteca
Ġtuna s
oso fÃŃa
hama chi
runasimi ta
Ġoc tubre
Ġprofeta kunaq
unta ins
Ġchh uq
Ġallqu wan
Ġallqu chay
tem isa
Ġestu dio
jtin taj
Ġkut isqa
Ġkut ispi
Ġpen h
Ġinternet pi
nor man
Ġuyariq tin
Ġfariseo kuna
Ġfariseo kunaq
mil ton
Ġwacha kurqan
Ġapan apaq
ĠayÃ±i yuq
Ġsacerdo tes
Ġuyariy tawan
Ġwil son
Ġqhapaqsuy unqa
Ġqhapaqsuy unta
yura kuna
yura kunaqa
Ġmaqa yta
Ġqhaliya chisqa
Ġispiritu qa
Ġapam uspa
Ġqiris ankuna
Ġrich mond
Ġkatari p
Ġyupaychan ankupaq
Ġkhillay manta
Î³ Î³
sara kuru
tter dam
Ġyam inawa
Ġatiynin wanmi
Ġim perial
Ġtika kunata
Ġyanapakuy kunamanta
ÏĢ Î¿Î»Î¹ÏĦ
Ġkachay kunku
Ġpaqarirqan i
Ġsati liti
Ġmusph ana
Ð´ Ð¸Ð¼
Ġhill p
Ġjis q
Ġquwi p
ĠtsÃ« mi
ĠtsÃ« nÃ¶
Ġare llano
Ġllamkay kunata
Ġtuktu chayuq
sispa qa
Ġkashaqtin qa
ÅĤ aw
Ġthas n
rish pa
Ġrak ispa
ĠÃ±uqayku pas
Ġruqyay ta
Ġvirus manta
Ġwate qasqa
Ġaka kllu
ĠÃ±i kun
Ġuyay chasqa
Ġkal ba
Ġrespe tasqa
Ġpalla spa
kusaq ku
ali dad
Ġdisi mri
Ġyuyayku sqan
Ġcaball o
Ġnacion kuna
Ġlado man
Ø§Ø ¬
Ġyanapana kuspa
sur q
Ġguti errez
Ġste ven
kamus han
Ġtiyana hamp
Ġcham ber
Ġministrun mi
Ġwayllay ta
ĠwaÃ±uchin ankupaq
Ġinstitu cion
lara ciÃ³n
Ġqatiy kuy
nico las
Ġtupuy pi
waranqa ysu
ĠØ§ÙĦØ ¬
ikran aykipaq
ikran anchikraqmi
Ġhuchha manta
Ġindepen diente
zan ne
Ġqil qasqa
Ġcen ter
Ġchuqu isaca
lta ya
Ġpura pi
Ġllaqtacha kunapi
Ġlista p
Ġinf ante
Ġtuktun naq
Ġsamin chasqan
Ġmain tenance
Ġbro ok
Ġllamka rqa
Ġglo ria
Ġhudyu kunata
Ġnesqa manta
Ġhoqa rispa
Ġbis unti
Ġchaqn ayuq
stu b
Ġtusuq mi
Ġasinda du
ili laya
Ġken ne
wal t
Ġmuju taq
Ġsimon pa
ispaÃ±ul kunaqa
Ġcopa cabana
Ġqhelqasqa pi
Ġkati dral
Ġapaq kuna
Ġcuerpon ta
Ġjacob pa
Ġqiq llam
Ġimp renta
Ġpresi Ã³n
than u
mati cas
Ġllall inakuy
ameri can
kutu paksi
Ġgro ningen
vir ginia
Ġkusisami yoq
phaq si
Ġbac teria
Ġchayamuq tin
Ġtakya chisqa
isqu kuna
Ġphis kuspa
Ð¸Ñ ħÐ°
Ġupyan am
rac usa
alta ciÃ³n
Ġmiy il
hinaspa taq
Ġapulli kuna
Ġrapra kunayuq
Ġxxi ii
Ġhurquy ta
áº ¹
Ġmark Ã¤
Ġchinkan anpaq
ĠkÃ¶ nigsberg
Ġmanapuni m
Ġvis con
Ġmusuqchasqa qa
Ġjohan nes
Ġsinagoga pi
Ġshan g
raqa cha
taqu io
Ġasu wi
parti du
Ġshipi bo
ĠÏĨ Ïį
Ġern est
Ġstu ttgart
Ġdal ence
Ġsanti waÃ±is
Ġbabil un
Ġwauq entin
Ġani yun
Ġani ceto
Ġanda huay
Ġkriyiq qa
å¤ §
sill wi
Ġkatal unyapi
Ġchor rillos
Ġpatri monio
Ġqaraq ruyu
Ġgall o
Ġkamariq ninsi
Ġmary land
Ġwayqe y
Ġcuen tata
riti ba
Ġtai pei
Ġpumaq anchi
ĠÃ±awpaqmanta Ã±a
Ġkuwa it
kusisami yuqmi
ichki qucha
fan n
Ġace ite
Ġtla xcala
Ġbran co
Ġmuri ra
ĠÐ¼ Ð¸ÑħÐ°
piki llaqta
Ġkho ta
Ġkali puy
Ġdur Ã¡n
ĠsuÃ± aya
Ġmanyan pi
Ġinte grado
minist ru
minist ra
Ġpachi tiya
Ġinkumin da
Ġwhi te
Ġviz carra
Ġbetan zos
Ġjob qa
ĠcÃ© zanne
Ġcita ray
Ġallillan chu
Ġbla ir
Ġkachar pari
muksi chana
uyap urata
Ġteno chtitlan
sala manca
dou ard
Ġparlam intu
Ġqarqusqa masikunapaq
chal ke
Ġqasaq suyu
Ġgras ya
Ġqonqoriyku kuspa
Ġnacesqan chikmantapacha
Ġibero america
Ġries go
Ġdef ens
Ġpublica tions
Ġgir Ã³n
Ġsutisuy un
Ġpalawra qa
jerusal Ã©n
ĠtÅį hoku
Ġsuple mento
Ġtaba conas
Ġarman do
Ġkharka tiy
Ġcua tro
Ġcomer cio
Ġfies tata
alliy kuy
tzal tenango
Ġpodcas tpi
Ġsecunda ria
wy cliffe
Ġpabl on
ĠÃ±e qen
Ġyant zaza
megy Ã©k
Ġkhara baq
Ġcasar asqa
Ġmeda lla
Ġpruwin siya
ox ford
mapu dungun
Ġaero puerto
ushu findi
Ġtham in
Ġascen siÃ³n
ĠantÃ¡r tica
Ġniku di
Ġwins ton
Ġkuskancha ku
Ġpopul ar
Ġfiguero a
wankurisqa kunap
Ġdisip ulun
Ġigua llataqmi
Ġkanar ya
Ġhamusqayki chik
Ġbilin gue
Ġtesaloni cen
Ġpilku mayu
Ġpenici lina
)'' ,
hÃ« ch
ìķ Ħìĸ´
mikha il
ĠmÃ¼ ller
Ġpai ute
espe are
Ġdeben chik
tunkura wa
Ġinfi erno
kantur pa
Ġuwis pu
qiris ankunaqa
qhispi sqa
Ġpartici pasyunkuna
ĠamÃ© rika
merce des
Ġtradis yunal
mq q
ĠÅĽ lÄħ
Ġshak espeare
Ġamantan i
Ġclu be
ĠcÃ¡r denas
ĠallÃ¤ pa
Ġutus ku
Ġmoque gua
presi dente
Ġorthodo ksa
azi z
dgos zcz
¶Ķ ìķĦìĸ´
ì¼Ģì ¶ĶìķĦìĸ´
Ġkaku chinkiman
kasti llanu
ĠmÄĵ xih
ĠcÃ³rdo va
kankaw ur
Ġdirich uyuq
Ġempal me
Ġkucz ynski
ĠpeÃ±ar ol
Ġluzu riaga
Ġguev ara
Ġpernam buco
vergla des
Ġzui d
Ġprecur s
Ð´Ð¸Ð¼ Ð¸ÑĢ
ĠÅĽlÄħ ski
" -
+ '
, ,
0 36
3 28
3 44
4 27
4 26
4 38
4 46
5 10
5 35
6 14
7 35
8 70
9 28
9 36
9 88
a v
a chasqa
a chik
a llapi
a taqmi
a kunaq
a kunku
a ge
b wi
b ill
b iti
b ea
b Ã³r
c uy
c asqa
c isa
c alan
c tos
d Ã¤
d urazno
e ca
e ba
e mpu
e mbre
e liodoro
f os
f ray
f ini
f onso
f olk
g asqa
g ve
g he
g lia
g nu
h aqtin
i llapa
i dio
j qa
j ill
j or
j me
j ayu
j ssel
k ya
k re
k Ã³
k aqmi
k lisa
l Ã©s
m ya
m isqa
m ÃŃas
n Ãº
n asa
n berg
o lu
o mo
o llanta
o hio
p pa
p tana
p uqu
p ayuqmi
q iq
q uma
q uqta
r k
r ta
r uk
r unt
r uqyay
s m
s uk
s manta
s pas
s uru
s tis
s yapi
s ayaku
s urinam
t x
t has
t Ã³n
t rum
t temberg
u kunapi
u pay
u kunaqa
u llam
u kunam
u chasqam
v us
v ari
w eb
x in
y or
y Ãº
z s
z in
z hu
° ķ
± Ł
¸ ¥
Ã ®
Å º
Å Ļ
Ì ¦
Ð ¶
Ñ Ħ
Ñ Ī
Ö °
× ©
× Ł
Ø £
Ø ¶
å ĮĹ
æ °ĳ
ç ı
é ¾
Ġ !
Ġ ê
Ġ ë
Ġ ina
Ġ ist
Ġ istri
Ġ ..
Ġ Ã¶
Ĺ ¥
Ŀ å·ŀ
an ea
an tanku
ch anakuna
ta c
ta ru
ta kina
ta mil
qa ti
qa sh
qa ras
ll uyuq
ll anqaku
un si
un esco
ay qu
ay kunaqa
ay tawan
ay nam
ay paqmi
ay chischu
pi ap
Ġk win
Ġk oso
Ġk rup
in ea
in naq
in ei
in burgh
aq cha
aq ku
aq ra
aq taq
aq kunaman
aq wiy
una ta
una ka
ma i
ma x
ma kuna
ma ka
ma ke
is pay
is law
is qus
pa re
pa rirqan
pa pil
pa kaqi
pa parawa
Ġs z
Ġs ana
Ġs uru
Ġs ko
Ġs osa
Ġs olo
Ġs por
Ġs now
wa kan
wa tan
wa lli
wa kunam
wa raqu
kuna llapi
uy kuna
uy manta
uy os
uy kuni
mi ki
ri to
ri ciÃ³n
Ġll inpi
ti ch
ti ve
ti mpis
ti more
ti yupunti
Ġh una
Ġh ea
Ġp uya
Ġp rus
cha ll
cha kunamanta
ya kuta
ya ruwillka
man da
lla chiy
lla tas
lla punin
lla kusi
Ġka way
Ġka lli
Ġka kurqan
Ġka mpu
Ġka bul
Ġka pilla
ku mpa
ku waq
ku ranku
Ġllaq i
Ġwa lin
Ã± on
Ã± ayuq
ka wan
ka su
ka purqa
ka listu
ka tiguriyan
Ġq osa
Ġq umas
Ġa a
Ġa uq
Ġa kan
Ġa te
Ġa paspa
Ġa zu
Ġa hus
Ġa widul
Ġn ur
Ġn os
Ġn ame
Ġr y
Ġr inki
Ġr hein
Ġr uqutu
Ġr apanuy
Ġllaqta pu
Ġllaqta chapi
uq hu
Ġch ol
Ġch ut
Ġch oq
ur t
ur ma
ur pa
ur al
uk ani
uk anas
ki li
Ġm n
Ġm p
Ġm ayuq
Ġm Ãº
Ġm umbai
wan kasanku
wan kaskar
Ġma li
Ġma za
Ġma mantapas
Ġma tara
Ġma dison
Ġma gnus
Ġsi d
Ġsi rin
Ġsi kundu
ru mp
Ġnisqa kunawan
Ġnisqa kunapas
Ġnisqa kunataq
Ġpa wa
Ġpa re
Ġpa su
Ġpa wsa
Ġpa kaqi
ap ka
ap Ã¡n
ap uspa
Ġd ong
Ġd roga
Ġwata lla
Ġwata yoq
Ġwata kaman
as kha
as unchik
chi ll
chi kunan
chi chkanku
chi paya
chi ld
Ġt si
Ġt uti
Ġt rin
Ġt ras
Ġt ena
Ġt rist
Ġt urqu
Ġt rap
Ġt yim
Ġi a
Ġi la
Ġi chik
Ġi maq
Ġi kwa
Ġi tha
Ġsimi q
Ġsimi kunam
Ġhuk cha
Ġhuk niyoq
Ġhuk pitaq
Ġhuk niraq
ar anku
ar qay
nin kunapaq
Ġri d
Ġri ti
Ġri purqanku
Ġri dusisqa
wi en
wi dad
wi chq
am is
am os
am ba
am par
li z
li ya
li br
Ġki l
Ġki rani
Ġruna manmi
on dÃ³n
iq uta
Ġkay ri
ra tiya
ra Ãºl
pas paqa
kun aqta
tu pu
tu llu
Ġqh is
Ġqh en
Ġqh iswa
Ġsu en
Ġsu dan
Ġsu erte
Ġsu phun
si mana
si was
si ast
si pisqa
si chura
ina kuna
ina kunata
Ġha wanqa
Ġha cien
Ġ2 19
Ġ2 16
ill anchay
es baden
Ġchay pa
Ġchay kama
Ġchay ninta
Ġchay rÃŃ
Ġchay anankupaq
Ġchay peqa
Ġchay chika
yu la
chu llu
chu lli
Ġpi Ã±i
Ġpi yun
Ġpi papas
co lor
Ġj ul
Ġj en
Ġj urin
Ġj unta
chay a
chay taqa
ĠÃ±iq piqa
er in
ins on
Ġman chu
Ġman zan
Ġman ukucha
ul ulu
ul utÃ¡n
en qo
en cio
la tas
Ġkilla m
Ġkilla wat
Ġwi lan
Ġwi th
Ġwi chaymanta
Ġwi rasapa
qu kuna
qu isi
qu ita
Ġb ap
Ġb org
Ġb res
Ġb ulo
Ġb ukya
Ġqa pi
Ġqa llayuq
Ġwatapi raq
Ġwatapi taqmi
os car
os kar
os lav
ana kuspa
ana wanmi
Ġta j
Ġta pa
Ġta way
Ġta raq
Ġta puk
Ġta karpu
kuy tawan
kuy arqan
risqa ta
Ġc ampa
Ġqillqa ya
Ġqillqa pas
Ġqillqa kunam
Ġqillqa kunatam
Ġqillqa yuqmi
Ġqillqa rimun
Ġqu riway
Ġllaqtam pi
Ġsuti rimana
gu o
gu ar
gu ci
Ġde si
Ġde la
Ġde fen
Ġkan taqmi
Ġkan qanta
Ġkan tÅį
way q
way as
way ana
way kuchu
way tara
Ġllam ayuq
Ġllam ayu
Ġay ma
Ġay chay
Ġas naq
Ġas unta
Ġas ociaciÃ³n
usqa yta
chis han
ha j
ha li
ha tu
ha qay
ha manq
Ġmana Ã±as
Ġan n
Ġan saq
Ġan cÃ³n
Ġan anea
Ġuma cha
Ġuma lle
di z
di on
di es
Ġl are
al s
al pes
al berta
mon tana
Ġti pi
Ġti ri
Ġti pu
Ġti Ã±iqi
Ġti kacha
Ġti Ã±in
Ġti empu
el y
Ġkaq taqmi
Ġkaq pata
Ġkaq tinku
Ġpu bli
Ġpu tum
Ġmi z
Ġmi kun
Ġmi china
Ġmi hiku
Ġrunakuna chu
Ġrunakuna mantaqa
Ġin c
Ġin iy
Ġin cien
Ġin uyt
Ġin vesti
ci um
ci bÃ³r
ispa raw
to mo
Ã¡ k
Ã¡ Ã±ez
Ã¡ nica
Ã¡ tegui
Ġsuyupi s
ni z
ni pal
Ġall wi
Ġcha lla
Ġcha kunapaq
Ġcha ranku
Ġcha raÃ±a
Ġcha kamarka
Ġg Ã©n
Ġg lur
chik orqa
Ġsa ks
Ġsa gra
Ġsa wintu
Ġur maq
Ġur qh
Ġur quy
Ġur ayku
Ġur aykurqan
Ġur qhu
Ġur miyun
pu way
pu Ã±una
Ġqalla ris
pay kichismi
ĠÃ±a Ã±a
Ġqhi ti
Ġmay mantapas
ÃŃ llay
ÃŃ rez
ÃŃ geno
ÃŃ jano
Ġ3 21
Ġ3 46
llan ki
runa manta
Ġrur ash
dar a
Ġpay pas
Ġpay kunam
Ġpay paqqa
Ġpay kunapaqqa
hu acha
hu mboldt
Ġru war
Ġis kuma
ran chis
Ġni lla
Ġni taqmi
Ġni murqan
Ġni eves
sa ma
sa pas
sa wintu
Ġhina taqa
Ġhina tapas
kin e
kin ka
kin tin
Ġf an
Ġf us
Ġf ru
Ġf ro
Ġf onta
Ġf ondo
Ġaswan chu
Ġsan i
Ġqhapaq wan
Ġqhapaq kunap
Ġli q
Ġli la
Ġli yi
Ġli kankawur
sh uk
Ġu manata
unchaw kunap
Ġyachay paq
Ġyachay ninmanta
ca ma
ca tan
ca hua
ca jas
chin kay
chin illa
Ġallin man
Ġallin taq
te can
Ġqhichwa m
Ġqhichwa manta
Ã© bio
Ġmar ya
Ġmar ca
da ri
da dukuna
da cty
tan Ã¶
tan sanya
Ġqha tiy
Ġqha tukuna
na k
lli a
lli ti
Ġrimay si
Ġrimay kunapas
Ġrimay kunapiqa
lu teca
lu enza
chiy manta
Ġdi r
Ġdi as
Ġchi liman
Ġchi ang
Ġchi apas
Ġ18 17
Ġ18 13
Ġ18 46
Ġ18 02
Ġhu anta
Ġhu ang
Ġhu aro
Ġhu aca
Ġhu illca
Ġtu tan
Ġtu kunapaq
Ġtu llpa
Ġtu pusqa
Ġtu puq
Ġtu cumÃ¡n
Ġwar dya
Ġun un
chaq lla
Ġpuk aq
Ġpuk ina
Ġla wa
Ġla ura
Ġla du
Ġla bra
Ġama curo
kunan taq
Ġuy anpi
mana wa
mana taqmi
Ġkiti kuna
Ġkiti pipas
Ġhay kun
Ġhay warqan
Ġhay kuspataq
Ġhay Ã±inta
pun is
pe a
pe lier
pe diente
yki m
yki chik
Ġkun kanta
Ġwilla way
aya rit
ris yu
ris hun
asqa qa
Ġw end
pis ta
pis chu
chiq chu
Ġraymi qa
ol no
ut ispa
Ġkuti pay
Ġkuti riy
Ġkuti yta
Ġkuti muy
19 20
19 25
19 33
19 44
19 55
Ġ4 09
Ġpuquy ta
Ġpuquy niyuq
Ġpuquy ninta
Ġv ill
Ġe is
Ġe pis
Ġe th
Ġe mpi
Ġe videncia
Ġe dison
go rica
Ġkawsay ninmi
Ġkawsay niykichis
Ġkawsay ninkumanta
mar k
mar bÃ¡n
tawan taj
Ġpus an
Ġpus aspa
Ġpus haq
ani ku
Ġwasi wan
Ġwasi pas
Ġwasi chan
Ġwasi chanapaq
Ġwasi chasqankuna
Ġriku chikuy
Ġriku chkanki
ara gun
mp usqa
Ġati rqa
Ġati kuq
Ġati rqanku
Ġati payta
Ġre mi
Ġre um
Ġre volu
chka spaqa
Ġyura pas
Ġyura kunapaq
de sqa
Ġdios taq
Ġdios puni
Ġdios niyoq
Ġra h
Ġra pi
Ġra dyu
Ġra velo
Ġra bat
iti p
iti kunapiqa
tiku stis
Ġurqu kunaman
le e
le j
le ey
Ġmus eum
Ġ201 9
Ġlla kichis
ptin chikqa
Ġham ushan
Ġayllu p
Ġayllu kunawan
min i
min ti
min ka
min oso
min isterio
hina llataqmi
Ġo qa
Ġo ral
Ġo dr
Ġriman anchispaq
Ġinti pa
Ġ6 19
Ġ6 39
qi chwa
qi puncha
Ġco lima
Ġco ordina
Ġco lumbus
Ġes a
Ġes cen
Ġami gos
qay na
Ġwarmi pa
Ġwarmi man
Ġwarmi ka
Ġwarmi yuq
lan k
lan s
Ġar istotelis
Ġar temisa
ayki m
ayki qa
ayki paj
ayki chejpaj
Ġumalliq pa
wiki media
Ġnin riyuq
aspa ta
Ġro oney
chisqa qa
Ġyupay ta
Ġyupay niyuq
Ġyupay chayta
Ġyupay kamaqa
Ġchin kar
Ġchin ini
Ġchin dul
Ġtar am
Ġtar pu
Ġtar punku
Ġtar ukani
anpaq ri
kunawan si
Ġal qu
Ġal ter
Ġal fe
Ġal tum
Ġal kul
Ġal tami
Ġal nus
ba gdad
sin qa
sin mi
Ġrima shka
Ġja ku
Ġja tucha
sun kiku
ari es
Ġ15 24
Ġ15 50
Ġ7 50
ant yu
ant Ã¡n
war ra
war pampa
Ġmarka ra
ĠÃ±awpaq qa
bo ud
Ġlima tampu
pin pi
pin as
Ġtaki ta
Ġsin Ã¶qa
Ġsin celejo
Ġimay oqta
Ġriq sina
Ġriq yunpi
Ġse p
ga ta
ga latayuqkunapaq
Ġ17 2
Ġ17 6
Ġ17 80
Ġ17 78
Ġ17 69
Ġ17 82
Ġ17 98
Ġ17 96
Ġ17 92
Ġ17 97
Ġyuy anapaq
se gun
Ġsay apu
Ġsay arisqa
ras h
ras aq
Ġca pa
Ġca vero
Ġca dena
Ġca baÃ±as
Ġpun lla
Ġpun chay
Ġpun to
aqu ia
aqu et
ter ra
18 4
18 35
18 70
18 90
18 76
18 72
anakuy chis
unchay pitaq
Ġpro fes
llapa llan
bi g
Ġaya ta
Ġaya waka
Ġsaq ey
Ġruraq kunaqa
uya ta
uya chiy
10 8
Ġna c
Ġna tional
du a
du z
Ġ12 3
Ġat uqsi
Ġtuku chiy
Ġtuku chisqa
Ġtuku kunqa
Ġtuku kapun
Ġtuku rikunqa
ho pi
ho tel
su chuq
su dan
su kumpiyu
Ġran rapallqa
Ġwawa p
Ġwawa kunantin
Ġpachapi chu
Ġqhaway ta
Ġqhaway kachay
Ġtayta ykita
mo is
mo ur
mo vimiento
Ġ14 78
gi pe
Ġpe tro
Ġrimaq mi
Ġrimaq ninkuna
me o
me qa
Ġanti manta
Ġanti oquia
Ġinka kunaq
Ġinka pirqa
Ġkasqan chis
ir un
ir ukisa
Ġsuy uy
Ġ16 60
Ġwat uq
kus asqa
tay wan
Ġ10 9
Ġno k
Ġuywa kunaqa
Ġuywa kunatam
Ġuq ha
ph on
ph uru
ph ransis
15 8
Ġsuntur ninpi
iy kuna
Ġawqa lli
ama ran
Ġallpa wan
Ġallpa wayu
rus kupu
Ġkamachi kushaqtin
ayku sunki
Ġkash ka
Ġkash as
12 9
Ġlu cio
Ġlu minoso
Ġchu qa
Ġchu paka
Ġmu hammad
Ġmu hiniti
Ġyana pasqan
17 1
17 93
17 95
Ġ13 3
it ti
it anta
tri madura
Ġba wt
pus han
pus qanku
mus unki
mus ambik
16 31
Ġqillqasqan si
tuwa ta
gen esis
aqa manta
th y
th us
th ar
Ġsapa chaq
Ġsapa llay
Ġsapa llanta
Ġrunakunap pas
par uru
14 3
14 6
14 7
13 8
pata man
Ġmas ka
Ġmas tari
Ġmas tocitos
acha qa
Ġgu tenberg
Ġbi a
Ġbi g
Ġqhawa sharqanku
quwiki books
Ġper Ã³n
Ġper son
Ġ20 4
ĠwaÃ±u isqa
ĠwaÃ±u chirqa
ĠwaÃ±u chinqaku
20 2
20 5
Ġatin kuman
Ġel e
Ġkas ar
Ġkas paykiqa
ern ales
Ġne braska
Ġkamachiy ninkuna
Ġ11 1
Ġle i
Ġle vi
Ġle ban
Ġle pra
ĠwiÃ± asqan
ĠwiÃ± arispa
Ġjina qa
Ġcar ter
Ġcar rillo
Ġquyllur cha
Ġquyllur kunata
Ġuru bamba
ĠwiÃ±ay ninmanta
qun tumasa
Ġitalya p
Ġpuchuka sqam
ver gent
Ġcon tin
Ġcon sul
Ġtiya rqanku
Ġtiya kurqa
las aya
Ġqi chuna
pam ba
Ġawqaq kunaqa
Ġawqaq suyu
Ġrumi chaka
Ġrumi qullqa
Ġllapa paq
fi la
ĠÃ±u qaykuwan
Ġatiy ninmi
Ġatiy kunawan
cu zco
cu ida
Ġ24 6
llaq puni
im s
manu ripi
Ġmo ysespa
Ġukhu pin
Ġukhu pitaq
Ġkur pu
no e
no v
Ġ22 1
Ġcre eq
kusqa m
Ġ25 1
arqan ki
Ġhampi kunata
Ġhampi kuynin
Ġsimin wan
Ġsimin chikpi
Ġrunasimi chu
Ġtawa m
Ø§ Øª
Ġ23 1
Ġ23 9
Ġmin nesota
ita r
Ġruway nin
Ġruway ninkuna
Ġyuyay mana
Ġyuyay sapa
Ġpisi m
Ġpisi ta
Ġpisi cha
Ġpisi chan
icha pas
ko ku
ko pan
Ġcu i
Ġcu man
Ġlo ve
Ġlo ire
chej manta
Ġwaqa chisqa
Ġfa brica
tis mu
willka chasqa
uku ch
Ġpas Ã±a
Ġpas te
Ġpas tur
Ġson sonate
car re
kusqan qa
jina lla
Ġkasqa ykuta
Ġllaqtakunapi taq
Ġunquy kunamanta
Ġhinaspa qa
Ġhinaspa taqmi
Ġqo sqayki
Ġrurasqa pas
Ġpachan kap
Ġje ma
Ġchurin pi
zo a
vo ra
kas ta
kas pi
Ġchanin chasqan
Ġpin qa
Ġz ud
Ġkul tur
Ġbo ra
Ġruwan an
Ġruwan qa
ĠÃ±an kunata
ata sqa
Ġyawar ch
Ġyawar niyuq
ĠiÃ±i rqan
28 1
28 6
Ġpo e
Ġ29 4
Ġ29 6
Ġ29 8
Ġcor nwall
27 2
ĠsuÃ±ay ta
24 7
Ġto dos
Ġto rillo
Ġto ulouse
Ġ27 4
kar nawal
Ġyachan chik
Ġyachan kichismi
gar o
ent ÃŃn
Ġso ci
Ġriqsisqa m
Ġap ru
Ġruru kuna
Ġruru chinakuna
30 4
22 1
mis ki
mis sissippi
Ġbe ver
Ġor den
Ġor qon
Ġor tega
Ġbar bu
Ġbar ry
Ġpaqari rqa
Ġqullqi chaq
Ġqullqi wasi
Ġmancha kuywan
26 3
26 7
26 9
Ġqar ampuma
tion aries
ĠmaÃ±a kunan
ĠmaÃ±a kusqa
ĠmaÃ±a kurqanku
api ta
win i
Ġapa kunman
Ġda kar
Ġda llas
Ġahina pi
Ġpara ta
Ġpara tya
Ġpara guay
Ġyuraq qucha
Ġkrus iru
nu ta
Ġwaki llan
Ġindi o
Ġindi pindinsya
Ġalimanya man
29 8
ĠiÃ±iy kunapi
Ġyay ap
Ġyay kunapaq
23 5
23 6
23 8
Ġara uca
Ġsuyun chikpa
Ġte la
Ġte pic
ariy nin
Ã¶ ld
Ġand rade
Ġwanka pi
tor y
tor ino
Ġjatun paq
kunapa x
ĠiÃ±u wan
ĠiÃ±u manta
Ġwalla llu
Ġyaqa pis
Ġpata manta
ĠseÃ±or ta
ĠseÃ±or mi
mas koki
Ġmunay chata
var isto
Ġrunas wan
Ġmaqanakuy manta
osa gua
ĠØ ¢
Ġpuri chin
Ġpuri rqa
Ġpuri chkaq
Ġhucha chan
tampu ku
Ġpapa man
Ġuralan pi
tes tan
anapaq qa
anapaq kuna
ĠwaÃ±uy nin
Ġtarinki chis
Ġsonqo llan
Ġriqsi yta
ÙĬ Ø¨
tr en
Ġwin chu
Ġwin isuy
Î¿ Ïģ
Ġpurin i
inti p
Ġkanan manta
cal yp
Ġkapuq niyuq
Ġchiqa kupi
arin an
Ġrus yap
Ġtay wan
pana llaykuna
Ġjo e
Ġpuriy mi
Ġpuriy nin
Ġpuriy ninmi
ram ento
llin tu
Ġraphi m
Ġrunallaqta pura
Ġga elic
hay ka
tad os
Ġllaki pampa
Ġllaki kuspa
Ġ189 4
Ġllika kuna
Ġllika piqa
Ġphu ll
Ġwamp uq
Ġkar ru
Ġkamachiq pa
inka kuna
Ġqam kunaqa
ed gar
Ġho tel
Ġraki rqan
Ġraki qun
Ġkaus ari
Ġab d
Ġab boud
Ġchinka chin
et s
et te
Ġhi gh
Ã±o qaqa
Ġsunturnin taqa
Ġrimana kusqa
rur unqa
à¤ ¤
à¤ ¦
à¤ µ
à¤ ¹
à¤ Ĥ
kaws a
Ġhinaspan si
Ġpakay a
Ġut qa
uqu ri
Ġjam uy
ikr aspa
35 7
kurqa ku
per t
Ġkamachin ankupaq
Ġpul ska
Ġpul unyapi
ando l
iru ta
Ġchayam ushan
Ġgar anti
Ġuyari rqanku
ash anku
dal e
anti kunapiqa
Ġwayna qa
sal o
sal ta
sal tu
pro te
Ġruwasqan manta
qha tuq
Ġsara ta
was ta
was wanchu
Ġcam peche
46 5
Ã±uq anchik
Ġkachka rqan
Ġchaywan taq
suy kita
ĠÎ ½
Ġaq uy
Ġlluq sispa
men s
Ġkachi chaq
Ùħ Ø©
Ġtor ero
Ġperu vi
Ġperu anos
ts dam
yku qa
chaymanta s
chaymanta taqmi
ĠÃ±isqa qa
Ġhuwan chaqa
Ġkaw llaymi
phi Ã±a
phi lip
achi ta
Ïģ Î³
Ïģ ÎŃ
Ġjap on
imay kana
kam uspa
Ġqelqa ta
Ġapay kun
Ġyaya llÃ¡y
lam pu
Ġkallpa chanam
Ġam ba
Ġqara chi
Ġyachachisqan qa
Ġyachachisqan kunapas
Ġyachachisqan kunaman
Ġram ÃŃrez
Ġqui chua
Ġqui caÃ±a
ĠiÃ± in
Ġber gman
Ġangel kuna
Ðµ ÐµÐ²Ð¸Ñĩ
kush pa
kush ka
Ġtakin ku
Ġmiray manta
78 9
ĠispaÃ±ul kunata
uch quy
Ġquri pata
Ġtuta lla
ipi y
ĠÏ Į
Ġqullqa tam
Ġqullqa quyllur
Ġimayay qa
qillqa ta
qillqa kuna
Ġ185 3
Ġpinchikilla wan
Ġtawantinsuyu ta
Ġtawantinsuyu man
ose mite
Ġ35 4
Ġ35 8
Ġchiri pa
Ġchiri wata
Ġchiri muyu
sta tion
Ġmakin man
Ġrakin ku
Ġale man
Ġale mÃ¡n
áĥ £
warmi qa
Ðº Ð¾Ð²
Ġaqu piya
Ġasi ruqucha
Ġpartidu p
ĠiÃ±iq nin
gas ton
Ġchaskin ku
Ġchaskin ankupaq
Ġkristiyanu kunap
puq tinqa
ĠØ§ÙĦ Ø³
Ġpal pa
Ġpal ermo
Åį be
Ġmat hiyup
Ð½ Ð´
Ġhamun chu
ĠwaÃ±un chu
à¦ ®
Î» Î¿ÏĤ
kusun man
Ġ36 4
Ġaugus te
tori os
tum ina
Ġlampa ti
Ġge in
Ġge orgi
Ġlin si
Ġmayqin kunapichus
Ġregi o
ger mÃ¡n
ff rey
kunalla paq
Ġwatan manta
Ġsaqra man
del eg
kuptin ku
kuptin chik
Ïĥ Î¹ÏĤ
Ġgre co
Ġgre at
ĠphiÃ±a ri
Ġmanuel cha
Ġchiq nin
Ġcal das
Ġcal zada
Ġqallariy ninpiqa
Ġqe chun
ispaÃ±a pi
Ġqallarin qa
Ġqallarin mi
Ġmaqana kun
ens k
Ġchimpa chiy
Ġakllasqa m
asu wi
Ġchaylla chu
Ġunancha chaqa
Ġrunan kuna
nes see
Ġqhes hwa
Ġmusi ca
Ġmusi yupi
Ġmusi kuqmi
au to
rida e
Ġnor dr
Ġcristo pas
Ġqos pa
Ġqos qan
Ġjay wa
Ġwiraqucha kunap
Ð» Ð¾
Ġsh on
Ġgra cias
Ġatuq wan
illan chu
Ġchayna pi
Ġchayna taq
Ġrusiya p
Ġger onimi
Ġish kÃ«
Îº Î·
Ġilanda pi
Ġver sa
Ġliwru chasqan
Ġyarqa ypi
Ġyarqa chikurqa
Ġachkiy mi
Ġwaqya chi
Ġraw r
Ġllapallan ku
Ġmanchari kuspa
89 7
qispi chiqkuna
Ġsha anxi
titu paq
Ġbal zar
Ġnoqa ta
kichik mi
Ġmen del
Ġmen eses
Ġsol e
mamallaqta yuq
Ġraphin mi
Ġraphin kunapi
Ġpachaku tik
Ġgua jira
mal tenango
Ġpuqu chinku
Ġkuskan niyuq
imi ro
Ġyanqa puni
Ġyawri kuna
llarqan taqmi
Ġkusituy kuna
awqa f
Ġgi useppe
bil isi
bil arus
Ġpru tin
Ġunqusqa kuna
int la
ĠmaÃ± ana
yupay chasqa
Ġsama spa
Ġhampikamayuq mi
Ġnuqa taq
mor elos
Ġza pa
Ġshuk tak
Ġsik lla
Ġjucha manta
Ġkha ri
Ġkha ka
Ġchill ca
Ġyapa kani
Ġqati chin
Ġmina kuna
Ġgrisya pa
Ġsasa lla
Ġsasa chay
Ġkaqtin taq
sar asara
Ġwayll uy
Ġurqupi Ã±a
Ġlloqsi rqan
Ïħ Î¼
Ġhor asta
Ġkasu kuspa
Ġqarwa qayan
Ġjesucristo qa
Ġwaj ya
Ġata w
Ġwaylla pampa
Ġllimphi yuq
Ġrikuchi wanchik
Ġbel fast
Ġtaw ka
Ġmayqen chus
Ġala juela
Ġyar pacha
Ġris haspa
Ġumalli y
ĠÃ ¥
chinki chis
Ġtr ento
gradu paq
Ġpuqun anpaq
Ġoc ampo
Ġanimal kuna
Ġanimal kunata
Ġhuknin taq
niyta pas
ĠÃ¡ vila
Ġkut ana
Ġpen ÃŃnsula
Ġbri tish
Ġtiqsi muyuntinpi
Ġuyariy chis
akiy manta
bor ondÃ³n
yawar ch
Ġkriy i
Ġce cilia
Ġtupi za
Ġaman qay
chupa lla
Ġcheq nina
Ġcheq nisqa
vie do
hel p
liza tion
Ġcama gÃ¼
Ġkhillay chuki
koj qa
Ġchhu kap
Ġlay an
Ġlay am
Ġfer re
Ġcolo mbo
cÃ¡ ceres
tter Ã¸
Ġwawqi kuna
Ġhamu ptin
Ġyanapakuy kunawan
Ġtusuy mi
Ġllas ay
Ġyawa chi
Ġmunarqan chu
Ġjis us
Ġqillqayta qa
Ġawstiriya pi
Ġgalile amanta
Ġblan cos
Ġllamkay kuna
Ġsala manka
Ġsala manca
Ġkhuya kuy
Ġlam ud
Ġkunris u
Ġarma kuna
ÅĤ o
Ġplan eta
Ġrak inakuy
Ġrakina lla
Ġuyaris pan
Ġhuay lla
Ġhuay na
chur kampa
Ġllant hu
Ġqhuya pi
mba bwi
Ã´ ne
kaÃ± aris
Ġatawa ll
Ġatipaq kunaqa
Ġrikunchik jina
Ġrespe tan
paqha wan
Ġby ron
Ġqallarisqan manta
kali puy
Ġqapa rirqan
gran d
wasun man
Ġchuriy ki
ĠthuÃ±i chirqan
Ġ× ©
Ġ× Ļ
mag yar
ĠpÃ¡ g
Ġqaya rani
ĠÃ±aka sqanta
ĠwaÃ±uq tin
Ġkurur anapaq
Ã¸ tterÃ¸
waqa china
Ġtanqa sqa
Ġbre men
Ġphisqa yoq
paqari murqa
chiwan anchispaq
Ġyachasqan chis
Ġmuyun tin
Ġinstitu te
Ġkillka shka
Ġaba ba
Ġqatiy kacha
Ġawus tu
az apÃ¡
az tecan
Ġsiste mas
Ġegi p
Ġnuwi mri
Ã¼r ttemberg
mina ciÃ³n
Ġchha lla
Ġpill pin
ach kha
Ġsta lin
Ġinfec cion
Ġinfec tasqa
Ġpusam urqanku
ĠÏĥ ÏĨ
iro bi
ĠÃ±oqayku qa
Ġrijch Ê¼
Ġsuchuq kuna
Ġjara mijÃ³
Ġpoli cia
Ġpoli tica
Ġporto viejo
ukhu pi
Ġmiran anpaq
Ġallicha pay
Ġllamiy kurqan
bour g
Ġirqi kunapa
Ġah mad
puma pampa
aqana kunankuta
Ġwilliam s
Ġratu lla
Ġhamuchun ku
ming ton
ming ham
Ġqispichiq niy
Î¹Îº Î¬
Ġnorth ern
lar am
Ġmapu dungun
Ġpirqan chik
Ġmayqan pis
lon don
anto fagasta
Ġcur rently
Ġimamanta chus
Ġisk ri
Ġox ÃŃgeno
Ġegipto manta
ĠguzmÃ¡n ta
kon qanku
Ġpie monte
tex t
tex as
tex tos
olÃ³gi cos
Î´ Î±
à§ ĩ
waw qi
ĠaÃ±aw kunap
Ġichi gkat
kanka llu
Ġkamachiynin rayku
Ġallichay pas
Ġqhepan tin
Ġraimondi i
aÃ±a ki
gla cier
inneq man
wall qanqa
Ġmil ton
Ġfar isiyu
david pa
Ġchimpan si
yachaq kuna
Ġfitz gerald
much usqa
Ġkuma rapa
Ġkuma moto
Ġisti wis
Ġisti lum
Ġderecho yoq
Ġismu chiq
Ġdiya blu
cheqaq tan
ĠÐ² Ð»Ð°
Ġqal aqutu
Ġcota bam
parti do
Ġbote man
Ġshipi bu
ĠÏĨ Ïħ
Ġbernard ino
dd le
Ġern esto
Ġihiptu pa
Ġball et
Ġcarta gena
ell es
rara hu
asÃ±a cha
ĠjaykÊ¼ aq
clo pedia
ãĤ ¢
Ġismuy kuy
Ġniko demo
qhe payta
Ġphur uyuq
Ġnece si
Ġnece sita
Ġnece sitan
ruray kamay
tya gu
ÅĦ sk
Ġllaqtaruna kunapaq
Ġtiwlli yuq
Ġsali tre
Ġurqus apa
Ġentiende rqankuchu
Ġorganiza ciones
dere chon
jon aspa
Ġchakray oqqa
Ġliy iy
Ġtaripasqa m
Ġuqhu kuna
augus te
Ġayninakuy pa
jay k
makin wanmi
Ġqis pin
Ġchhuk runa
Ġpaciencia wan
Ġtla kopan
Ġbaqu ÃŃjano
Ġanhil qa
Ġurqun mi
Ġistu dya
allqu miyu
Ġsalv asqa
Ġzh eng
jis us
Ġqes pin
Ġmak ru
Ġidio mas
quer Ã³n
Ġiskuy la
Ġatiwaq chu
Ġatiwaq chischu
Ġbio bÃŃo
luq ma
Ġsco tia
late wiki
Ġllalla gua
Ġviz cardo
Ġquyan si
Ġcuida kuychis
Ġmore lia
Ġpukllasqan kuna
pati tis
will k
Ġemer gencia
Ġcop pola
Ġrou en
Ġpalabra qa
phili piyuqkunapaq
Ġgreen wich
Ġitali ano
vene to
ĠaÃ± anku
cole cciÃ³n
jaco b
Ġchayamu ptin
Ġsintoma sqa
taqtaqtaqtaq taqtaqtaqtaq
Ġingeni ero
kins a
Ġpalabras ta
Ġwawi tata
Ġnut isya
Ġwij san
Ġantis ana
Ġlenin grad
Ġofren da
Ġdiagnos ti
apar niyuq
dland s
lÃŃn gua
Ġtanti ya
Ġindus tria
Ġarmin ya
banla dish
Ġllaktakuna pak
isra el
dimuk ratiya
Ġbaba hoyo
Ġkumpusitur pas
dho ven
à¯ į
aqya wiri
ĠchÃ¢ te
Ġclin ton
Ġfina lization
bab ura
susya lista
jall p
ĠÌ Ī
pill pintu
patri ck
wiraqo chÃ¡y
amay ch
erci lla
Ġoto manki
Ġruwapu wasqanrayku
bearn pa
Ġenton ces
Ġsoldad os
ä¹ Ŀå·ŀ
ĠÃŃn dice
Ġhil de
Ġkamayu chiq
Ġamay Ã¡
Ġgon Ã§
viden ce
Ġhuey poxtla
Ġjui cio
ĠjuÃ±una kuy
Ġengel s
waskh aqucha
barran ca
ĠÃ¡l varez
Ġanchaykachaq kunatan
Ġodisi w
ĠÑĢ Ð¾Ñģ
champa gne
Ġdamas ku
arsen al
Ġqhur qhi
Ġqhucha pampa
Ġasam blea
Ġlito ral
Ġchikus luwakya
marin ayuq
Ġfac tura
Ġkhir kinchu
Ġvolu me
Ġocciden tal
Ġreunion chÃ¶
sapan ka
ĠquÃŃ mica
isik lita
Ġflam en
Ġhamps hire
baut ista
ĠcaÃ± ete
juj uy
Ġminutu manta
Ġawstral yapi
Ġyuyarikunayki chejpaj
ÙĥØ±ÙĬ Ùħ
Ġnikomidya manta
rÃ©nÃ© es
Ġreither manmi
ephes uyuqkunapaq
Ġalumin yu
Ġcres po
Ġulli ru
Ġarms trong
Ġjeric Ã³
ephan ti
norman die
Ġbrook lyn
Ġnikudi mu
jme gen
piap Ã³
llakusi m
katiguriyan naq
Ġtyim pu
siast Ã©s
cibÃ³r z
ĠgÃ©n esis
huacha pÃ¡n
Ġfonta ine
Ġwend ling
olno k
Ġempi re
Ġreum Ã¡tica
Ġodr ÃŃa
Ġaltami rano
antÃ¡n amo
aquet Ã¡
Ġzud Ã¡Ã±ez
Ġnordr hein
ĠcamagÃ¼ ey
Ã¸tterÃ¸ y
! ',
, (
, /
- )
. '
. ),
0 25
2 19
2 16
2 31
3 24
3 80
3 48
5 20
5 65
5 85
5 89
6 10
6 47
6 46
6 76
7 10
7 24
7 32
7 46
8 18
8 15
8 99
9 51
9 54
= >
a go
a kunawan
a mara
a kunatapas
a pim
a ceae
a tucha
b asqa
b ang
b ÄĽ
c ani
c ancha
c ko
c tica
d mi
d yan
d asqa
d rum
d Ã¶
d Äģ
e as
e co
e me
e ria
e qha
e jta
f una
f el
f iy
f fa
f ono
f luminense
g ano
g onz
h l
h wan
h apaq
h le
h arqan
h ernando
i e
i an
i ray
i kunayuq
i tam
i Ã³
i kwa
i gi
i tay
i wru
i pana
i kayuq
i liktrun
i llampu
i Ã¢nia
j uni
j ir
j ona
j ing
j Ä«
k tam
k min
k Ê¼
l ul
l apaq
l Ã¡
l ÃŃ
l isi
m g
m ispa
m ÃŃ
m uya
n on
n apay
n oso
o mi
o ur
p lin
p lan
p ukun
p je
p ron
p tera
q mi
q or
r d
r anta
r amp
s la
s tr
s wana
t li
t tin
t ray
t ukun
t res
t Ã¤
u chi
u wi
u paq
u pampa
u dia
u miÃ±a
u llantaytampu
v res
w ch
w na
w olfgang
y ri
y niyuq
y pin
z sa
ª ŀ
° è
´ ª
¾ ³
¾ ħ
Ä Ł
Å ¾
Å ĭ
Ñ ĳ
× ĳ
á ŀ
å °
å ¾
æ µ·
ç ¾ħ
è ªŀ
Ġ usqu
Ġ Ð¾
Ġ Ã£
Ġ Ðº
Ġ oqo
Ġ ËĪ
Ġ á»į
ĥ ¡
Ħ Ľ
ļ ĩ
an anta
an ca
an na
an cho
an chanta
ch h
ch oq
ch uyuq
ch ero
ch Ã£
ta puy
ta yaqaqa
ta kupaya
qa mi
qa cha
qa paq
ll on
ll uni
ll uqsi
ll ensis
un d
un manta
un quta
ay lla
ay may
ay kunapi
ay rayku
ay tapas
pi lli
pi Ã±i
pi win
pi llku
pi mampiru
Ġk ulla
in tam
in ÃŃa
in kinakuy
aq manta
aq kunapaq
aq kunataq
una pi
is ki
is nin
is tin
is kuy
is yapi
is mos
is kuma
pa wan
pa llu
pa llan
pa xi
pa llpa
pa dre
pa ulo
Ġs c
Ġs vi
Ġs Ã©
Ġs Ã¨
Ġs cienci
wa chkan
wa tana
wa mani
wa sqanta
kuna kta
kuna chÃ¶
uy aya
mi hiku
ri es
ri jssel
Ġll lank
ti kunata
ti ana
ti um
ti tis
ti yaq
ti ziano
Ġh anqa
Ġh Ãº
Ġh ik
Ġh im
Ġh ei
Ġh usi
Ġp ÃŃ
Ġp anan
Ġp Ã¤
cha la
cha da
cha sapa
ya ta
ya chinapaq
man pis
lla mi
lla wi
lla kuy
lla has
lla manmi
lla ry
lla paqmi
lla kwash
Ġka i
Ġka chis
Ġka rahu
Ġka mpana
ku h
ku p
ku riya
ku ram
Ġllaq u
Ġwa chay
Ġwa ha
Ġwa Ã±a
Ġwa waq
Ġwa kiq
Ġwa chuq
Ġwa wanpas
Ġwa lay
Ġwa kap
Ã± aqha
ka si
ka pinuta
ka Ã±amu
Ġq oq
Ġq ish
Ġ( '
Ġ( ?)
Ġa ar
Ġa dri
Ġa panku
Ġa kata
Ġa rupi
Ġa maya
Ġa berdeen
Ġn Ã¼r
Ġn elson
Ġr m
Ġr ho
Ġllaqta kunan
Ġllaqta tapas
Ġllaqta mantam
uq tin
uq yaynin
Ġch is
Ġch uy
Ġch en
Ġch ec
Ġch eng
ur ayku
ur des
ur nu
ur uqutu
ur nal
uk h
uk hun
uk tiyuq
qan tay
qan kichu
ki o
ki cha
ki mo
Ġm osqo
wan kichis
wan kayuq
wan aqri
Ġma sqa
Ġma maq
Ġma ce
Ġma las
Ġma Ã±an
Ġma kara
Ġma qasqa
Ġma wka
Ġma mitan
Ġma dagaskar
Ġma piri
Ġsi li
Ġsi mun
Ġsi pin
Ġsi me
Ġsi chuan
ru b
ru da
ru mas
ru llensis
Ġnisqa kunapaq
Ġnisqa suy
Ġpa co
Ġpa mp
Ġpa tr
Ġpa jÃ¡n
Ġpa Ã±anpi
Ġpa pwa
Ġpa tampuku
Ġd espa
manta Ã±a
manta raq
Ġwata sta
as manta
as hi
anqa paq
anqa taq
anqa taqa
anqa tapas
chi cha
chi qan
chi ru
chi kunapaq
chi kunqa
Ġt ana
Ġt hi
Ġt Ãº
Ġt est
Ġi kuna
Ġi ks
Ġi llwa
Ġi yunmi
Ġi bn
Ġi tuwata
Ġsimi kunap
Ġsimi tawan
Ġsimi kunapas
Ġsimi kunaman
Ġsimi llatam
ĠÃ± inki
ĠÃ± usta
Ġhuk ni
Ġhuk llan
ar ta
ar ish
nin niyuq
nin kuwan
nin asuyu
nin gs
Ġri kay
Ġri ran
Ġri kunapaq
Ġri ver
wi m
wi qi
am uq
am isqa
am ina
am be
li co
li mÃ³n
Ġsuyu taq
Ġsuyu pura
Ġki pu
Ġki pru
Ġki gali
Ġruna chus
Ġruna taqmi
on s
on to
on tario
iq tan
Ġkay kunamanta
Ġkay tapas
Ġkay kunataq
Ġmama ta
Ġmama kamachiy
pas un
Ġya u
Ġya cu
Ġya panku
Ġya payta
Ġya rawi
Ġya cuma
kun in
kun ana
kun iku
kun ichu
kun turi
kun tisuyus
tu li
tu chkaq
tu kachi
Ġqh or
Ġqh esa
Ġqh apana
Ġsu iz
Ġsu Éµyuq
Ġsu harto
si m
si to
si cos
si kuwani
paq pa
paq tan
Ġha ag
Ġha milton
Ġ- ).
Ġ2 13
ill in
ill es
ill ayki
ill anmi
Ġchay achisqa
yu j
yu qalla
chu qa
chu co
chu pampa
Ġpi chasqa
Ġpi rini
Ġpi tsqa
taq chu
co c
co u
co y
co losenses
co urt
Ġj al
Ġj anan
Ġj ia
Ġj usi
Ġj ila
chay ki
chay shina
er t
er bury
Ġman t
Ġman chasqa
Ġman dam
ul d
ul us
en c
la u
la chay
Ġkilla p
Ġkilla pas
Ġwi ya
Ġwi ka
Ġwi kipi
Ġwi tichi
qu is
qu wi
qu tu
qu chu
qu riya
qu im
tin e
Ġb iya
Ġb erto
Ġb ambi
Ġb Ã¡sica
may na
Ġqa llay
Ġqa tana
Ġqa ruma
Ġqa Ã±iwa
Ġpruwinsya wan
ana ri
ana ki
ana wan
ana kunam
Ġta t
Ġta kay
Ġta taj
Ġta mb
Ġta mpi
Ġc d
Ġc es
Ġc Ã³
Ġc uli
Ġc Ãº
Ġc lo
Ġc ena
Ġqillqa ri
Ġqillqa piqa
Ġqu tus
Ġqu taqayta
Ġqu riyunka
Ġy aq
Ġy anta
Ġy aqu
Ġy aqha
Ġy ukay
Ġsuti kunata
kay taqa
kay hina
gu ri
gu es
[...]
