{"<s>":0,"<pad>":1,"</s>":2,"<unk>":3,"<mask>":4,"!":5,"\"":6,"#":7,"$":8,"%":9,"&":10,"'":11,"(":12,")":13,"*":14,"+":15,",":16,"-":17,".":18,"/":19,"0":20,"1":21,"2":22,"3":23,"4":24,"5":25,"6":26,"7":27,"8":28,"9":29,":":30,";":31,"<":32,"=":33,">":34,"?":35,"@":36,"A":37,"B":38,"C":39,"D":40,"E":41,"F":42,"G":43,"H":44,"I":45,"J":46,"K":47,"L":48,"M":49,"N":50,"O":51,"P":52,"Q":53,"R":54,"S":55,"T":56,"U":57,"V":58,"W":59,"X":60,"Y":61,"Z":62,"[":63,"\\":64,"]":65,"^":66,"_":67,"`":68,"a":69,"b":70,"c":71,"d":72,"e":73,"f":74,"g":75,"h":76,"i":77,"j":78,"k":79,"l":80,"m":81,"n":82,"o":83,"p":84,"q":85,"r":86,"s":87,"t":88,"u":89,"v":90,"w":91,"x":92,"y":93,"z":94,"{":95,"|":96,"}":97,"~":98,"¡":99,"¢":100,"£":101,"¤":102,"¥":103,"¦":104,"§":105,"¨":106,"©":107,"ª":108,"«":109,"¬":110,"®":111,"¯":112,"°":113,"±":114,"²":115,"³":116,"´":117,"µ":118,"¶":119,"·":120,"¸":121,"¹":122,"º":123,"»":124,"¼":125,"½":126,"¾":127,"¿":128,"À":129,"Á":130,"Â":131,"Ã":132,"Ä":133,"Å":134,"Æ":135,"Ç":136,"È":137,"É":138,"Ê":139,"Ë":140,"Ì":141,"Í":142,"Î":143,"Ï":144,"Ð":145,"Ñ":146,"Ò":147,"Ó":148,"Ô":149,"Õ":150,"Ö":151,"×":152,"Ø":153,"Ù":154,"Ú":155,"Û":156,"Ü":157,"Ý":158,"Þ":159,"ß":160,"à":161,"á":162,"â":163,"ã":164,"ä":165,"å":166,"æ":167,"ç":168,"è":169,"é":170,"ê":171,"ë":172,"ì":173,"í":174,"î":175,"ï":176,"ð":177,"ñ":178,"ò":179,"ó":180,"ô":181,"õ":182,"ö":183,"÷":184,"ø":185,"ù":186,"ú":187,"û":188,"ü":189,"ý":190,"þ":191,"ÿ":192,"Ā":193,"ā":194,"Ă":195,"ă":196,"Ą":197,"ą":198,"Ć":199,"ć":200,"Ĉ":201,"ĉ":202,"Ċ":203,"ċ":204,"Č":205,"č":206,"Ď":207,"ď":208,"Đ":209,"đ":210,"Ē":211,"ē":212,"Ĕ":213,"ĕ":214,"Ė":215,"ė":216,"Ę":217,"ę":218,"Ě":219,"ě":220,"Ĝ":221,"ĝ":222,"Ğ":223,"ğ":224,"Ġ":225,"ġ":226,"Ģ":227,"ģ":228,"Ĥ":229,"ĥ":230,"Ħ":231,"ħ":232,"Ĩ":233,"ĩ":234,"Ī":235,"ī":236,"Ĭ":237,"ĭ":238,"Į":239,"į":240,"İ":241,"ı":242,"Ĳ":243,"ĳ":244,"Ĵ":245,"ĵ":246,"Ķ":247,"ķ":248,"ĸ":249,"Ĺ":250,"ĺ":251,"Ļ":252,"ļ":253,"Ľ":254,"ľ":255,"Ŀ":256,"ŀ":257,"Ł":258,"ł":259,"Ń":260,"an":261,"ch":262,"ta":263,"qa":264,"ll":265,"un":266,"ay":267,"pi":268,"Ġk":269,"in":270,"aq":271,"una":272,"ma":273,"is":274,"pa":275,"Ġs":276,"wa":277,"kuna":278,"uy":279,"mi":280,"ri":281,"Ġll":282,"ti":283,"Ġh":284,"Ġp":285,"cha":286,"ya":287,"man":288,"lla":289,"Ġka":290,"ku":291,"Ġllaq":292,"Ġwa":293,"Ã±":294,"ka":295,"Ġq":296,"Ġ(":297,"Ġa":298,"Ġn":299,"Ġr":300,"Ġllaqta":301,"uq":302,"isqa":303,"Ġch":304,"ur":305,"uk":306,"us":307,"qan":308,"ki":309,"Ġm":310,"wan":311,"Ġma":312,"Ġsi":313,"ru":314,"Ġnisqa":315,"Ġpa":316,"ap":317,"uyu":318,"Ġd":319,"manta":320,"Ġwata":321,"Ġ1":322,"as":323,"anqa":324,"chi":325,"Ġt":326,"Ġi":327,"Ġsimi":328,"ĠÃ±":329,"Ġhuk":330,"ar":331,"nin":332,"Ġri":333,"wi":334,"am":335,"li":336,"Ġsuyu":337,"Ġki":338,"rqan":339,"Ġruna":340,"Ġnisqaqa":341,"on":342,"iq":343,"Ġkay":344,"ra":345,"sqa":346,"ruw":347,"yuq":348,"Ġmama":349,"pas":350,"Ġya":351,"kun":352,"tu":353,"Ġqh":354,"Ġsu":355,"si":356,"paq":357,"Ġllaqtapi":358,"ina":359,"uma":360,"Ġha":361,"Ġ-":362,"Ġ2":363,"ill":364,"es":365,"Ġchay":366,"yu":367,"chu":368,"Ġpi":369,"taq":370,"co":371,"Ġj":372,"chay":373,"ĠÃ±iq":374,"er":375,"ins":376,"Ġman":377,"ul":378,"en":379,"ĠÃ±iqin":380,"la":381,"Ġkilla":382,"Ġwi":383,"qu":384,"tin":385,"ruwins":386,"Ġsimipi":387,"Ġb":388,"ruwinsya":389,"may":390,"Ġqa":391,"âĢ":392,"kunata":393,"Ġwatapi":394,"Ġpruwinsya":395,"os":396,"ana":397,"Ġkillapi":398,"Ġta":399,"Ġqill":400,"kuy":401,"risqa":402,"Ġc":403,"Ġqillqa":404,"sti":405,"apaq":406,"Ġqu":407,"Ġy":408,"Ġllaqtam":409,"Ġsuti":410,"kay":411,"gu":412,"Ġkarqan":413,"Ġllaqt":414,"ist":415,"Ġde":416,"Ġkan":417,"way":418,"chaw":419,"kama":420,"tun":421,"stilla":422,"or":423,"Ġllam":424,"Ġ19":425,"Ġay":426,"Ġas":427,"usqa":428,"ayuq":429,"Ġsutiyuq":430,"Ġllamk":431,"chis":432,"puy":433,"yan":434,"ha":435,"istri":436,"00":437,"Ġmana":438,"chasqa":439,"Ġan":440,"ws":441,"ray":442,"Ġuma":443,"di":444,"Ã±a":445,"Ġl":446,").":447,"Ġdistri":448,"ĠâĢ":449,"Ġllaqtanqa":450,"com":451,"Ġhawa":452,"Ġpacha":453,"al":454,"mon":455,"Ġicha":456,"Ġti":457,"el":458,"Ġkaq":459,"riya":460,"Ġpu":461,"Ġmi":462,"Ġrunakuna":463,"Ġin":464,"ci":465,"apuy":466,"Ġkaws":467,"ispa":468,"to":469,"hi":470,"Ã¡":471,"Ġsuyupi":472,"common":473,"ni":474,"commons":475,"Ġpaqa":476,"Ġall":477,"kch":478,"Ġcha":479,"chwa":480,"Ġdistritu":481,"tigu":482,"tiguriya":483,"kunayuq":484,"Ġg":485,"aqta":486,"kan":487,"ura":488,"inki":489,"Ġhatun":490,"anta":491,"dya":492,"kunapi":493,"chik":494,"kunayuqmi":495,"Ġsa":496,"Ġur":497,"pu":498,"Ġqalla":499,"Ġmul":500,"puynin":501,"lin":502,"timi":503,"Ġkapuynin":504,"pay":505,"ĠÃ±a":506,"Ġqhi":507,"Ġmultimi":508,"Ġmultimidya":509,"Ġkapuyninkunayuqmi":510,"Ġmay":511,"Ġ_":512,"ÃŃ":513,"Ġ3":514,"llu":515,"llan":516,"ĠwaÃ±":517,"Ġpaqarisqa":518,"Ġmun":519,"kastilla":520,"runa":521,"ro":522,"Ġpiruw":523,"isi":524,"Ġrur":525,"dar":526,"tam":527,"yanu":528,"Ġpay":529,"lindar":530,"Ġima":531,"Ġkalindar":532,"hu":533,"Ġru":534,"Ġis":535,"ran":536,"sqan":537,"spa":538,"Ġni":539,"llaqta":540,"sa":541,"Ġ\"":542,"Ġhina":543,"kunaqa":544,"re":545,"Ġkama":546,"uti":547,"kin":548,"Ġrikch":549,"Ġf":550,"Ġaswan":551,"llam":552,"wya":553,"Ġsan":554,"Ġqhapaq":555,"Ġqucha":556,"vi":557,"Ġli":558,"sh":559,"Ġkalindaryu":560,"Ġu":561,"Ġwan":562,"unchaw":563,"Ġyachay":564,"ca":565,"chin":566,"do":567,"Ġallin":568,"ukuy":569,"Ã³":570,"riy":571,"te":572,"Ġqhichwa":573,"pan":574,"mpa":575,"Ã©":576,"Ġmar":577,"rqa":578,"da":579,"tan":580,"Ġpruwinsyapi":581,"Ġrunaqa":582,"Ġqha":583,"na":584,"lli":585,"Ġrimay":586,"ĠÃ±aw":587,"lu":588,"chiy":589,"chan":590,"Ġqallarisqa":591,"kipi":592,"Ġdi":593,"chawwan":594,"Ġchi":595,"uli":596,"Ġkalindaryukama":597,"),":598,"kuq":599,"Ġ18":600,"Ġhu":601,"Ġ5":602,"llamk":603,"Ġchun":604,"Ġ/":605,"Ġtu":606,"Ġwar":607,"Ġkastilla":608,"Ġun":609,"Ġnispa":610,"Ġyacha":611,"Ġwataqa":612,"01":613,"chkan":614,"chaq":615,"Ġpuk":616,"Ġla":617,"diya":618,"has":619,"maq":620,"Ġama":621,"kunan":622,"ĠwaÃ±usqa":623,"Ġ(*":624,"Ġpar":625,"kunap":626,"katiguriya":627,"kipidiya":628,"Ġtukuy":629,"aymi":630,"Ġmayu":631,"piqa":632,"Ġhul":633,"Ġuy":634,"mana":635,"Ġkiti":636,"ĠâĢİ":637,"Ġllaqtayuq":638,"Ġhay":639,"pun":640,"isip":641,"Ġpuq":642,"pe":643,"Ġwikipidiya":644,"kunam":645,"Ġhulyanu":646,"isipyu":647,"Ġwatam":648,"uliwya":649,"Ġlli":650,"yki":651,"yta":652,"Ġkatiguriya":653,"Ġway":654,"Ġkun":655,"Ġwilla":656,"aya":657,"ris":658,"asqa":659,"Ġw":660,"Ġmunisipyu":661,"Ġ,":662,"pis":663,"chiq":664,"Ġraymi":665,"Ġhin":666,"ol":667,"ut":668,"Ġwak":669,"rayku":670,"Ġkuti":671,"Ġiskay":672,"hasku":673,"19":674,"Ġchhasku":675,"Ġyu":676,"Ġ4":677,"chus":678,"llachasqa":679,"Ã³n":680,"Ġhan":681,"Ġpuquy":682,"taqa":683,"Ġv":684,"Ġe":685,"llay":686,"go":687,"rika":688,"Ġkawsay":689,"mar":690,"suyu":691,"tawan":692,"anku":693,"Ġpus":694,"ani":695,"Ġwasi":696,"Ġriku":697,"Ġ200":698,"kh":699,"ara":700,"mp":701,"oq":702,"Ġllaqtap":703,"Ġati":704,"Ġre":705,"chka":706,"Ġqillqakuna":707,"ulla":708,"Ġbuliwya":709,"inkikuna":710,"kunamanta":711,"unt":712,"Ġyura":713,"de":714,"Ġjes":715,"all":716,"âĨ":717,"Ġdios":718,"Ġra":719,"wqa":720,"Ġchunka":721,"iti":722,"tiku":723,"Ġurqu":724,"le":725,"Ġmus":726,"lliq":727,"Ġ201":728,"Ġlla":729,"rin":730,"huk":731,"kwa":732,"Ġ:":733,"ptin":734,"Ġham":735,"Ġllaqtan":736,"niyuq":737,"Ġayllu":738,"min":739,"chun":740,"hina":741,"Ġo":742,"pampa":743,"Ġriman":744,"Ġinti":745,"Ġ6":746,"Ġkatiguriyapi":747,"qi":748,"Ġco":749,"Ġhanaq":750,"âĨĲ":751,"ninmi":752,"um":753,"Ġ(âĨĲ":754,"mayu":755,"Ġes":756,"Ġmamallaqta":757,"Ġancha":758,"litiku":759,"Ġami":760,"qay":761,"Ġwarmi":762,"Ġpukyu":763,"dur":764,"Ġgri":765,"lan":766,"Ġar":767,"uru":768,"Ġrunakunam":769,"ĠÂ":770,"Ã±i":771,"Ãº":772,"Ġkus":773,"ayki":774,"Ġqillqasqa":775,"ĠâĢĵ":776,"Ġchas":777,"Ġtiyan":778,"unqa":779,"Ã±ay":780,"urin":781,"Ġumalliq":782,"llka":783,"Ġamirika":784,"Ġhukllachasqa":785,"Ġsuyukuna":786,"wiki":787,"Ġju":788,"Ġnin":789,"usqu":790,"lo":791,"san":792,"Ġuk":793,"aspa":794,"kuspa":795,"Ġmit":796,"raq":797,"kunatam":798,"Ġro":799,"Ġpulitiku":800,"chisqa":801,"mama":802,"hin":803,"rqanku":804,"Ġyupay":805,"Ġchin":806,"Ġ)":807,"Ġpukyuta":808,"aynin":809,"Ġtar":810,"anpaq":811,"tapas":812,"kray":813,"Ġhayt":814,"il":815,"kunawan":816,"Ġal":817,"Ġnisqapi":818,"ba":819,"uyuq":820,"sin":821,"Ġmuna":822,"Ġrima":823,"qh":824,"chÃ¡":825,"rum":826,"Ġja":827,"Ġmikh":828,"Ġkanqa":829,"niy":830,"Ġmis":831,"Ġwatamanta":832,"mara":833,"llanwa":834,"lis":835,"sun":836,"china":837,"luta":838,"mun":839,"Ġastawan":840,"Ġpha":841,"apusqa":842,"ari":843,"gur":844,"Ġlliw":845,"Ġ15":846,"Ġ7":847,"kis":848,"ant":849,"war":850,"Ġwakllanwa":851,"Ã¡n":852,"Ġqan":853,"Ġmarka":854,"ĠÃ±awpaq":855,"bo":856,"llqa":857,"pacha":858,"iya":859,"kra":860,"kunapas":861,"kunapaq":862,"Ġruwa":863,"Ġsutin":864,"ja":865,"uspa":866,"Ġqhulla":867,"Ġ9":868,"Ġlima":869,"pin":870,"Ġvi":871,"Ġanta":872,"Ġtaki":873,"za":874,"Ġsin":875,"Ġimay":876,"200":877,"tal":878,"Ġsach":879,"cia":880,"kisqa":881,"Ã±u":882,"kwadur":883,"Ġriq":884,"Ġse":885,"ce":886,"Ġ8":887,"ga":888,"Ġgrigur":889,"ve":890,"Ġllaqtanmi":891,"Ġ17":892,"Ġqulla":893,"Ġyuy":894,"se":895,"mayuq":896,"Ġsay":897,"ninpi":898,"che":899,"isqan":900,"Ġkawsa":901,"Ã±aw":902,"ras":903,"yay":904,"tapi":905,"Ġachka":906,"Ġca":907,"Ġku":908,"Ġpun":909,"Ġchaymanta":910,"ne":911,"aqu":912,"rirqan":913,"Ġpusaq":914,"Ġgriguryanu":915,"kunaman":916,"ter":917,"18":918,"yun":919,"han":920,"va":921,"takuna":922,"qo":923,"llataq":924,"Ġyala":925,"Ġparki":926,"anakuy":927,"anqaman":928,"unchay":929,"Ġpro":930,"llapa":931,"čĊ":932,"mur":933,"tina":934,"bi":935,"Ġaya":936,"Ġsaq":937,"Ġkachkan":938,"Ġruraq":939,"qhapaq":940,"uya":941,"Ġqullasuyu":942,"Ġhukchasqa":943,"Ġyaku":944,"10":945,"Ġhap":946,"llapi":947,"Ġna":948,"):":949,"Ġqusqu":950,"Ġqillqaq":951,"du":952,"ĠâĢł":953,"ÃŃa":954,"Ġchakra":955,"bli":956,"pipas":957,"ec":958,"yuqmi":959,"Ġ12":960,"Ġllaqtaqa":961,"Ġtari":962,"Ġkawsaq":963,"chua":964,"Ġikwadur":965,"Ġat":966,"Ġtuku":967,"ho":968,"qanku":969,"Ġmanam":970,"su":971,"Ġ[":972,"Ġran":973,"simi":974,"apan":975,"..":976,"Ġdistrito":977,"Ġwawa":978,"que":979,")\"":980,"muq":981,"\",":982,"Ġquchamanta":983,"Ġkaru":984,"uni":985,"llanu":986,"aqmi":987,"Ġdistritum":988,"Ġpachapi":989,"Ġqhaway":990,"Ġtayta":991,"Ġ0":992,"mo":993,"Ġkasti":994,"kichis":995,"Ġ14":996,"gi":997,"Ġkunan":998,"Ġwatap":999,"Ġispa":1000,"taj":1001,"Ġpe":1002,"liman":1003,"Ġrimaq":1004,"Ġmusuq":1005,"me":1006,"Ġanti":1007,"Ġichaqa":1008,"Ġphatakuna":1009,"Ġinka":1010,"Ġkasqan":1011,"ir":1012,"Ġkastillanu":1013,"Ġkitilli":1014,"Ġmitrum":1015,"hiku":1016,"quy":1017,"chkanku":1018,"anchay":1019,"hun":1020,"rwa":1021,"ww":1022,"ninta":1023,"kchunqa":1024,"Ġchuq":1025,"anan":1026,"qucha":1027,"kaq":1028,"Ġsuy":1029,"ber":1030,"Ġ16":1031,"puni":1032,"kunatapas":1033,"ispi":1034,"peci":1035,"Ġwat":1036,"untur":1037,"kus":1038,"Ġdy":1039,"illay":1040,"Ġkamayuq":1041,"tay":1042,"Ġchan":1043,"riq":1044,"Ġ10":1045,"Ġno":1046,"Ġuywa":1047,"Ġuq":1048,"Ġrimaykuna":1049,"kuykuna":1050,"Ġdistritupi":1051,"ph":1052,"15":1053,"piruw":1054,"Ġwatakama":1055,"wikis":1056,"pecies":1057,"Ġsuntur":1058,"anqayuqmi":1059,"llur":1060,"Ġawya":1061,"wikispecies":1062,"Ġkarqa":1063,"iy":1064,"org":1065,"Ġsuyum":1066,"Ġawqa":1067,"Ġkap":1068,"apusqakuna":1069,"sapaq":1070,"Ġsanta":1071,"ama":1072,"ĠÃ±awpa":1073,"Ġallpa":1074,"rus":1075,"Ġkamachi":1076,"bya":1077,"ayku":1078,"Ġdel":1079,"Ġkanta":1080,"Ġkash":1081,"12":1082,"mu":1083,"isa":1084,"uraq":1085,"Ê¼":1086,"Ġnirqan":1087,"Ġsut":1088,"âĢı":1089,"Ġlu":1090,"Ġchu":1091,"ral":1092,"Ġyachaq":1093,"taqmi":1094,"Ġquy":1095,"Ġmu":1096,"Ġkawsachkanku":1097,"ea":1098,"Ġkall":1099,"Ġyana":1100,"17":1101,"Ġ13":1102,"aykipaq":1103,"it":1104,"Ġ199":1105,"Ġkm":1106,"cen":1107,"Ġ.":1108,"Ġkim":1109,"tri":1110,"ĠkÃ±":1111,"Ġba":1112,"pus":1113,"llun":1114,"Ġkaqmanta":1115,"ton":1116,"Ġ198":1117,"mus":1118,"qhi":1119,"xi":1120,"pasqa":1121,"16":1122,"Ġchani":1123,"Ġrimanku":1124,"asqan":1125,"anakuna":1126,"Ġqillqasqan":1127,"Ġllan":1128,"tuwa":1129,"Ġllaqtapiqa":1130,"ke":1131,"Ġkichwa":1132,"Ġmanan":1133,"Ġph":1134,"Ġpiluta":1135,"gen":1136,"Ġaymara":1137,"aqa":1138,"th":1139,"Ġlaya":1140,"cion":1141,"Ġkris":1142,"mantam":1143,"witu":1144,"Ġwaq":1145,"siya":1146,"manakuy":1147,"qaqa":1148,"Ġ*":1149,"Ġsapa":1150,"Ġrunakunap":1151,"Ġwakllanwatam":1152,"Ã±iq":1153,"talya":1154,"Ġkikin":1155,"par":1156,"anqakuna":1157,"Ġkantaray":1158,"âĢ¡":1159,"ĠâĢİâĢ¡":1160,"anqamanta":1161,"14":1162,"osÃ©":1163,"13":1164,"pata":1165,"wqar":1166,"Ġpiruwpi":1167,"ĠÂ¿":1168,"Ġhun":1169,"Ġmas":1170,"kunaq":1171,"chisqan":1172,"ancha":1173,"Ġsiq":1174,"isirwa":1175,"niyki":1176,"Ġ).":1177,"Ġaliman":1178,"Ġkanku":1179,"acha":1180,"Ġgu":1181,"Ġbi":1182,"000":1183,"Ġqhawa":1184,"tiq":1185,"vin":1186,"Ġsituwa":1187,"quwiki":1188,"Ġper":1189,"Ġ20":1190,"wru":1191,"Ġ194":1192,"Ġhinallataq":1193,"ĠwaÃ±u":1194,"kuta":1195,"Ġrisirwa":1196,"Ġchaniyuq":1197,"20":1198,"Ġatin":1199,"kiy":1200,"ima":1201,"uylla":1202,"Ġchayqa":1203,"Ġwall":1204,"Ġ197":1205,"uqsi":1206,"Ġak":1207,"Ġyan":1208,"Ġel":1209,"Ġtarpuy":1210,"Ġlliwmanta":1211,"Ġchaw":1212,"pim":1213,"Ġpawqar":1214,"Ġkas":1215,"ern":1216,"Ġdiospa":1217,"ayllu":1218,"Ġtikray":1219,"Ġuyar":1220,"Ġchur":1221,"ria":1222,"Ġwakin":1223,"ik":1224,"Ġne":1225,"Ġkamachiy":1226,"Ġ11":1227,"chana":1228,"aska":1229,"Ġque":1230,"Ġus":1231,"Ġsun":1232,"Ġle":1233,"chuka":1234,"kurqan":1235,"ĠispaÃ±a":1236,"tur":1237,"Ġ196":1238,"po":1239,"dad":1240,"ucha":1241,"Ġrun":1242,"Ġqhipaq":1243,"ĠwiÃ±":1244,"Ġjina":1245,"Ġqull":1246,"chuk":1247,"Ġcar":1248,"âĢİ":1249,"Ġtiyanku":1250,"waq":1251,"Ġquyllur":1252,"wk":1253,"tas":1254,"Ġsumaq":1255,"Ġsallqa":1256,"riway":1257,"Ġuru":1258,"hintina":1259,"Ġllaqtakuna":1260,"ĠwiÃ±ay":1261,"Ġqallarirqan":1262,"qun":1263,"Ġchaymi":1264,"Ġruraqpa":1265,"Ġitalya":1266,"inkisqa":1267,"ciÃ³n":1268,"iyapu":1269,"marka":1270,"Ġjesus":1271,"Ġpuchuka":1272,"ver":1273,"ju":1274,"kha":1275,"kuchu":1276,"Ġcon":1277,"inkimuq":1278,"Ġtikraykuna":1279,"Ġllank":1280,"Ġwaray":1281,"Ġtiya":1282,"las":1283,"paqa":1284,"suti":1285,"inkimuqkuna":1286,"urqan":1287,"Ġqi":1288,"Ġkantun":1289,"muray":1290,"dia":1291,"kikin":1292,"be":1293,"Ġchaypi":1294,"Ġari":1295,"Ġmaq":1296,"hukllachasqa":1297,"pam":1298,"Ġawqaq":1299,"Ġkh":1300,"itikuna":1301,"Ġrumi":1302,"Ġllapa":1303,"Ġrunap":1304,"ankupaq":1305,"ayta":1306,"ista":1307,"tup":1308,"Ġaymuray":1309,"fi":1310,"qaq":1311,"Ġyapuy":1312,"Ġsinchi":1313,"ĠÃ±u":1314,"ayllupaq":1315,"ark":1316,"Ġatiy":1317,"cu":1318,"Ġllapan":1319,"Ġ195":1320,"Ġayriway":1321,"Ġpampa":1322,"Ġ24":1323,"llaq":1324,"say":1325,"ano":1326,"Ġurin":1327,"dro":1328,"im":1329,"manu":1330,"Ġpuchukarqan":1331,"Ġmo":1332,"Ġukhu":1333,"qhichwa":1334,"Ġkur":1335,"Ġrunam":1336,"Ġqillqay":1337,".,":1338,"Ġmishiku":1339,"no":1340,"Ġen":1341,"Ġ22":1342,"Ġaw":1343,"Ġrimanapaq":1344,"Ġnisqakunaqa":1345,"Ã±awra":1346,"Ġprovin":1347,"Ġcre":1348,"anankuna":1349,"akuykuna":1350,"kusqa":1351,"Ġqispi":1352,"mayninpi":1353,"qalla":1354,"rasil":1355,"kuyuylla":1356,"Ġmarkapi":1357,"sach":1358,"Ġrikuriy":1359,"11":1360,"uyan":1361,"Ġ25":1362,"lish":1363,"Ġprovincia":1364,"arqan":1365,"marq":1366,"Ġkimsa":1367,"Ġhampi":1368,"Ġsimin":1369,"Ġtik":1370,"Ġrunasimi":1371,"Ġtawa":1372,"Ø§":1373,"anchik":1374,"tikray":1375,"araq":1376,"Ġ23":1377,"tikraynin":1378,"isk":1379,"muy":1380,"ĠhuÃ±":1381,"Ġyalapi":1382,"Ġmin":1383,"cas":1384,"ati":1385,"Ġqatiq":1386,"Ġ31":1387,"Ġayamarq":1388,"wasi":1389,"Ġpur":1390,"Ġkaspa":1391,"mb":1392,"chqa":1393,"Ġ193":1394,"ita":1395,"Ġaran":1396,"Ġqarqan":1397,"Ġpuchuk":1398,"ÃŃn":1399,"ii":1400,"ukun":1401,"ento":1402,"Ġrunakunata":1403,"Ġruway":1404,"Ġyuyay":1405,"Ġkaptin":1406,"amp":1407,"io":1408,".[":1409,"anqaqa":1410,"Ġpisi":1411,"icha":1412,"ko":1413,"Ġ30":1414,"Ġapu":1415,"Ġmunan":1416,"jo":1417,"Ġkuyu":1418,"Ġcu":1419,"Ġlo":1420,"chej":1421,"Ġ28":1422,"Ġlicen":1423,"Ġchuqiyapu":1424,"uqta":1425,"Ġwaqa":1426,"ona":1427,"Ġfa":1428,"bel":1429,"pura":1430,"Ġkristup":1431,"tis":1432,"kunku":1433,"Ġcas":1434,"Ġumalliqnin":1435,"Ġransiya":1436,"25":1437,"willka":1438,"Ġpruwinsyam":1439,"uku":1440,"yuyuq":1441,"Ġhunt":1442,"Ġpas":1443,"ĠÃ±awpan":1444,"Ġquechua":1445,"sisqa":1446,"ĠâĢ¢":1447,"Ġkanqaku":1448,"Ġkalindaryuyuq":1449,"run":1450,"Ġson":1451,"Ġwaman":1452,"unchawninmi":1453,"car":1454,"kusqan":1455,"Ġichataq":1456,"Ġpuka":1457,"jina":1458,"dor":1459,"Ġkasqa":1460,"Ġllaqtakunapi":1461,"Ġrit":1462,"ena":1463,"Ġunquy":1464,"Ġhinaspa":1465,"mpi":1466,"yapi":1467,"kamam":1468,"chispa":1469,"Ġjuan":1470,"res":1471,"Ġsal":1472,"anqapi":1473,"Ġkutitam":1474,"Ġanqa":1475,"publi":1476,"shar":1477,"Ġatipa":1478,"Ġqo":1479,"Ġrurasqa":1480,"31":1481,"tiyay":1482,"Ġsuyup":1483,"Ġpachan":1484,"Ġrap":1485,"Ġchanta":1486,"Ġme":1487,"Ġpuchukaynin":1488,"yaq":1489,"Ġje":1490,"Ġnisqan":1491,"Ġchurin":1492,"aswan":1493,"Ġchask":1494,"trib":1495,"zo":1496,"Ġchayrayku":1497,"akuna":1498,"ĠjosÃ©":1499,"he":1500,"vo":1501,"kas":1502,"ritu":1503,"Ġyapasqa":1504,"unchawqa":1505,"paj":1506,"Ġnis":1507,"Ġpunu":1508,"fa":1509,"Ġchanin":1510,"ÙĦ":1511,"Ġpin":1512,"Ġjesusqa":1513,"Ġchaq":1514,"Ġ21":1515,"ge":1516,"ĠÃ±awi":1517,"Ġz":1518,"Ġyaw":1519,"Ġaranway":1520,"pikchunqa":1521,"Ġkul":1522,"aqtin":1523,"Ġbo":1524,"Ġruwan":1525,"Ġkalindaryupi":1526,"Ã«":1527,"uychi":1528,"ĠÃ±an":1529,"Ġmanaraq":1530,"Ġdyus":1531,"ata":1532,"Ġrepubli":1533,"piluta":1534,"Ġnina":1535,"kuynin":1536,"Ġ26":1537,"Ġcommons":1538,"kiq":1539,"qipa":1540,"ero":1541,"Ġwillay":1542,"Ġnu":1543,"Ġarhintina":1544,"Ġpuchukayninkama":1545,"rist":1546,"wanmi":1547,"Ġkanayuq":1548,"Ġsaqillay":1549,"liku":1550,"Ġyachachiy":1551,"llo":1552,"Ġyawar":1553,"Ġallinta":1554,"ĠiÃ±i":1555,"kuyta":1556,"hatun":1557,"Ġwillakuna":1558,"Ġlicense":1559,"Ġphi":1560,"Ã±or":1561,"Ġsimita":1562,"Ġllimp":1563,"uyanchasqa":1564,"Ġkaynin":1565,"Ġhinan":1566,"28":1567,"Ġpo":1568,"Ġ29":1569,"Ġwillasun":1570,"Ġcor":1571,"ĠperÃº":1572,"ia":1573,"Ġchaskinki":1574,"âĸ":1575,"Ġqillqataqa":1576,"ative":1577,"27":1578,"ks":1579,"Ġllaqtamanta":1580,"ĠsuÃ±ay":1581,"Ġhukchasqakuna":1582,"Ġcreative":1583,"Ġrunakunaqa":1584,"ution":1585,"Ġuni":1586,"tt":1587,"like":1588,"Ġrepublika":1589,"Ġwillka":1590,"kunataqa":1591,"Ġurqum":1592,"inkisqapi":1593,"Ġwillasunaykipaq":1594,"apuypaq":1595,"Ġattrib":1596,"ĠphatakunachÃ¡":1597,"ealike":1598,"sharealike":1599,"Ġsaqillaykamam":1600,"Ġattribution":1601,"unchawpi":1602,"Ġwaranqa":1603,"24":1604,"201":1605,"50":1606,"Ġto":1607,"mayukuna":1608,"Ġwakllanwatapi":1609,"Ġ27":1610,"so":1611,"ene":1612,"Ġbu":1613,"kunataq":1614,"llata":1615,"Ġillapa":1616,"Ġchayta":1617,"ps":1618,"kar":1619,"Ġdo":1620,"ampa":1621,"Ġllu":1622,"chuq":1623,"Ġyachan":1624,"gar":1625,"ino":1626,"ent":1627,"Ġchawpi":1628,"Ġhinam":1629,"Ġkacha":1630,"Ġmuyu":1631,"waÃ±":1632,"wata":1633,"Ġamaru":1634,"killa":1635,"Ġbrasil":1636,"alan":1637,"inkikunata":1638,"400":1639,"Ġso":1640,"Ġche":1641,"Ġriqsisqa":1642,"des":1643,"tukuy":1644,"Ġap":1645,"Ġruru":1646,"Ġfran":1647,"30":1648,"Ġpan":1649,"manmi":1650,"âĸº":1651,"22":1652,"rio":1653,"Ġhark":1654,"Ġjisk":1655,"Ġpayta":1656,")âĢİ":1657,"mis":1658,"Ã©n":1659,"den":1660,"Ġbe":1661,"Ġor":1662,"cho":1663,"Ġyupaykuna":1664,"Ġwaqay":1665,"Ġqhari":1666,"Ġkalindaryukamataq":1667,"rikch":1668,"illu":1669,"Ġbar":1670,"tar":1671,"Ġpichqa":1672,"...":1673,"Ġtuk":1674,"Ġpaqari":1675,"Ġqullqi":1676,"lia":1677,"sapa":1678,"Ġ2001":1679,"Ġtanta":1680,"Ġpikchunqa":1681,"Ġtiksi":1682,"anqakunam":1683,"ĠÃ±o":1684,"Ġmancha":1685,"kamasqa":1686,"Ġchinchay":1687,"www":1688,"21":1689,"fe":1690,"utuqsi":1691,"26":1692,"ika":1693,"Ġsuyukunapi":1694,"Ġmikhun":1695,"Ġqar":1696,"tion":1697,"ĠmaÃ±a":1698,"mantaqa":1699,"aymara":1700,"wrupa":1701,"][":1702,"api":1703,"win":1704,"Ġsimimanta":1705,"Ġkillachawwan":1706,"rÃŃ":1707,"Ġintichawwan":1708,"hawa":1709,"bot":1710,"Ġwasin":1711,"Ġapa":1712,"Ġda":1713,"Ġjan":1714,"Ġahina":1715,"Ġpara":1716,"asa":1717,"Ġtakiq":1718,"askachawwan":1719,"tata":1720,"Ġyuraq":1721,"Ġalli":1722,"niyoq":1723,"Ġantikunapi":1724,"uychichawwan":1725,"Ġkrus":1726,"tia":1727,"Ġquyllurchawwan":1728,"Ġillapachawwan":1729,"dri":1730,"nu":1731,"Ġwaki":1732,"Ġqanchis":1733,"Ġatipachawwan":1734,"Ġindi":1735,"Ġalimanya":1736,"29":1737,"quechua":1738,"ĠiÃ±iy":1739,"qill":1740,"apay":1741,"tir":1742,"cio":1743,"Ġlatin":1744,"Ġyay":1745,"ykichis":1746,"23":1747,"Ġpayqa":1748,"Ġchili":1749,"Ġsuqta":1750,"Ġhall":1751,"Ġara":1752,"Ġsimikunatam":1753,"Ġjuk":1754,"Ġsuyun":1755,"Ġte":1756,"Ġrik":1757,"Ġqillqaypi":1758,"ruwan":1759,"qallariy":1760,"Ġamachaq":1761,"punku":1762,"llana":1763,"Ġmon":1764,"Ġqhe":1765,"ĠÃ±ak":1766,"ariy":1767,"chuy":1768,"Ġayllun":1769,"inkimun":1770,"ĠÂ·":1771,"Ġtaripay":1772,"paqarisqa":1773,"les":1774,"Ã¶":1775,"Ġpedro":1776,"tura":1777,"tilla":1778,"Ġkasqanta":1779,"Ã±am":1780,"chirqan":1781,"Ġand":1782,"Ġwanka":1783,"Ġwarmiqa":1784,"tor":1785,"Ġmall":1786,"Ġpachak":1787,"Ġjatun":1788,"Ġimayna":1789,"Ġanqash":1790,"Ã©s":1791,"Ġkusi":1792,"Ġkashan":1793,"ck":1794,"osqa":1795,"qusqu":1796,"Ġkananpaq":1797,"Ġpachakwa":1798,"Ġbuliwyapi":1799,"anqamanqa":1800,"kunapa":1801,"Ġjeho":1802,"cul":1803,"sis":1804,"ĠiÃ±u":1805,"chinapaq":1806,"Ġwalla":1807,"Ġwatakuna":1808,"rimanakuy":1809,"Ġyaqa":1810,"don":1811,"Î±":1812,"kura":1813,"ere":1814,"buliwya":1815,"tra":1816,"Ġtiyaq":1817,"cis":1818,"los":1819,"uÃ±i":1820,"Ġsaywitu":1821,"qe":1822,"Ã¤":1823,"Ġpaykunata":1824,"Ġaswanta":1825,"Ġariqipa":1826,"yana":1827,"llwa":1828,"Ġkanman":1829,"Ġchaski":1830,"Ġwalltay":1831,"apa":1832,"Ã¼":1833,"Ġpata":1834,"Ãºs":1835,"\".":1836,"wayi":1837,"Ã±an":1838,"cional":1839,"partam":1840,"Ġmachu":1841,"Ġtant":1842,"Ġrimanakuy":1843,"Ġpis":1844,"Ġjall":1845,"ĠseÃ±or":1846,"waÃ±usqa":1847,"bu":1848,"gua":1849,"Ġutaq":1850,"qin":1851,"ruwanu":1852,"mas":1853,"iskay":1854,"aspan":1855,"Ġmunay":1856,"pusapusqa":1857,"pitaq":1858,"Ġyachachiq":1859,"Ġpukllay":1860,"gel":1861,"mpu":1862,"var":1863,"Ġamachasqa":1864,"ez":1865,"nintin":1866,"ninqa":1867,"Ġrunas":1868,"insuyu":1869,"kaymi":1870,"pur":1871,"tuy":1872,"Ġmaqanakuy":1873,"apu":1874,"osa":1875,"Ġwaw":1876,"Ġtin":1877,"Ġruray":1878,"Ġach":1879,"Ġkancha":1880,"ĠØ":1881,"Ġpuri":1882,"Ġhucha":1883,"allpa":1884,"gra":1885,"llasqa":1886,"Ġkachun":1887,"istritu":1888,"tampu":1889,"Ġchunwa":1890,"Ġpachantin":1891,"Ġtantanakuy":1892,"Ġpapa":1893,"kupi":1894,"Ġkayta":1895,"latir":1896,"tus":1897,"inlish":1898,"Ġmunisipyupi":1899,"Ġuralan":1900,"Ġpaykunaqa":1901,"Ġkapchiy":1902,"Ġamarumayu":1903,"partamento":1904,"eni":1905,"Ġqay":1906,"Ġyur":1907,"ham":1908,"kuman":1909,"tes":1910,"Ġsap":1911,"anapaq":1912,"Ġiwrupa":1913,"ĠwaÃ±uy":1914,"Ġtarinki":1915,"Ġsonqo":1916,"Ġsam":1917,"Ġmillay":1918,"aki":1919,"urqu":1920,"Ġpiruwanu":1921,"ÃŃo":1922,"Ġuj":1923,"80":1924,"Ġkani":1925,"Ġesta":1926,"Ġriqsi":1927,"tari":1928,"Ġkuy":1929,"tiy":1930,"Ġpipas":1931,"Ġkanki":1932,"latirra":1933,"Ġx":1934,"Ġpiruwpa":1935,"Ġpukllaq":1936,"Ġjallp":1937,"gus":1938,"kunqa":1939,"Ġ),":1940,"Ġninchik":1941,"Ġrimasqa":1942,"Ġsuyukunata":1943,"bre":1944,"ÙĬ":1945,"erto":1946,"Ġromanu":1947,"wanpas":1948,"Ġjunt":1949,"Ġpaykuna":1950,"Ġof":1951,"Ġllimph":1952,"Ġindihina":1953,"tr":1954,"Ġwallapi":1955,"Ġtawan":1956,"Ġ190":1957,"Ġkamasqa":1958,"Ġwayra":1959,"Ġwin":1960,"Ġuyarina":1961,"katiguriyakuna":1962,"Ġmikhuna":1963,"tro":1964,"Î¿":1965,"Ð¸":1966,"wana":1967,"Ġyanapa":1968,"musuq":1969,"Ġpurin":1970,"Ġlos":1971,"Ġdyuspa":1972,"versi":1973,",[":1974,"gal":1975,"chkaq":1976,"inti":1977,"mantapas":1978,"Ġkanan":1979,"Ġmisk":1980,"cal":1981,"pruwinsya":1982,"cos":1983,"kantin":1984,"Ġkapuq":1985,"tiago":1986,"land":1987,"Ġhunu":1988,"Ġmawk":1989,"Ġdepartamento":1990,"Ġchiqa":1991,"kuwan":1992,"Ġkulum":1993,"arin":1994,"lay":1995,"kuyu":1996,"unya":1997,"Ġrus":1998,"âĢĻ":1999,"Ġtay":2000,"pana":2001,"Ġjo":2002,"con":2003,"Ġpuriy":2004,"Ġunu":2005,"ram":2006,"llin":2007,"tinpi":2008,"amachasqa":2009,"Ġbibli":2010,"Ġraphi":2011,"Ġau":2012,"Ġrunallaqta":2013,"elqa":2014,"Ġga":2015,"Ġkaymantam":2016,"hay":2017,"tad":2018,"Ġqillqan":2019,"Ġroma":2020,"Ġuyarinakunatapas":2021,"dios":2022,"Ġgrigu":2023,"erqa":2024,"Ġllaki":2025,"Ð°":2026,"Ġcant":2027,"Ġ189":2028,"Ġllika":2029,"mir":2030,"Ġniyta":2031,"Ġphu":2032,"aspi":2033,"Ġmanu":2034,"Ġyun":2035,"olo":2036,"tiqaqa":2037,"Ġimata":2038,"Ġchunkantin":2039,"ĠjesÃºs":2040,"Ġchaskisqa":2041,"Ġhur":2042,"Ġwamp":2043,"ninkuna":2044,"enos":2045,"Ġquchapampa":2046,"40":2047,"60":2048,"ak":2049,"muyu":2050,"wri":2051,"ish":2052,"kur":2053,"Ġwiki":2054,"Ġpisqu":2055,"tinsuyu":2056,"yachay":2057,"Ġkar":2058,"Ġqaqa":2059,"Ġpruwinsyap":2060,"Ġkamachiq":2061,"kunanpaq":2062,"Ġkurku":2063,"Ġkulumbya":2064,"thu":2065,"ĠÃ±it":2066,"latin":2067,"199":2068,"drid":2069,"distritu":2070,"aqkuna":2071,"Ġkawsan":2072,"Ġrey":2073,"ampusqa":2074,"inka":2075,"Ġnisqataq":2076,"Ġrurasqan":2077,"ĠmarÃŃa":2078,"Ġdiosqa":2079,"Ġ2007":2080,"ĠwiÃ±aq":2081,"saywitu":2082,"mawk":2083,"Ġpor":2084,"Ġqam":2085,"Ġkanchu":2086,"Ġpuriq":2087,"via":2088,"Ġkallpan":2089,"Ġahinataq":2090,"blo":2091,"Ġpusampusqa":2092,"Ġimarayku":2093,"Ġmamallaqtapi":2094,"ed":2095,"Ġho":2096,"lima":2097,"guel":2098,"Ġwasipi":2099,"tana":2100,"Ġraki":2101,"Ġair":2102,"Ġsir":2103,"ĠÃ±iqi":2104,"osqo":2105,"arqa":2106,"38":2107,"for":2108,"Ġkaus":2109,"Ġab":2110,"Ġchinka":2111,"et":2112,"Â¿":2113,"Ġcom":2114,"Ġshi":2115,"chinku":2116,"Ġhallch":2117,");":2118,"//":2119,"kichu":2120,"Ã±awpaq":2121,"Ġhi":2122,"yaku":2123,"Ã±o":2124,"Ġwatapis":2125,"hallka":2126,"risqan":2127,"Ġval":2128,"Ġsunturnin":2129,"wanqa":2130,"Ġpirqa":2131,"chispaq":2132,"ing":2133,"kamay":2134,"Ġrimana":2135,"rur":2136,"à¤":2137,"kaws":2138,"Ġpik":2139,"Ġqhipa":2140,"Ġaires":2141,"tos":2142,"Ġmur":2143,"ĠhuÃ±u":2144,"Ġhinaspan":2145,"Ø§ÙĦ":2146,"Ġpakay":2147,"qui":2148,"Ġut":2149,"era":2150,"kana":2151,"Ġash":2152,"Ġ2013":2153,"lantilla":2154,"Ġimaymana":2155,"://":2156,"Ġtaq":2157,"Ġchunkawata":2158,"aqucha":2159,"risto":2160,"Ġestado":2161,"llis":2162,"Ġwawan":2163,"uqu":2164,"Ġwatakunaqa":2165,"Ġaycha":2166,"Ġyachaykuna":2167,"pedia":2168,"Ġsunqu":2169,"bur":2170,"Ġjam":2171,"ang":2172,"Ġanton":2173,"chiyta":2174,"ikr":2175,"Ġusa":2176,"35":2177,"Ġwatayuq":2178,"Ġrunata":2179,"Ġparti":2180,"47":2181,"uchu":2182,"kurqa":2183,"ĠâĢĺ":2184,"cisco":2185,"Ġkaypi":2186,"Ġinlis":2187,"Ġkasha":2188,"per":2189,"Ġkamay":2190,"Ġchallwa":2191,"oj":2192,"Ġinlatirra":2193,"Ġkamachin":2194,"por":2195,"chas":2196,"45":2197,"naq":2198,"wra":2199,"manchu":2200,"oni":2201,"39":2202,"Ġpul":2203,"Ġ187":2204,"32":2205,"ros":2206,"yoq":2207,"ando":2208,"âĢ¢":2209,"Ġfi":2210,"inakuy":2211,"chanapaq":2212,"uta":2213,"Ġqucham":2214,"emp":2215,"htt":2216,"Ġqun":2217,"chinchay":2218,"Ġruwasqa":2219,"Ã±iqi":2220,"iru":2221,"tataq":2222,"Ġrin":2223,"Ġpala":2224,"Ġinter":2225,"Ġuku":2226,"36":2227,"Ġnisqamanta":2228,"Ġchayam":2229,"Ġwis":2230,"asuyu":2231,"Ġfern":2232,"Ġvilla":2233,"iku":2234,"llas":2235,"Ġ2018":2236,"ĠhuÃ±una":2237,"Ġwamani":2238,"Ġantonio":2239,"santa":2240,"tsi":2241,"Ð¾":2242,"llpa":2243,"kim":2244,"Ġgar":2245,"Ġuyari":2246,"Ġkitim":2247,"Ġnacional":2248,"anmi":2249,"ash":2250,"Ġhawan":2251,"Ġjach":2252,"Ġuniversi":2253,"ĠcantÃ³n":2254,"Î¹":2255,"Ġsar":2256,"Ġmadrid":2257,"panku":2258,"Ġhuch":2259,"Ġhunin":2260,"dal":2261,"anti":2262,"Ġlluqsi":2263,"chiri":2264,"hua":2265,"Ġwayna":2266,"Ġnobel":2267,"sal":2268,"tÃ¡":2269,"paya":2270,"Ġhayk":2271,"Ġtakichaq":2272,"pak":2273,"Ã±ul":2274,"tinmi":2275,"Ġci":2276,"thuliku":2277,"Ġxi":2278,"kara":2279,"Ġwillakuy":2280,"Ġana":2281,"Ġhuklla":2282,"Ġkawsanku":2283,"pro":2284,"qsi":2285,"rispa":2286,"anka":2287,"Ġwati":2288,"Ġsimitam":2289,"Ġrikuy":2290,"Ġsutichasqa":2291,"Ġmikhuq":2292,"kta":2293,"aykuna":2294,"kurqanku":2295,"Ġllaqtaman":2296,"usqan":2297,"rata":2298,"Ġmunisipyupiqa":2299,"olÃŃ":2300,"Ġruwasqan":2301,"Ġqillqaqmi":2302,"Ġmast":2303,"70":2304,"psi":2305,"qha":2306,"Ġsara":2307,"was":2308,"Ġwas":2309,"waya":2310,"bar":2311,"nam":2312,"Ġnas":2313,"asta":2314,"ninmanta":2315,"ulu":2316,"Ġcam":2317,"landa":2318,"Ġukhun":2319,"Ġwankawillka":2320,"Ġimaraykuchus":2321,"https":2322,"\")":2323,"ry":2324,"mari":2325,"chikilla":2326,"Ġsutiyuqqa":2327,"Ġsantu":2328,"dy":2329,"josÃ©":2330,"lor":2331,"uc":2332,"Ġ=":2333,"Ġpatapi":2334,"Ġrikun":2335,"paqmi":2336,"Ġwakcha":2337,"46":2338,"wu":2339,"tawa":2340,"llanta":2341,"Ã±uq":2342,"Ġsantiago":2343,"ini":2344,"isuy":2345,"rimay":2346,"Ġkachka":2347,"uqucha":2348,"Ġwanuku":2349,"Ġmayum":2350,"gri":2351,"pha":2352,"qon":2353,"chaymi":2354,"Ġanka":2355,"berto":2356,"49":2357,"allam":2358,"fo":2359,"Ġqur":2360,"Ġnisqawan":2361,"Ġnisqapas":2362,"Ġchaywan":2363,"suy":2364,"ĠÎ":2365,"manqa":2366,"Ġnisqam":2367,"ĠmanaÃ±a":2368,"Ã¡s":2369,"je":2370,"jes":2371,"Ġkin":2372,"tiyanu":2373,"Ġkitipi":2374,"Ġaq":2375,"Ġon":2376,"and":2377,"Ġser":2378,"Ġlluq":2379,"Ġmanchay":2380,"Ġ186":2381,"cel":2382,"eo":2383,"kunas":2384,"uksi":2385,"ĠÃ±iqpi":2386,"Ġaskha":2387,"lub":2388,"kunanku":2389,"Ġkunti":2390,"chunka":2391,"Ġkamachikuy":2392,"Ġpachakwata":2393,"Ġchaskirqan":2394,"33":2395,"men":2396,"Ġkachi":2397,"Ġdis":2398,"Ġmuni":2399,"ble":2400,"son":2401,"Ġkuraq":2402,"Ġtun":2403,"Ġfe":2404,"Ġrunaq":2405,"Ùħ":2406,"kacha":2407,"Ġtor":2408,"Ġmiguel":2409,"Ġ188":2410,"198":2411,"Ġperu":2412,"Ġpikchu":2413,"gan":2414,"Ð²":2415,"ayniy":2416,"Ġwaran":2417,"Ġmanataq":2418,"teo":2419,"quchakuna":2420,"44":2421,"ÙĨ":2422,"wak":2423,"usa":2424,"gov":2425,"Ġwillkachasqa":2426,"purqan":2427,"ts":2428,"yku":2429,"anay":2430,"Ġkathuliku":2431,"Ġnisqata":2432,"wikuna":2433,"genus":2434,"Ġjehova":2435,"ei":2436,"gos":2437,"tiya":2438,"chaqa":2439,"chaymanta":2440,"Ġsaywa":2441,"tayta":2442,"ĠÃ±isqa":2443,"law":2444,"hika":2445,"Ġukhupi":2446,"rimaq":2447,"Ġhuwan":2448,"Ġmallkiq":2449,"pio":2450,"Ġkaw":2451,"2006":2452,"ji":2453,"phi":2454,"rina":2455,"umir":2456,"Ġpapam":2457,"piruwpi":2458,"achi":2459,"cer":2460,"khu":2461,"Ïģ":2462,"Ġjap":2463,"zoo":2464,"imay":2465,"kina":2466,"anchan":2467,"kam":2468,"Ġqelqa":2469,"Ġapay":2470,"Ġmor":2471,"ninku":2472,"Ġyaya":2473,"Ġsanto":2474,"qayku":2475,"Ġayakuchu":2476,"llisin":2477,"Ġimatapas":2478,"rez":2479,"Ġkunka":2480,"Ġnew":2481,"lam":2482,"ten":2483,"zar":2484,"chayuq":2485,"Ġinlish":2486,"Ġnirqa":2487,"Ġkallpa":2488,"ĠÃ±oqa":2489,"akun":2490,"Ø¯":2491,"Ġam":2492,"aran":2493,"Ġqara":2494,"kaypi":2495,"Ġtitiqaqa":2496,"Ġkaqta":2497,"Ġanchata":2498,"orge":2499,"bas":2500,"kachi":2501,"ninwan":2502,"espi":2503,"Ġpruwinsyapiqa":2504,"Ġyachachisqan":2505,"ykita":2506,"Ġ2009":2507,"Ġrunasimipi":2508,"48":2509,"para":2510,"Ġram":2511,"Ġmaki":2512,"ong":2513,"Ġqui":2514,"Ġminist":2515,"Ġmunici":2516,"llisinchi":2517,"aw":2518,"ÙĪ":2519,"Ġwari":2520,"Ġsichus":2521,"ĠiÃ±":2522,"aris":2523,"Ġwik":2524,"Ġber":2525,"Ġpukll":2526,"Ġjesusta":2527,"can":2528,"das":2529,"Ã±as":2530,"Ġangel":2531,"Ġespi":2532,"ikwadur":2533,"upa":2534,"Ðµ":2535,"kush":2536,"ardo":2537,"allampa":2538,"wat":2539,"paqpas":2540,"Ġtakin":2541,"Ġkarqanku":2542,"Ġlas":2543,"Ġmiray":2544,"Ġaswanpas":2545,"Ġllimphiq":2546,"78":2547,"Ġdere":2548,"Ġmarkus":2549,"isuyla":2550,"ven":2551,"Ġher":2552,"Ġnisqap":2553,"arqanku":2554,"Ġtiemp":2555,"Ġhinaqa":2556,"Ġyachaywasi":2557,"Ġunq":2558,"ĠispaÃ±ul":2559,"Ġbuenos":2560,"Ġyuram":2561,"gna":2562,"uch":2563,"Ġ2016":2564,"41":2565,"der":2566,"ĠkaÃ±":2567,"Ġmos":2568,"Ġquri":2569,"Ġ2008":2570,"âĨĳ":2571,"Ġ2010":2572,"aytu":2573,"Ġthe":2574,"Ġtuta":2575,"allin":2576,"Ġchanka":2577,"qen":2578,"ine":2579,"chayta":2580,"Ġkusa":2581,"Ġfrancisco":2582,"mishiku":2583,"ipi":2584,"pusqa":2585,"Ã£":2586,"ĠÏ":2587,"Ġkura":2588,"Ġpp":2589,"chasqan":2590,"Ġtus":2591,"Ġqullqa":2592,"Ġyor":2593,"Ġpuerto":2594,"kunapiqa":2595,"Ġjesuspa":2596,"Ġchincha":2597,"Ġimayay":2598,"qillqa":2599,"''":2600,"43":2601,"Ġsaya":2602,"Ġhara":2603,"Ġlipis":2604,"Î½":2605,"Ġpanta":2606,"lista":2607,"2005":2608,"Ġtiyachkan":2609,"at":2610,"maqta":2611,"Ġkum":2612,"ĠrÃŃo":2613,"Ġ185":2614,"Ġkuska":2615,"Ġluis":2616,"Ġpinchikilla":2617,"Ġtawantinsuyu":2618,"09":2619,"65":2620,"val":2621,"Ġsuni":2622,"llawan":2623,"Ġiman":2624,"ÃŃas":2625,"ayali":2626,"boo":2627,"Ġiwrupapi":2628,"aypaq":2629,"Ġpaka":2630,"wiÃ±ay":2631,"Ġchaki":2632,"Ġdomin":2633,"__":2634,"aliman":2635,"ota":2636,"ÏĤ":2637,"ripi":2638,"tika":2639,"qanqa":2640,"alle":2641,"raqmi":2642,"fran":2643,"milia":2644,"Ġabya":2645,"Ġmasi":2646,"chili":2647,"chikun":2648,"Ġtur":2649,"ose":2650,"Ġ35":2651,"Ġchiri":2652,"Ġfernando":2653,"tre":2654,"Ġsupay":2655,"kunapipas":2656,"Ġchim":2657,"Ġ2014":2658,"Ġinlisya":2659,"Ġkashamarka":2660,"ban":2661,"puna":2662,"Ġchura":2663,"Ġisqun":2664,"Ġkawsaykuq":2665,"chakuq":2666,"arhintina":2667,"Ġgo":2668,"Ġkamachina":2669,"Ġwasikuna":2670,"Ġrikusqa":2671,"Ġ2015":2672,"Ġkhuy":2673,"cultad":2674,"ikrasqa":2675,"sta":2676,"Ġsapan":2677,"Ġlloq":2678,"Ġpachaman":2679,"Ġnihun":2680,"Ġparis":2681,"juan":2682,"Ġfacultad":2683,"99":2684,"mer":2685,"rap":2686,"Ġwapsi":2687,"Ġsimikuna":2688,"kunchu":2689,"Ġcru":2690,"ĠÃ±awirin":2691,"Ã¯":2692,"mala":2693,"chaspa":2694,"Ġmakin":2695,"Ġrakin":2696,"Ġninku":2697,"ac":2698,"bal":2699,"dan":2700,"yn":2701,"Ġaws":2702,"Ġale":2703,"ruchiri":2704,"encia":2705,"kawsay":2706,"Ġpukllaqmi":2707,"áĥ":2708,"Ġiskayniyuq":2709,"Ġ2006":2710,"warmi":2711,"Ġtukurqan":2712,"akuy":2713,"Ġrura":2714,"wanka":2715,"Ġbeni":2716,"Ġ2017":2717,"Ġumalliqninmi":2718,"wikipedia":2719,"Ġyanap":2720,"ĠwiÃ±an":2721,"Ġjanpi":2722,"olÃŃvar":2723,"Ø¨":2724,"Ġkaran":2725,"Ġpatan":2726,"eno":2727,"kuychis":2728,"Ġcer":2729,"Ġkupa":2730,"Ġcarlos":2731,"ae":2732,"van":2733,"Ðº":2734,"Ġaqu":2735,"tachus":2736,"Ġasi":2737,"Ġres":2738,"ĠwillaÃ±iqi":2739,"hanaq":2740,"Ġrimaqniyuq":2741,"ĠÃ±uqa":2742,"ĠÃ±uÃ±uq":2743,"ey":2744,"ela":2745,"unku":2746,"Ġpaul":2747,"Ġpachamanta":2748,"Ġkawsaynin":2749,"Ġhamuq":2750,"Ġhamut":2751,"Ġkitillipi":2752,"Ġllumpa":2753,"Ġkana":2754,"yasqa":2755,"manpas":2756,"Ġisra":2757,"Ġyachachi":2758,"Ã±awpa":2759,"Ġpunku":2760,"ikunayuqmi":2761,"mani":2762,"tupi":2763,"Ġhinata":2764,"Ġmartin":2765,"Ġunriya":2766,"ĠÂ¡":2767,"Ġpartidu":2768,"Ġmunicipio":2769,"books":2770,"achisqa":2771,"ĠiÃ±iq":2772,"Ġpiliku":2773,"erus":2774,"payki":2775,"punin":2776,"Ġedi":2777,"68":2778,"gas":2779,"ÏĦ":2780,"Ġhe":2781,"Ġqawa":2782,"Ġnir":2783,"Ġchaskin":2784,"Ġkristiyanu":2785,"Ġchaqllisinchi":2786,"ĠiÃ±uku":2787,"puq":2788,"sam":2789,"ĠØ§ÙĦ":2790,"rica":2791,"uki":2792,"Ġlaq":2793,"Ġhinataq":2794,"vid":2795,"risya":2796,"Ġyupan":2797,"Ġluritu":2798,"Ġdomingo":2799,")[":2800,"34":2801,"jta":2802,"nan":2803,"tasqa":2804,"inqa":2805,"Ġllap":2806,"ĠpuÃ±":2807,"Ġlib":2808,"chincha":2809,"Ġkunanqa":2810,"har":2811,"wis":2812,"zi":2813,"kamayuq":2814,"Ġpal":2815,"Ġchiqan":2816,"04":2817,"hn":2818,"sha":2819,"inec":2820,"Ġwillan":2821,"âĢĺ":2822,"chawpi":2823,"Ġwarmin":2824,"Ġunay":2825,"dis":2826,"puk":2827,"ayu":2828,"Ġpaw":2829,"kunapim":2830,"Ġup":2831,"lliw":2832,"raqucha":2833,"79":2834,"aman":2835,"ctor":2836,"tÃŃn":2837,"Åį":2838,"Ġllulla":2839,"Ġmuy":2840,"Ġmat":2841,"Ġth":2842,"Ġchak":2843,"risti":2844,"ĠÃ±awirinaykipaq":2845,"bam":2846,"Ð½":2847,"ÑĢ":2848,"Ġsus":2849,"Ġpuma":2850,"Ġsipi":2851,"hak":2852,"Ġhamun":2853,"chunwa":2854,"Ġmunasqan":2855,"muyun":2856,"dun":2857,"saq":2858,"sut":2859,"wisa":2860,"rit":2861,"Ġaph":2862,"Ġii":2863,"ary":2864,"ĠwaÃ±un":2865,"tanka":2866,"Ġrimaymi":2867,"Ġedu":2868,"ĠÂ«":2869,"Ġuyarispa":2870,"Ġyawyu":2871,"Ġbiblia":2872,"Ġshimi":2873,"à¦":2874,"Ġos":2875,"tara":2876,"Ġkawa":2877,"Ġir":2878,"rado":2879,"Ġsumaqta":2880,"Ġruwaq":2881,"Ġkuntur":2882,"Ġrakiy":2883,"iyi":2884,"Ġyork":2885,"37":2886,"iwa":2887,"Î»":2888,"pari":2889,"ente":2890,"Ġmill":2891,"Ġantikuna":2892,"07":2893,"uri":2894,"Ġchina":2895,"usaq":2896,"Ġsipas":2897,"Ġsuyupiqa":2898,"nia":2899,"net":2900,"06":2901,"eb":2902,"ichu":2903,"kusun":2904,"Ġsuma":2905,"dio":2906,"Ġpachata":2907,"elo":2908,"Ġ36":2909,"Ġcheqaq":2910,"Ġjehov":2911,"Ġkanchar":2912,"Ġaugus":2913,".)":2914,"ira":2915,"jan":2916,"Ġpat":2917,"wiya":2918,"tori":2919,"Ġdiosta":2920,"Ġninchikmi":2921,"Ġtiempo":2922,"siq":2923,"Ø±":2924,"Ġklub":2925,"Ġpre":2926,"apur":2927,"tum":2928,"Ġlon":2929,"Ġimapas":2930,"Ġrimayninmi":2931,"rikapi":2932,"Ġkawsayta":2933,"Ġyurakuna":2934,"munisipyu":2935,"Ġkitillipiqa":2936,"guna":2937,"Ġkalla":2938,"wik":2939,"Ġlampa":2940,"Ġge":2941,"ayakuchu":2942,"03":2943,"gro":2944,"ayniyki":2945,"Ġsur":2946,"Ġkamaq":2947,"wanchik":2948,"est":2949,"ĠwiÃ±a":2950,"Ġlin":2951,"Ġqallari":2952,"Ġmaypi":2953,"Ġjuch":2954,"murqan":2955,"Ġrimaqkuna":2956,"Ġchawpin":2957,"Ġkins":2958,"mantan":2959,"Ġkapun":2960,"usi":2961,"Ġmara":2962,"Ġmayqin":2963,"Ġquchapi":2964,"Ġiskaynintin":2965,"Ġregi":2966,"Ġespa":2967,"Ġtukukun":2968,"59":2969,"ger":2970,"Ġrosa":2971,"Ġtra":2972,"Ġtiyay":2973,"dos":2974,"ff":2975,"ty":2976,"chen":2977,"chikuq":2978,"Ġrikh":2979,"lio":2980,"kunanqa":2981,"chaykamay":2982,"wayuq":2983,"pulitiku":2984,"Ġpaymi":2985,"Ġkamarisqa":2986,"kurachina":2987,"Ġsapsi":2988,"Ġwinisuyla":2989,"erusal":2990,"51":2991,"gh":2992,"tral":2993,"anam":2994,"unchik":2995,"Ġshu":2996,"kumanta":2997,"Ġqon":2998,"qanchis":2999,"Ġpablo":3000,"tugal":3001,"tinqa":3002,"Ġisa":3003,"dez":3004,"ichaka":3005,"allpamanta":3006,"ykuna":3007,"kunalla":3008,"Ġkarum":3009,"Ġwatan":3010,"qanta":3011,"Ġmari":3012,"mantapacha":3013,"Ġthu":3014,"esa":3015,"Ġrimaykunap":3016,"Ġchiki":3017,"Ġvel":3018,"Ġsaqra":3019,"Ġrikhu":3020,"Ġtaytan":3021,"aj":3022,"bra":3023,"del":3024,"anchaq":3025,"kuptin":3026,"Ġmuru":3027,"Ġsiwikuna":3028,"Ġkaymi":3029,"qulla":3030,"Ġpaqarin":3031,"ĠÃ±awin":3032,"Ġkichwapi":3033,"Ġwaqachina":3034,"cto":3035,"ichana":3036,"ora":3037,"shi":3038,"Ïĥ":3039,"chanta":3040,"Ġpunchaw":3041,"kichwa":3042,"Ġbus":3043,"âĢĶ":3044,"orqa":3045,"Ġasyapi":3046,"Ġsuyupipas":3047,"chinqa":3048,"Ġwayllu":3049,"yunmi":3050,"Ġaklla":3051,"imayna":3052,"dyu":3053,"unki":3054,"wawa":3055,"wara":3056,"Ġpana":3057,"llaqa":3058,"Ġaf":3059,"wikipidiya":3060,"Ġsuyukunap":3061,"Ġrunakunaq":3062,"col":3063,"Ġrunakunaman":3064,"Ġgre":3065,"Ã©r":3066,"Ġyurakunap":3067,"ĠphiÃ±a":3068,"Ġmanuel":3069,"Ġpulunya":3070,"42":3071,"ullu":3072,"Ġhar":3073,"Ġchiq":3074,"apuna":3075,"tukuna":3076,"Ġcal":3077,"Ġsutipaq":3078,"Ġnirqanku":3079,"Ġliw":3080,"Ġ2011":3081,"ciones":3082,"Ġkinray":3083,"56":3084,"ze":3085,"Â»":3086,"Ġqallariy":3087,"ÃŃs":3088,"brasil":3089,"ayqa":3090,"Ġwaruchiri":3091,"Ġqe":3092,"Ġajina":3093,"Ġhukkunapas":3094,"Ġlan":3095,"ispaÃ±a":3096,"Ġqallarin":3097,"rans":3098,"ceae":3099,"Ġprofe":3100,"bert":3101,"Ġmaqana":3102,"Ġapurimaq":3103,"Ġboli":3104,"wit":3105,"ens":3106,"Ġllamp":3107,"Ġchaka":3108,"Ġkamachisqan":3109,"Ġchimpa":3110,"ĠarÃŃ":3111,"Ġmunaspa":3112,"Ġmask":3113,"Ġakllasqa":3114,"ĠhunuchÃ¡":3115,"kuyuchisqa":3116,"Ġtaqna":3117,"ron":3118,"taki":3119,"Ġhis":3120,"Ġplantilla":3121,"char":3122,"chakuna":3123,"Ġqespi":3124,"Ġmaman":3125,"asu":3126,"Ġchaylla":3127,"ula":3128,"Ġrurun":3129,"Ġrurana":3130,"Ġunancha":3131,"Ġwaqlli":3132,"Ġrunan":3133,"tuyis":3134,"Ġuniversidad":3135,"Ġnasyun":3136,"75":3137,"nes":3138,"Ġko":3139,"yaw":3140,"ninchik":3141,"Ġsuyuqa":3142,"Ġqhes":3143,"chista":3144,"Ġmira":3145,"196":3146,"Ġsirk":3147,"bri":3148,"hka":3149,"Ã§":3150,"Ñģ":3151,"Ġkuru":3152,"Ġwatakunapi":3153,"asco":3154,"chischu":3155,"Ġkawsari":3156,"chinchik":3157,"Ġchik":3158,"Ġjesuc":3159,"Ġlondon":3160,"Ġwayllukuq":3161,"08":3162,"dre":3163,"ip":3164,"Â¡":3165,"isya":3166,"kap":3167,"Ġnuna":3168,"tul":3169,"ayuqmi":3170,"Ã±achu":3171,"Ġurasuyu":3172,"Ġpaypa":3173,"Ġpruwinsyapipas":3174,"Ġqhali":3175,"Ġmusi":3176,"au":3177,"ces":3178,"lle":3179,"rida":3180,"Ġpaq":3181,"Ġnor":3182,"Ġpachaykamay":3183,"ninsi":3184,"Ġcristo":3185,"Ġquta":3186,"Ġkanmi":3187,"Ġruran":3188,"2010":3189,"Ġwaraniyi":3190,"Ġderech":3191,"Ġharawi":3192,"Ġpawlu":3193,".\"":3194,"05":3195,"85":3196,"ys":3197,"Ġsas":3198,"Ġpla":3199,"qanchi":3200,"chirqa":3201,"Ġter":3202,"ĠâĢĶ":3203,"Ġ2003":3204,"qillqaq":3205,"Ġayllunmi":3206,"bamba":3207,"ld":3208,"Â°":3209,"yacha":3210,"Ġqos":3211,"uqyay":3212,"Ġdu":3213,"Ġjay":3214,"Ġwiraqucha":3215,"Ġban":3216,"Ã¡r":3217,"Ġyupa":3218,"Ġrimasqan":3219,"Ġriqsin":3220,"Ġwawakuna":3221,"aqtinmi":3222,"Ġkuyuy":3223,"Ġyunka":3224,"02":3225,"cri":3226,"cre":3227,"eri":3228,"qosqo":3229,"Ġsapaq":3230,"karu":3231,"usillu":3232,"wanku":3233,"Ġwarma":3234,"Ġmunasqa":3235,"Ġranti":3236,"Ġuruwayi":3237,"Ġpatanpi":3238,"ala":3239,"Ð»":3240,"tasa":3241,"ninkunata":3242,"ĠbolÃŃvar":3243,"Ġurma":3244,"Ġtullu":3245,"Ġ2005":3246,"santin":3247,"Ġchaymantataq":3248,"Ġkamayuqnin":3249,"tionary":3250,"Ġpukllaykuna":3251,"Ġqaqatampu":3252,"burg":3253,"kimsa":3254,"akuq":3255,"mÃ¡n":3256,"Äģ":3257,"Ġsh":3258,"Ġad":3259,"Ġllaqtata":3260,"umalliq":3261,"Ġcan":3262,"kamarisqa":3263,"kancha":3264,"Ġpayman":3265,"llaqtakuna":3266,"Ġmunakuy":3267,"Ã±iqiq":3268,"Ġdavid":3269,"kunankupaq":3270,"90":3271,"jas":3272,"ĠĠ":3273,"Ġame":3274,"Ġjerusal":3275,"tinku":3276,"Ġgra":3277,"Ġwanku":3278,"Ġatuq":3279,"Ġbible":3280,"ĠispaÃ±api":3281,"Ġmishikupi":3282,"ĠhuÃ±usqa":3283,"Ġkumun":3284,"Ġkinsa":3285,"awya":3286,"ft":3287,"fec":3288,"rÃ©s":3289,"aypi":3290,"Ġniq":3291,"Ġchuk":3292,"illan":3293,"Ġchayna":3294,"chayrayku":3295,"Ġbuli":3296,"Ġispi":3297,"asqakuna":3298,"unchaypi":3299,"Ġjesustaq":3300,"Ġrusiya":3301,"rka":3302,"rana":3303,"Ġæ":3304,"tica":3305,"manan":3306,"urqa":3307,"Ġsimim":3308,"Ġger":3309,"Ġparl":3310,"Ġkusisqa":3311,"Ġchaninchasqa":3312,"55":3313,"71":3314,"niq":3315,"tillo":3316,"Ġqol":3317,"Ġrio":3318,"waylla":3319,"Ġgene":3320,"Ġish":3321,"Ġrikuspa":3322,"Ġpusaqninqa":3323,"gio":3324,"anchar":3325,"cua":3326,"Ġpisilla":3327,"',":3328,"fre":3329,"ix":3330,"plantilla":3331,"Îº":3332,"Ñĩ":3333,"wari":3334,"are":3335,"Ġriki":3336,"raykun":3337,"Ġpachamama":3338,"Ġmicha":3339,"Ġrunakunapaq":3340,"lum":3341,"Ġ2012":3342,"Ãºn":3343,"ayninta":3344,"2008":3345,"Ġkasqanrayku":3346,"Ġwallqanqa":3347,"Ġkantunpi":3348,"Ġsonqon":3349,"Ġbrasilpi":3350,"Ġarabya":3351,"Ġachkha":3352,"iri":3353,"wash":3354,"uro":3355,"usco":3356,"Ġmach":3357,"Ġilanda":3358,"kunman":3359,"Ġlor":3360,"kani":3361,"Ġuchuy":3362,"Ġmayukuna":3363,"Ġver":3364,"Ġpachakwatapi":3365,"Ġkallpanchaq":3366,"Ã£o":3367,"Ġyupanki":3368,"aka":3369,"mripi":3370,"chq":3371,"pita":3372,"wasqa":3373,"kiya":3374,"anqakunata":3375,"ard":3376,"Ġkayqa":3377,"tucha":3378,"espa":3379,"Ġtak":3380,"Ã±awi":3381,"Ġ34":3382,"Ġfo":3383,"Ġliwru":3384,"ptinmi":3385,"Ġyachaqsi":3386,"76":3387,"lap":3388,"pen":3389,"panta":3390,"qus":3391,"ren":3392,"tru":3393,"yo":3394,"Ġpaqta":3395,"Ġmel":3396,"Ġsimiqa":3397,"one":3398,"onz":3399,"Ġyarqa":3400,"Ġwira":3401,"Ġbil":3402,"mayo":3403,"Ġqallu":3404,"Ġwatapiqa":3405,"Ġrunakunapas":3406,"cial":3407,"ĠwaÃ±urqan":3408,"ario":3409,"2001":3410,"pusaq":3411,"Ġkantunmi":3412,"Ġachkiy":3413,"Ġisrael":3414,"akunam":3415,"à¸":3416,"chanqa":3417,"Ġnerqa":3418,"Ġnanay":3419,"kita":3420,"apuni":3421,"mantaq":3422,"asllapi":3423,"ninman":3424,"Ġchayman":3425,"wayku":3426,"kamaqa":3427,"chikpaq":3428,"vier":3429,"Ġ40":3430,"Ġ2004":3431,"duras":3432,"ĠâĢĵÂ¿":3433,"Ġmikhuy":3434,"Ġcali":3435,"ney":3436,"simikuna":3437,"Ġwaqya":3438,"illa":3439,"ng":3440,"tuyuq":3441,"inta":3442,"Ġqosqo":3443,"Ġwikch":3444,"Ġtata":3445,"oro":3446,"Ġkaqkunata":3447,"puka":3448,"Ġruranapaq":3449,"Ġkitip":3450,"uth":3451,"Ġraw":3452,"Ġurqukuna":3453,"Ġukayali":3454,"Ġllapallan":3455,"Ġawqan":3456,"ukunayuq":3457,"Ġwaqachiq":3458,"Ġmanchari":3459,"Ġchiqap":3460,"Ġqheswa":3461,"89":3462,"ich":3463,"iman":3464,"qispi":3465,"Îµ":3466,"Ġura":3467,"Ġpuna":3468,"rumi":3469,"ninchis":3470,"paspa":3471,"Ġuray":3472,"Ġqhawan":3473,"Ġpusapuna":3474,"Ġkaptinmi":3475,"olog":3476,"Ġwatimala":3477,"72":3478,"nas":3479,"ruru":3480,"utu":3481,"machu":3482,"wakin":3483,"Ġllaqtay":3484,"Ġuch":3485,"chanku":3486,"Ġyachachin":3487,"aniel":3488,"nobel":3489,"Ġpichqayuq":3490,"Ġqarq":3491,"amanta":3492,"mÃ³n":3493,"Ġsha":3494,"titu":3495,"kata":3496,"ĠpaÃ±a":3497,"arani":3498,"iqtay":3499,"sip":3500,"Ġwit":3501,"Ġbal":3502,"Ġ33":3503,"Ġ2002":3504,"Ġreq":3505,"unidad":3506,"Ġnoqa":3507,"ĠwiÃ±aypaq":3508,"ego":3509,"musqa":3510,"charqan":3511,"kichik":3512,"Ġmen":3513,"kunmi":3514,"villa":3515,"Ġ1990":3516,"Ġmikhunchik":3517,"Ġimaynatachus":3518,"Ġsol":3519,"rima":3520,"kusi":3521,"Ġmer":3522,"Ġmariya":3523,"ruma":3524,"Ġtri":3525,"Ġsuyumanta":3526,"Ġkiki":3527,"cor":3528,"cocha":3529,"mamallaqta":3530,"Ġphuyu":3531,"Ġsunqun":3532,"Ġloay":3533,"Ġraphin":3534,"familia":3535,"88":3536,"iÃ±i":3537,"sen":3538,"tuq":3539,"wt":3540,"isuyu":3541,"waman":3542,"warqan":3543,"tik":3544,"kuru":3545,"chikuy":3546,"paqqa":3547,"istan":3548,"Ġpachaku":3549,"Ġqallawa":3550,"Ġpaykunaman":3551,"rani":3552,"Ġcuer":3553,"Ġkachari":3554,"Ġqhepa":3555,"Ġespiritu":3556,"Ġloayza":3557,"akunata":3558,"Ġ000":3559,"Ġillan":3560,"ĠÃ±uq":3561,"Ġkaykunatam":3562,"Ġlar":3563,"Ġ32":3564,"chinam":3565,"Ġkitipiqa":3566,"Ġva":3567,"wikibooks":3568,"ituy":3569,"Ġkikinpa":3570,"grigu":3571,"Ġcruz":3572,"Ġrikhurin":3573,"tralya":3574,"tuk":3575,"tachu":3576,"kunachus":3577,"rik":3578,"llamanta":3579,"Ġchhi":3580,"Ġmasin":3581,"apun":3582,"aro":3583,"sir":3584,"esta":3585,"Ġcul":3586,"kamachiq":3587,"nihun":3588,"Ġfu":3589,"Ġyachachisqa":3590,"Ġdiosmanta":3591,"Ġcol":3592,"Ġrock":3593,"Ġgua":3594,"Ġtakiqmi":3595,"ĠhuÃ±unakuy":3596,"],":3597,"dra":3598,"Ġ'":3599,"mal":3600,"chata":3601,"Ġ(\"":3602,"ush":3603,"qantin":3604,"aptin":3605,"Ġiii":3606,"Ġchayri":3607,"Ġchaykunata":3608,"Ġayll":3609,"ales":3610,"Ġkaqlla":3611,"puri":3612,"panmi":3613,"Ġpuqu":3614,"deo":3615,"Ġqankuna":3616,"Ġqanchi":3617,"kaqpi":3618,"ĠØ¹":3619,"uchun":3620,"inas":3621,"Ġsuq":3622,"Ã±un":3623,"illim":3624,"Ġjuli":3625,"quia":3626,"Ġindya":3627,"Ġkuskan":3628,"seÃ±or":3629,"vado":3630,"Ġpukara":3631,"fael":3632,"llinmi":3633,"Ġchaywanpis":3634,"ĠramÃ³n":3635,"Ġmosoq":3636,"muyuntinpi":3637,"Ġgeneral":3638,"achinku":3639,"cÃŃa":3640,"gn":3641,"gun":3642,"imi":3643,"qaku":3644,"unkichis":3645,"kamaq":3646,"Ġmuq":3647,"Ġmuksi":3648,"Ġtan":3649,"Ġchaysi":3650,"erra":3651,"Ġwill":3652,"Ġqillqap":3653,"Ġyanqa":3654,"ord":3655,"Ġpuli":3656,"riyta":3657,"niyoj":3658,"quchapampa":3659,"amaru":3660,"Ġyawli":3661,"cay":3662,"muspa":3663,"Ġ;":3664,"pina":3665,"masi":3666,"Ġllut":3667,"usta":3668,"Ã±ataq":3669,"Ġpachaqa":3670,"alma":3671,"runakuna":3672,"Ġdiosmi":3673,"ariqipa":3674,"Ġyawri":3675,"Ġtukri":3676,"Ġtawantin":3677,"diospa":3678,"Ġqolqe":3679,"mpis":3680,"anchis":3681,"Ġkaykuna":3682,"yupi":3683,"Ġmanas":3684,"Ã±ari":3685,"Ġtupaq":3686,"chinakuna":3687,"tero":3688,"Ġkaptinqa":3689,"Ġanqas":3690,"ĠsuÃ±aytas":3691,"Ġkallawaya":3692,"dam":3693,"thi":3694,"uwa":3695,"Ã¨":3696,"Î·":3697,"llarqan":3698,"kul":3699,"Ġwach":3700,"Ġruk":3701,"pasqan":3702,"Ġsuwa":3703,"ĠmanaÃ±am":3704,"Ġuman":3705,"Ġemp":3706,"aykichispaq":3707,"ĠandrÃ©s":3708,"roso":3709,"celona":3710,"gnacio":3711,"eli":3712,"mos":3713,"Ġ+":3714,"chqantin":3715,"masin":3716,"Ġsina":3717,"mili":3718,"Ġacha":3719,"apo":3720,"Ġsimiman":3721,"Ġkanchik":3722,"Ġkankichis":3723,"Ġlaguna":3724,"Ġhanan":3725,"Ġmamallaqtap":3726,"Ġchaqr":3727,"fornia":3728,"tsik":3729,"Ġkumunista":3730,"ami":3731,"unapaq":3732,"Ġhuq":3733,"manam":3734,"kachay":3735,"Ġrayku":3736,"ampi":3737,"Ġhaw":3738,"Ġchaqa":3739,"Ġwaras":3740,"ankuta":3741,"Ġ2000":3742,"chkaptin":3743,"Ġkusituy":3744,"Ġrimarirqan":3745,"Ġparawayi":3746,"58":3747,"awqa":3748,"ex":3749,"gre":3750,"ikuna":3751,"kisi":3752,"Î¼":3753,"chaki":3754,"Ġtru":3755,"Ġcamp":3756,"Ġkaqwan":3757,"Ġchacha":3758,"Ġgi":3759,"Ġgran":3760,"Ġgonz":3761,"llanku":3762,"Ġyachayta":3763,"Ġparkipi":3764,"Ġkitillinmi":3765,"Ġmunisipyup":3766,"Ġmish":3767,"ĠantaÃ±iqiq":3768,"llataqmi":3769,"Ġikwadurpi":3770,"Ġrimaqninmi":3771,"Ġinkakunap":3772,"Ġmuch":3773,"Ġ1980":3774,"64":3775,"gon":3776,"llanakuy":3777,"Ġwaka":3778,"Ã±in":3779,"ĠaÃ±a":3780,"illaymi":3781,"stiriya":3782,"iste":3783,"kunapis":3784,"Ġ38":3785,"dae":3786,"marca":3787,"Ġatiq":3788,"itipi":3789,"ĠÃ±awpaqta":3790,"murqa":3791,"quyllur":3792,"Ġkimsantin":3793,"Ġatinchu":3794,"Ġruwayta":3795,"alimanya":3796,"bil":3797,"dru":3798,"quq":3799,"up":3800,"zco":3801,"Ġkuna":3802,"Ġsisa":3803,"Ġpuy":3804,"Ġpru":3805,"cham":3806,"yaqa":3807,"Ġwal":3808,"Ġpila":3809,"âĢĵ":3810,"Ġcara":3811,"Ġqillqarqan":3812,"Ġkaqqa":3813,"Ġputu":3814,"Ġmikhu":3815,"paykunaqa":3816,"Ġmayta":3817,"Ġquchap":3818,"Ġrimaypi":3819,"mpur":3820,"Ġsutinta":3821,"qhipaq":3822,"tisuyu":3823,"Ġllump":3824,"Ġwalltaypi":3825,"Ġwawqe":3826,"Ġunqusqa":3827,"53":3828,"74":3829,"ipa":3830,"kaqta":3831,"ymanta":3832,"Ġå":3833,"Ġins":3834,"int":3835,"ril":3836,"ĠmaÃ±":3837,"chiqa":3838,"yupay":3839,"Ġjose":3840,"Ġquchu":3841,"Ġyayku":3842,"Ġantanka":3843,"Ã³r":3844,"tera":3845,"pez":3846,"Ġwaylas":3847,"ole":3848,"quez":3849,"Ġsuyukunayuq":3850,"Ġallpamanta":3851,"llunku":3852,"Ġalimanyapi":3853,"chuqiyapu":3854,"Ġtuktuyuq":3855,"Ġpalama":3856,"karawa":3857,"Ġonqo":3858,"tiyakuynin":3859,"Ġsusya":3860,"Ġmaypichus":3861,"Ġpanama":3862,"cana":3863,"hul":3864,"irqan":3865,"qur":3866,"xa":3867,"Î¯":3868,"Ø©":3869,"anas":3870,"anayuq":3871,"lluq":3872,"piwan":3873,"ismo":3874,"chakuy":3875,"kitu":3876,"Ġ100":3877,"Ġtes":3878,"ares":3879,"Ġhama":3880,"ille":3881,"kayuq":3882,"Ġsama":3883,"Ġsanam":3884,"suyukuna":3885,"aykichis":3886,"Ġtaytakura":3887,"Ġsunquy":3888,"Ġpurtugal":3889,"Ġpaqarichisqan":3890,"kurku":3891,"Ġwisq":3892,"Ġservi":3893,"Ġsasacha":3894,"alli":3895,"dus":3896,"uju":3897,"ismu":3898,"Ġros":3899,"kayta":3900,"Ġmanataqmi":3901,"chikta":3902,"Ġ39":3903,"huwan":3904,"Ġnitaq":3905,"Ġlibre":3906,"Ġyurakunam":3907,"Ġmitru":3908,"niyku":3909,"sunchik":3910,"Ġkallpacha":3911,"Ġphaq":3912,"Ġ1947":3913,"Ġhampikamayuq":3914,"Ġnuqa":3915,"Ġbela":3916,"Ġchilipi":3917,"Ġministru":3918,"Ġliwrum":3919,"100":3920,"54":3921,"ab":3922,"achka":3923,"ball":3924,"mor":3925,"payuq":3926,"Ġza":3927,"Ġkhu":3928,"aqha":3929,"pal":3930,"Ġshuk":3931,"Ġsuya":3932,"Ġchhika":3933,"Ġdes":3934,"Ġhukniyuq":3935,"wid":3936,"kuni":3937,"Ġtarin":3938,"Ġqutu":3939,"Ġanima":3940,"Ġallinchu":3941,"Ġqhichwapi":3942,"Ġwarmikuna":3943,"Ġchuku":3944,"Ġyanapan":3945,"ichaqa":3946,"Ġaphrikapi":3947,"ĠÃ±uqanchik":3948,"akisqa":3949,"italya":3950,"op":3951,"upi":3952,"ĠÐ":3953,"qas":3954,"rillo":3955,"Ġwaway":3956,"kapun":3957,"Ġmamay":3958,"Ġsik":3959,"Ġkitu":3960,"Ġwichq":3961,"Ġqasi":3962,"Ġkaqkuna":3963,"llantaq":3964,"Ġflo":3965,"Ġwayta":3966,"tawantinsuyu":3967,"Ġjucha":3968,"kunawanmi":3969,"Ġruwakun":3970,"rales":3971,"kasha":3972,"Ġsuqtayuq":3973,"Ġmallki":3974,"Ġamachasqam":3975,"Ġvelasco":3976,"Ġempres":3977,"81":3978,"ep":3979,"ev":3980,"ot":3981,"zu":3982,"Å«":3983,"Éµ":3984,"Î¬":3985,"Ġmanta":3986,"paka":3987,"waka":3988,"Ġqus":3989,"urwi":3990,"wanchu":3991,"Ġmag":3992,"Ġkill":3993,"lata":3994,"Ġbern":3995,"Ġwatapim":3996,"Ġcent":3997,"Ġmic":3998,"Ġqallarispa":3999,"Ġmunani":4000,"Ġruman":4001,"dol":4002,"Ġallinmi":4003,"ĠhayÃ±i":4004,"allqa":4005,"Ġchinu":4006,"Ġchinchi":4007,"vador":4008,"bir":4009,"Ġcontra":4010,"ristoq":4011,"Ġrikcha":4012,"Ġphukuna":4013,"Ġukhunpi":4014,"Ġkanada":4015,"ĠjehovÃ¡":4016,"Ġbolivia":4017,"Ġillanchay":4018,"urwiga":4019,"awan":4020,"br":4021,"Ġkha":4022,"kuma":4023,"Ġchill":4024,"uran":4025,"Ġyapa":4026,"Ġllaqtapipas":4027,"Ġqati":4028,"Ġtampu":4029,"Ġchar":4030,"Ġpaywan":4031,"Ġquchakuna":4032,"ĠmartÃŃn":4033,"kuqkuna":4034,"Ġreqsi":4035,"kunamantaqa":4036,"Ġmusika":4037,"lliqi":4038,"ptinqa":4039,"Ġjud":4040,"Ġyakupi":4041,"berg":4042,"Ġ1984":4043,"niykichis":4044,"Ġqhawari":4045,"Ġqhawariy":4046,"Ġakllanakuy":4047,"Ġrikhuri":4048,"em":4049,"chÃ¶":4050,"pil":4051,"Ġkis":4052,"Ġkhi":4053,"Ġpuru":4054,"urqanku":4055,"Ġmacha":4056,"Ġpaz":4057,"mantataq":4058,"Ġrunaman":4059,"Ġqari":4060,"Ġcusco":4061,"kayu":4062,"chikpi":4063,"Ġmunaq":4064,"Ã³ni":4065,"nata":4066,"Ġrimaynin":4067,"Ġex":4068,"Ġrod":4069,"Ġkitillim":4070,"Ġurupampa":4071,"Ġqispiqanchi":4072,"Ġpurtuyis":4073,"Ġmonte":4074,"urqukuna":4075,"pruwinsyapiqa":4076,"Ġashkha":4077,"ave":4078,"tiyki":4079,"Ġpl":4080,"manjina":4081,"kakuna":4082,"Ġqura":4083,"Ġmina":4084,"chiku":4085,"Ġrirqan":4086,"Ġllaqtapim":4087,"chaypi":4088,"tinkurachina":4089,"Ġbas":4090,"Ġaslla":4091,"Ġkaqpi":4092,"tol":4093,"Ġgrisya":4094,"chani":4095,"Ġtukuspa":4096,"Ġyachaqkuna":4097,"Ġhinaspataq":4098,"Ġorqo":4099,"Ġtiksimuyu":4100,"Ġrimanakuyninpi":4101,"Ġtakichaqmi":4102,"Ġwankurisqa":4103,"amarumayu":4104,"Ġsanampam":4105,"df":4106,"muna":4107,"pul":4108,"ukuna":4109,"lluma":4110,"lluqucha":4111,"unman":4112,"Ġsasa":4113,"rimana":4114,"ĠpÊ¼":4115,"Ġwam":4116,"Ġsil":4117,"Ġbra":4118,"Ġben":4119,"Ġkaqtin":4120,"Ġdistritupipas":4121,"ranku":4122,"Ġniy":4123,"Ġqhatu":4124,"Ġrimaykunapi":4125,"Ġ50":4126,"Ġkutiri":4127,"2007":4128,"buliwyapi":4129,"rimaykunap":4130,"Ġawstralya":4131,"hark":4132,"my":4133,"pl":4134,"ptu":4135,"sar":4136,"tanta":4137,"ui":4138,"qasqa":4139,"tico":4140,"tien":4141,"Ġsimip":4142,"ninpa":4143,"ninkuta":4144,"lik":4145,"Ġyalap":4146,"ransis":4147,"spaqa":4148,"Ġtull":4149,"Ġwayll":4150,"Ġve":4151,"Ġurqupi":4152,"rqankuchu":4153,"chez":4154,"Ġ1981":4155,"bet":4156,"mpiku":4157,"Ġmuyuriq":4158,"Ġsuyunmi":4159,"Ġlloqsi":4160,"Ġlibro":4161,"munisipyupiqa":4162,"Ġderechon":4163,"57":4164,"69":4165,"tuna":4166,"ud":4167,"wli":4168,"Ïħ":4169,"ananpaq":4170,"qam":4171,"Ġhor":4172,"llaÃ±a":4173,"Ġkaj":4174,"Ġkasu":4175,"Ġnapay":4176,"Ġts":4177,"ĠÃ±uk":4178,"Ġqhas":4179,"Ġqarwa":4180,"kunatawan":4181,"Ġruranchik":4182,"Ġfor":4183,"shan":4184,"Ġed":4185,"Ġwasiman":4186,"niyuqmi":4187,"Ġkunankama":4188,"Ġwatakamam":4189,"the":4190,"Ġ1945":4191,"Ġhinallataqmi":4192,"Ġcord":4193,"Ġtantasqa":4194,"Ġjohn":4195,"Ġutc":4196,"Ð¾Ð²":4197,"lores":4198,"Ġkawallu":4199,"ctoria":4200,"Ġjesucristo":4201,"Ġmelgar":4202,"kisiwi":4203,"eto":4204,"sisqan":4205,"Ø³":4206,"Ùģ":4207,"chhu":4208,"unchu":4209,"ĠkÊ¼":4210,"Ġhas":4211,"yaqaqa":4212,"Ġwaj":4213,"Ġaj":4214,"Ġata":4215,"Ġagu":4216,"Ġignacio":4217,"arispa":4218,"yup":4219,"ulo":4220,"Ġcristi":4221,"Ġfc":4222,"vii":4223,"chinanpaq":4224,"Ġmayutata":4225,"Ġwaylla":4226,"Ġweb":4227,"ley":4228,"sinru":4229,"Ġtarikun":4230,"Ġllimphi":4231,"Ġhawanpi":4232,"km":4233,"ue":4234,"uis":4235,"vas":4236,"Ä«":4237,"parin":4238,"llachu":4239,"Ġwara":4240,"Ã±ez":4241,"Ġray":4242,"Ġllaqtakunap":4243,"kunanta":4244,"guez":4245,"Ġhinachu":4246,"Ġkamari":4247,"Ġrimaykunaman":4248,"allta":4249,"unchaykunapi":4250,"cente":4251,"Ġyanapay":4252,"Ġruntu":4253,"Ġqichwa":4254,"Ġwamanqa":4255,"Ġyunkay":4256,"Ġkulumbyapi":4257,"Ã±awpaqnin":4258,"rurasqan":4259,"Ġishkay":4260,"mpurasu":4261,"cur":4262,"yuraq":4263,"Ġllaqtakunamanta":4264,"ĠmÃ©":4265,"anqash":4266,"Ġtukun":4267,"Ġika":4268,"wil":4269,"lile":4270,"esco":4271,"Ġrunakunawan":4272,"payqa":4273,"llanpi":4274,"sqanta":4275,"Ġrikuchi":4276,"Ġalberto":4277,"Ġimaynan":4278,"2004":4279,"bia":4280,"Ġrantin":4281,"Ġchuri":4282,"Ġ1993":4283,"purqanku":4284,"61":4285,"82":4286,"bles":4287,"jp":4288,"pÃŃ":4289,"tsu":4290,"ankuna":4291,"Ġpri":4292,"llap":4293,"llapas":4294,"ĠkaÃ±ari":4295,"Ġllaqtaq":4296,"mantawan":4297,"arro":4298,"rqani":4299,"Ġhallka":4300,"Ġchaykuna":4301,"Ġpiwra":4302,"chayqa":4303,"Ġbel":4304,"Ġtaw":4305,"kayqa":4306,"Ã¡y":4307,"payta":4308,"Ġmayqen":4309,"roquia":4310,"cali":4311,"caciÃ³n":4312,"manachu":4313,"Ġvalle":4314,"Ġmusiku":4315,"Ġaylluman":4316,"qhay":4317,"Ġyuyaynin":4318,"Ġ1991":4319,"iii":4320,"Ġcuzco":4321,"Ġnisqanta":4322,"Ġsaphi":4323,"Ġllimphisqan":4324,"uchqu":4325,"torial":4326,"77":4327,"93":4328,"ahina":4329,"edu":4330,"flo":4331,"phu":4332,"ua":4333,"Å¡":4334,"incha":4335,"titiqaqa":4336,"kum":4337,"karan":4338,"Ġaz":4339,"Ġala":4340,"wanki":4341,"ĠÃ±ispa":4342,"ninkunaqa":4343,"Ġyar":4344,"illera":4345,"Ġqillqata":4346,"Ġpachapiqa":4347,"Ġkaqpas":4348,"kanu":4349,"Ġruranku":4350,"sallqa":4351,"Ġrimayta":4352,"Ġatirqan":4353,"Ġvir":4354,"Ġkuba":4355,"kichischu":4356,"Ġ1992":4357,"xia":4358,"imarayku":4359,"Ġwallpa":4360,"Ġmois":4361,"cardo":4362,"Ġtiksimuyuntinpi":4363,"Ġimatachus":4364,"ĠaÃ±aki":4365,"jpg":4366,"98":4367,"bara":4368,"cum":4369,"gle":4370,"mÃ©":4371,"sayuq":4372,"uj":4373,"anpi":4374,"aqpas":4375,"Ġris":4376,"anqata":4377,"chiwa":4378,"Ġtuma":4379,"liwru":4380,"ones":4381,"Ġpichqantin":4382,"Ġbor":4383,"Ġumalli":4384,"Ġputina":4385,"Ġdistritupiqa":4386,"Ġhatunmi":4387,"Ã³pez":4388,"Ġhuan":4389,"Ġllik":4390,"suyupi":4391,"Ġuywakunam":4392,"Ġ1986":4393,"Ġ1976":4394,"Ġ1969":4395,"Ġfamili":4396,"Ġbarcelona":4397,"Ġhallp":4398,"ĠgarcÃŃa":4399,"wankawillka":4400,"Ġgrego":4401,"hulyanu":4402,"96":4403,"cin":4404,"pto":4405,"ull":4406,"we":4407,"ĠÃ":4408,"chinki":4409,"Ġprado":4410,"kiti":4411,"Ġtr":4412,"ame":4413,"qull":4414,"Ġasya":4415,"chikchu":4416,"Ġniran":4417,"Ġniykichis":4418,"Ġnikarawa":4419,"Ġunanchan":4420,"haspa":4421,"Ġrafael":4422,"ptinsi":4423,"Ġeste":4424,"santiago":4425,"Ġpulitikupas":4426,"Ġpusaqmi":4427,"Ġchuqichaka":4428,"kusya":4429,"Ġ1998":4430,"Ġsinchita":4431,"Ġnue":4432,"Ġnuw":4433,"rÃŃguez":4434,"Ġqaylla":4435,"paykiqa":4436,"Ġklubmi":4437,"Ġcalifornia":4438,"his":4439,"ila":4440,"yqa":4441,"yin":4442,"Ñĥ":4443,"Ġ?":4444,"pichqa":4445,"uspi":4446,"Ġmateo":4447,"chilla":4448,"Ġrunapas":4449,"Ġtawayuq":4450,"Ġcl":4451,"Ġpaypi":4452,"ransiya":4453,"Ġfaris":4454,"Ġliyun":4455,"Ġmarcos":4456,"chiqinqa":4457,"Ġkawsaypi":4458,"kunamantapas":4459,"chunku":4460,"Ġmisti":4461,"Ã¡ndez":4462,"jach":4463,"Ġkimsayuq":4464,"Ġbauti":4465,"xico":4466,"Ġkuyuchisqa":4467,"Ġpastasa":4468,"gradu":4469,"Ġukucha":4470,"Ġkhuyapay":4471,"Ġameri":4472,"52":4473,"92":4474,"akunapi":4475,"gs":4476,"pon":4477,"Ġshina":4478,"Ġmaria":4479,"Ġnisqaman":4480,"Ġriy":4481,"Ġkicha":4482,"enqa":4483,"kunatataq":4484,"ĠlÃ³pez":4485,"ling":4486,"doza":4487,"Ġlari":4488,"maqucha":4489,"kunantin":4490,"Ġparroquia":4491,"Ġmayup":4492,"Ġtiyanan":4493,"cheq":4494,"nez":4495,"bibli":4496,"kuska":4497,"Ġkamachirqan":4498,"Ġ1996":4499,"Ġ1942":4500,"Ġ1975":4501,"Ġpasqu":4502,"Ġtom":4503,"Ġsaywachi":4504,"basti":4505,"Ġchimlas":4506,"Ġchhikan":4507,"bn":4508,"biya":4509,"edi":4510,"ic":4511,"iz":4512,"ida":4513,"px":4514,"Ġ%":4515,"tario":4516,"pachan":4517,"ĠsÃ¡n":4518,"Ġkachkaq":4519,"Ġrispa":4520,"Ġllaqtapas":4521,"Ġtuna":4522,"ĠtÊ¼":4523,"willa":4524,"Ġkichka":4525,"Ġyall":4526,"kunka":4527,"Ġqata":4528,"oso":4529,"hama":4530,"Ġmanaqa":4531,"Ġ37":4532,"runasimi":4533,"Ġkamarirqan":4534,"Ġliber":4535,"Ġpuqun":4536,"Ġwayq":4537,"Ġwillasqa":4538,"Ġiskaynin":4539,"Ġ43":4540,"Ġet":4541,"kunamantam":4542,"Ġoc":4543,"Ġninmi":4544,"hintin":4545,"Ġqillqaqsi":4546,"Ġphrans":4547,"Ġ1970":4548,"Ġ1973":4549,"Ġ1974":4550,"Ġyuyayniyoq":4551,"Ġnish":4552,"Ġjehovaqa":4553,"cerdo":4554,"Ġberlin":4555,"apuruna":4556,"wiktionary":4557,"Ġprofeta":4558,"Ãºnde":4559,"Ġanimal":4560,"cciÃ³n":4561,"iwrupa":4562,"tha":4563,"unta":4564,"mikh":4565,"chaka":4566,"Ġquya":4567,"Ġali":4568,"Ġchh":4569,"urasuyu":4570,"Ġmater":4571,"asqanku":4572,"Ġhuknin":4573,"rahu":4574,"illi":4575,"Ġtamayo":4576,"Ġsuticha":4577,"Ġayqi":4578,"Ġkaqkunaqa":4579,"niyta":4580,"Ġallqu":4581,"puerto":4582,"rea":4583,"Ġupa":4584,"tem":4585,"kunapura":4586,"chiqkuna":4587,"Ġdiosman":4588,"Ġestu":4589,"Ġyupaychasqa":4590,"Ġriqyunmi":4591,"Ġkamachikuq":4592,"Ġmuchu":4593,"Ġ1964":4594,"Ġmink":4595,"Ġpataman":4596,"Ġankash":4597,"Ġpakasqa":4598,"pukyu":4599,"rosoft":4600,"Ġmishki":4601,"Ġsasachakuy":4602,"ĠrodrÃŃguez":4603,"ĠsÃ¡nchez":4604,"500":4605,"bana":4606,"cara":4607,"eu":4608,"jtin":4609,"ktu":4610,"pre":4611,"suqta":4612,"ĠÃ¡":4613,"Ġhoq":4614,"ĠpÃ©":4615,"Ġqunqa":4616,"Ġdaniel":4617,"Ġripu":4618,"wiy":4619,"Ġsuwisa":4620,"Ġsuwit":4621,"Ġ1928":4622,"yanmi":4623,"Ġrunakunamanta":4624,"Ġpaqarisqan":4625,"Ġchall":4626,"ranya":4627,"cado":4628,"Ġmayuman":4629,"Ġhinas":4630,"oqta":4631,"Ġkawsachkan":4632,"llapim":4633,"Ġ1989":4634,"Ġ1949":4635,"Ġitalyapi":4636,"Ġqiru":4637,"Ġkurkun":4638,"Ġentien":4639,"Ġawu":4640,"Ġore":4641,"Ġraphiyuq":4642,"Ġpilikula":4643,"qullaw":4644,"Ġmuqiwa":4645,"ĠbelaÃºnde":4646,"bay":4647,"muk":4648,"uw":4649,"zon":4650,"Øª":4651,"qara":4652,"Ġkut":4653,"mateo":4654,"tivo":4655,"Ġpen":4656,"kupas":4657,"Ġawa":4658,"ust":4659,"Ġmal":4660,"Ġsit":4661,"rupi":4662,"aph":4663,"kunki":4664,"Ġwillaq":4665,"Ġbri":4666,"kuychu":4667,"Ġtiqsi":4668,"Ġinkisiwi":4669,"llanmi":4670,"Ġhinatam":4671,"niykita":4672,"Ġ1946":4673,"tural":4674,"Ġsalvador":4675,"buenos":4676,"Ġhuchalli":4677,"Ġwikipedia":4678,"Ġinterna":4679,"Ġinternet":4680,"____":4681,"Ġcerro":4682,"ĠØ¹Ø¨":4683,"avedra":4684,"66":4685,"kris":4686,"nor":4687,"oo":4688,"sk":4689,"anchispaq":4690,"miy":4691,"Ġpon":4692,"kawa":4693,"Ġthan":4694,"Ġil":4695,"Ġkayman":4696,"Ġjus":4697,"laxia":4698,"Ġwir":4699,"âĢ²":4700,"kunatas":4701,"Ġtarisqa":4702,"Ġsutiyki":4703,"cie":4704,"cien":4705,"unchawkunapi":4706,"pedro":4707,"Ġllama":4708,"qaylla":4709,"Ã¡ngel":4710,"Ġqankunaqa":4711,"Ġtakikuna":4712,"Ġsunturkuna":4713,"Ġakllay":4714,"doro":4715,"Ġnisqanqa":4716,"Ġuyariq":4717,"llantay":4718,"Ġpantay":4719,"Ġpilikulam":4720,"Ġfariseo":4721,"73":4722,"achay":4723,"iv":4724,"vg":4725,"kunarayku":4726,"mil":4727,"yap":4728,"Ġwacha":4729,"Ġwasan":4730,"Ġapan":4731,"wanuku":4732,"Ġsill":4733,"Ġtuy":4734,"nina":4735,"willay":4736,"ampay":4737,"lipe":4738,"Ġrunapaq":4739,"Ġrunakunan":4740,"Ġkaylluma":4741,"Ġqayan":4742,"Ġtapuy":4743,"Ġkananta":4744,"Ġrunakunapa":4745,"Ġgal":4746,"antata":4747,"antasqa":4748,"rqaku":4749,"Ġtupa":4750,"Ġwaqta":4751,"old":4752,"Ġbuliwyap":4753,"Ġyurakunamanta":4754,"Ġllak":4755,"Ġove":4756,"Ġkuta":4757,"nesi":4758,"Ġchullunku":4759,"Ġnevado":4760,"Ġkamachiyta":4761,"Ġley":4762,"2011":4763,"dencia":4764,"Ġapayka":4765,"Ġchawpinpi":4766,"ĠregiÃ³n":4767,"Ġmicrosoft":4768,"rurasqankuna":4769,"83":4770,"bul":4771,"bol":4772,"hillu":4773,"korqa":4774,"oma":4775,"ÑĤ":4776,"Ġ...":4777,"anu":4778,"anman":4779,"ĠkÃ«":4780,"indi":4781,"kunatan":4782,"rico":4783,"wanchis":4784,"araqmi":4785,"wir":4786,"taqna":4787,"kayman":4788,"ĠayÃ±i":4789,"diktu":4790,"Ġkaqnin":4791,"Ġsacerdo":4792,"ÃŃos":4793,"Ġkamachisqa":4794,"Ġqhawar":4795,"naqa":4796,"nawa":4797,"Ġyachakuq":4798,"Ġuyariy":4799,"peru":4800,"jama":4801,"Ġpunta":4802,"punim":4803,"Ġ1983":4804,"Ġchantapis":4805,"Ġpinyin":4806,"inidiktu":4807,"jesus":4808,"eiro":4809,"Ġmendoza":4810,"!\"":4811,"?\"":4812,"akiy":4813,"bor":4814,"eq":4815,"waki":4816,"wadur":4817,"ric":4818,"yawar":4819,"kasqa":4820,"Ġiv":4821,"Ġqhelqa":4822,"sik":4823,"chuku":4824,"Ġwil":4825,"quri":4826,"Ġsutikuna":4827,"Ġmila":4828,"Ġsaavedra":4829,"Ġqhapaqsuy":4830,"Ġmarsu":4831,"tani":4832,"Ġvo":4833,"oqo":4834,"2002":4835,"media":4836,"hunin":4837,"âĢıâĢİ":4838,"Ġ1982":4839,"Ġrunayuq":4840,"Ġloja":4841,"reso":4842,"chinapaqmi":4843,"rapura":4844,"lliwmanta":4845,"awqaq":4846,"akin":4847,"grisya":4848,"her":4849,"iyuq":4850,"tanakuna":4851,"yura":4852,"Äį":4853,"Ìģ":4854,"ÏĮ":4855,"ØŃ":4856,"churin":4857,"unpi":4858,"unchis":4859,"unda":4860,"unduras":4861,"Ġkriy":4862,"uyta":4863,"karay":4864,"uska":4865,"Ġmaqa":4866,"amora":4867,"onso":4868,"iqta":4869,"sia":4870,"enta":4871,"Ġkillapampa":4872,"Ġce":4873,"Ġpacham":4874,"Ġpachataq":4875,"Ġkaqman":4876,"Ġmunanku":4877,"Ġisku":4878,"ranpi":4879,"viii":4880,"Ġtupi":4881,"Ġwww":4882,"Ġrikuchin":4883,"rini":4884,"Ġjavier":4885,"Ġvicente":4886,"gia":4887,"Ġuywam":4888,"xii":4889,"Ġbibles":4890,"Ġ1963":4891,"Ġ1939":4892,"Ġchantaqa":4893,"ÙĦÙĬ":4894,"wriqucha":4895,"Ġkallpanchay":4896,"Ġabra":4897,"Ġdisney":4898,"ayniyku":4899,"Ġsaywapi":4900,"Ġqhaliya":4901,"Ġispiritu":4902,"Ġpusapunakuna":4903,"Ġchaqrusqa":4904,"alla":4905,"bÃ¡":4906,"iqa":4907,"tÃŃ":4908,"ves":4909,"ypi":4910,"ĠÙħ":4911,"manos":4912,"llak":4913,"kuchun":4914,"Ġaman":4915,"Ġapam":4916,"Ġmes":4917,"Ġpam":4918,"Ġkaymanta":4919,"tuta":4920,"turi":4921,"chupa":4922,"Ġjos":4923,"Ġtara":4924,"kuyuq":4925,"isto":4926,"Ġpachakamaq":4927,"hir":4928,"Ġallwiya":4929,"chikqa":4930,"Ġruph":4931,"Ġwayuq":4932,"Ġvene":4933,"mink":4934,"Ġvictoria":4935,"Ġtakiy":4936,"aqullu":4937,"haninka":4938,"unchayta":4939,"sumaq":4940,"Ġwawas":4941,"Ġqiris":4942,"ficial":4943,"Ġ1930":4944,"Ġcheq":4945,"Ġvillar":4946,"barra":4947,"vanni":4948,"Ġaugust":4949,"Ġwinisuylapi":4950,"Ã³rdo":4951,"widsuyu":4952,"95":4953,"eblo":4954,"gy":4955,"hara":4956,"ikan":4957,"jch":4958,"munqa":4959,"nt":4960,"uel":4961,"tic":4962,"kuchkan":4963,"kari":4964,"Ġnapu":4965,"Ġcho":4966,"Ġmachiqinqa":4967,"asya":4968,"Ġrich":4969,"Ġjorge":4970,"Ġkanankupaq":4971,"Ġasun":4972,"wsha":4973,"dic":4974,"Ġpachap":4975,"Ġchala":4976,"runap":4977,"Ġrurarqan":4978,"Ġimachus":4979,"vie":4980,"video":4981,"Ġqhawana":4982,"Ġchichas":4983,"Ġyachaspa":4984,"Ġecua":4985,"gob":4986,"Ġwasikunapi":4987,"dea":4988,"Ġmunas":4989,"bio":4990,"Ġsutisuyu":4991,"Ġballi":4992,"Ġ1954":4993,"tron":4994,"Ġqillqana":4995,"Ġjampi":4996,"dalena":4997,"Ġsayari":4998,"olognesi":4999,"hel":5000,"rayuq":5001,"tk":5002,"chaqta":5003,"tapis":5004,"pilla":5005,"inlatirra":5006,"aqway":5007,"aqtanakuna":5008,"papas":5009,"Ġkatari":5010,"Ã±ap":5011,"Ġac":5012,"Ġruq":5013,"Ġmut":5014,"Ġnisqakuna":5015,"Ġparay":5016,"aptinmi":5017,"ast":5018,"ĠÃ±in":5019,"liza":5020,"illchinakuna":5021,"erva":5022,"Ġbene":5023,"anapi":5024,"hil":5025,"chikmi":5026,"Ġqhipan":5027,"Ġunesco":5028,"Ġwayas":5029,"Ġ42":5030,"Ġurqup":5031,"Ġintip":5032,"umpi":5033,"Ġyupaychan":5034,"Ġalto":5035,"Ġjaco":5036,"kunapaqqa":5037,"Ġcama":5038,"Ġtarija":5039,"Ġwawaqa":5040,"rusiya":5041,"Ġ1941":5042,"Ġkhillay":5043,"koj":5044,"Ġapos":5045,"Ã¼n":5046,"Î¿ÏĤ":5047,"ford":5048,"Ġangeles":5049,"Ġeditorial":5050,"Ġrurunkunatam":5051,"ĠjerusalÃ©n":5052,"tiksi":5053,"84":5054,"gisqa":5055,"jun":5056,"jos":5057,"ste":5058,"wn":5059,"yuy":5060,"Äī":5061,"Î³":5062,"Ġol":5063,"ĠÃ¡ngel":5064,"taÃ±a":5065,"wasin":5066,"Ġphin":5067,"Ġnan":5068,"Ġchhu":5069,"ligi":5070,"Ġpichus":5071,"lari":5072,"Ġwila":5073,"Ġbon":5074,"Ġqullu":5075,"Ġlay":5076,"Ġmitan":5077,"Ġmayor":5078,"Ġrump":5079,"Ġfer":5080,"Ġfre":5081,"Ġsanancha":5082,"Ã³s":5083,"teri":5084,"punu":5085,"Ġwayt":5086,"Ġvon":5087,"Ġrikuri":5088,"Ġcolo":5089,"antÃ¡":5090,"Ġsebasti":5091,"Ġuywakuna":5092,"Ġsunturmi":5093,"ĠsutÊ¼":5094,"Ġ1997":5095,"Ġkasara":5096,"Ġ1962":5097,"Ġ1968":5098,"Ġawqaqkuna":5099,"Ġqocha":5100,"Ġkachkaptin":5101,"Ġcordillera":5102,"cÃ¡":5103,"sara":5104,"tz":5105,"tter":5106,"Ø¹":5107,"Ùĩ":5108,"ankama":5109,"ayoq":5110,"isquq":5111,"Ġsham":5112,"Ġpra":5113,"llalla":5114,"llalli":5115,"kami":5116,"Ġnapuruna":5117,"kiman":5118,"Ġmaqay":5119,"Ġpasip":5120,"arÃŃ":5121,"Ġyam":5122,"Ġsull":5123,"Ġpil":5124,"Ġpir":5125,"Ġcap":5126,"ĠcÃ¡":5127,"rayil":5128,"vil":5129,"unchawmanta":5130,"cari":5131,"Ġdia":5132,"Ġrakiq":5133,"Ġyupaychana":5134,"Ġantawa":5135,"Ġpusaqniyuq":5136,"aykurqan":5137,"Ġmuhu":5138,"Ġ1999":5139,"musqan":5140,"Ġ1978":5141,"Ġyanapaq":5142,"Ġleon":5143,"filaxia":5144,"Ġatiynin":5145,"Ġatiyniyuq":5146,"Ġfauna":5147,"geo":5148,"Ġarhintinapi":5149,"Ġrepublikap":5150,"entes":5151,"Ġwawqi":5152,"ĠjuntÊ¼":5153,"Ġkawpaqpas":5154,"Ġchaqllisinchipi":5155,"Ġlampalliqi":5156,"ĠespaÃ±a":5157,"Ġchikichasqa":5158,"Ġpulitika":5159,"Ġpasiphiku":5160,".-":5161,"/.":5162,"bus":5163,"eta":5164,"esqa":5165,"vel":5166,"yÃ¡":5167,"ĠchantÃ¡":5168,"Ġnisqatam":5169,"Ġtuq":5170,"Ġim":5171,"ĠÃ±aqha":5172,"arch":5173,"lica":5174,"onqa":5175,"Ġsuch":5176,"Ġhata":5177,"Ġpitu":5178,"Ġjarani":5179,"gui":5180,"Ġtika":5181,"Ġkaqtaq":5182,"Ġchaku":5183,"Ġsak":5184,"llimp":5185,"Ġwasichay":5186,"Ġhamu":5187,"Ġwarmim":5188,"Ġarhintin":5189,"antoni":5190,"vera":5191,"Ġ1958":5192,"manuel":5193,"Ġmorales":5194,"Ġruruchinapaqmi":5195,"Ġpanpa":5196,"Ġpukllaykamachiq":5197,"Ġyanapakuy":5198,"Ġhurqun":5199,"Ġrikunki":5200,"Ġtusuy":5201,"francisco":5202,"Ġchakrapura":5203,"Ġballivi":5204,"awa":5205,"bl":5206,"cra":5207,"jam":5208,"pdf":5209,"ruraq":5210,"uÃ±a":5211,"ÏĢ":5212,"aypa":5213,"aqniyuq":5214,"miÃ±a":5215,"Ġllas":5216,"Ġpruwins":5217,"Ġkachay":5218,"Ã±ol":5219,"kaspa":5220,"Ġdon":5221,"Ġhuktawan":5222,"arina":5223,"Ġkayninta":5224,"Ġyawa":5225,"Ġhatari":5226,"illo":5227,"Ġwiru":5228,"anachiy":5229,"alberto":5230,"Ġrunakunataq":5231,"tolo":5232,"Ġpaqarirqan":5233,"Ġsati":5234,"ted":5235,"Ġyachaqa":5236,"Ġuya":5237,"Ġ46":5238,"Ġven":5239,"Ġkawsaykuska":5240,"Ġmusph":5241,"Ġmunarqan":5242,"biern":5243,"Ġ1985":5244,"ĠwaÃ±uchirqan":5245,"Ġ1977":5246,"Ġ1979":5247,"ikllu":5248,"mbur":5249,"Ġkaptinpas":5250,"Ġcasara":5251,"antikuna":5252,"Ġcampo":5253,"Ã±askitu":5254,"Ġsapanka":5255,"Ġeduardo":5256,"gradupi":5257,"Ġqayanqillqa":5258,"gor":5259,"mut":5260,"tsa":5261,"tho":5262,"vista":5263,"Î®":5264,"Ð´":5265,"cherqa":5266,"tapuni":5267,"unay":5268,"inde":5269,"rique":5270,"Ġhill":5271,"Ġhel":5272,"Ġprin":5273,"llakta":5274,"kurayku":5275,"kamun":5276,"ukayali":5277,"Ġpak":5278,"chiki":5279,"Ġtha":5280,"arn":5281,"Ġchaywanpas":5282,"Ġjis":5283,"enzo":5284,"Ġqillqayta":5285,"Ġquwi":5286,"Ġ1929":5287,"Ġasin":5288,"Ġpueblo":5289,"kunapiwan":5290,"Ġsamari":5291,"Ġsaint":5292,"isimi":5293,"rey":5294,"shks":5295,"riynin":5296,"Ġchile":5297,"Ġhaywa":5298,"Ġpuquq":5299,"Ġ45":5300,"Ġurquqa":5301,"Ġwarmip":5302,"Ġsayay":5303,"Ġparkikuna":5304,"Ġnawa":5305,"blica":5306,"Ġuquq":5307,"Ġallpapi":5308,"Ġ1994":5309,"Ġ1987":5310,"ĠwaÃ±uchi":5311,"Ġawstiriya":5312,"Ġ1936":5313,"Ġchayraykum":5314,"Ġsober":5315,"Ġapulu":5316,"Ġruruchina":5317,"Ġpando":5318,"Ġwakichi":5319,"Ġkapchiypi":5320,"Ġgalile":5321,"dyuspa":5322,"fredo":5323,"ĠtsÃ«":5324,"ahinataq":5325,"ĠpÃ©rez":5326,"churinkuna":5327,"ĠballiviÃ¡n":5328,"91":5329,"bin":5330,"bras":5331,"ichi":5332,"ker":5333,"ner":5334,"pt":5335,"rÃ©":5336,"rrÃŃ":5337,"tel":5338,"uqa":5339,"}}":5340,"Ġul":5341,"chkay":5342,"inchasqa":5343,"llapaq":5344,"Ġqukun":5345,"Ġare":5346,"ĠrÃŃos":5347,"kikuna":5348,"anqati":5349,"anqakunapi":5350,"wiri":5351,"lipina":5352,"rapa":5353,"kunti":5354,"Ġmanqu":5355,"Ġblan":5356,"Ġqachu":5357,"apaqqa":5358,"Ġllamkay":5359,"Ġasway":5360,"Ġkawsasqan":5361,"Ġgio":5362,"Ġsala":5363,"paykuna":5364,"Ġmayuki":5365,"shqa":5366,"ĠÃ±awch":5367,"Ġchimpurasu":5368,"Ġamaw":5369,"Ġwe":5370,"utura":5371,"Ġ44":5372,"Ġoli":5373,"Ġsutinchasqa":5374,"Ġkutin":5375,"yunkuna":5376,"Ġmurillo":5377,"Ġchurana":5378,"ĠispaÃ±amanta":5379,"Ġ1961":5380,"Ġkhuya":5381,"Ġ1950":5382,"Ġ1951":5383,"psis":5384,"Ġtuktu":5385,"Ġimaynachus":5386,"Ġtinku":5387,"Ġimatapis":5388,"parawayi":5389,"Ġreserva":5390,"Ġwitnam":5391,"Ġripuwli":5392,"))":5393,"achin":5394,"bis":5395,"cus":5396,"ges":5397,"ok":5398,"st":5399,"sina":5400,"sispa":5401,"yi":5402,"Ãł":5403,"à¥":5404,"Ġ{":5405,"Ġisi":5406,"tarika":5407,"aymanta":5408,"walla":5409,"mipampa":5410,"miguel":5411,"rich":5412,"mann":5413,"Ġkarun":5414,"kulum":5415,"Ġapun":5416,"ruku":5417,"anqaku":5418,"Ġita":5419,"Ġkir":5420,"ester":5421,"Ġpidru":5422,"orld":5423,"Ġ1920":5424,"Ġ1925":5425,"diosqa":5426,"Ġlam":5427,"Ġruraynin":5428,"Ġuli":5429,"chinu":5430,"riyku":5431,"lliam":5432,"Ġhuchan":5433,"Ġlaw":5434,"Ġwayk":5435,"Ġwaywash":5436,"Ġkunris":5437,"Ġhanllalli":5438,"Ġvar":5439,"Ġkawsayninta":5440,"Ġayllupi":5441,"umu":5442,"Ġarma":5443,"Ġsutinqa":5444,"Ġkuka":5445,"Ġchaymantaqa":5446,"Ġyakuta":5447,"Ġkashaqtin":5448,"isapa":5449,"Ġqhawaspa":5450,"Ġ1966":5451,"Ġ1967":5452,"Ġ1952":5453,"Ġ1955":5454,"kusqanta":5455,"2014":5456,"Ġqanchisnintin":5457,"kashamarka":5458,"ĠtomÃ¡s":5459,"Ġphransya":5460,"ds":5461,"din":5462,"fu":5463,"gantoni":5464,"ski":5465,"sas":5466,"syun":5467,"tl":5468,"zÃ³n":5469,"ÅĤ":5470,"llayuq":5471,"Ġkhallka":5472,"isaq":5473,"Ġsis":5474,"miento":5475,"Ġplan":5476,"Ġwamink":5477,"Ġqanqa":5478,"ĠsimÃ³n":5479,"anqapiqa":5480,"Ġthas":5481,"ĠibÃ¡":5482,"Ġpisqa":5483,"eng":5484,"Ġbru":5485,"Ġbos":5486,"kuywan":5487,"kuyninta":5488,"Ġcrist":5489,"Ġyo":5490,"Ġluk":5491,"Ġdistritun":5492,"Ġinca":5493,"Ġiniru":5494,"Ġpaykunan":5495,"Ġlimaq":5496,"Ġtupu":5497,"Ġhayu":5498,"rish":5499,"pisqu":5500,"Ġrak":5501,"Ġrakina":5502,"Ġaltu":5503,"Ġwatamantapacha":5504,"antes":5505,"ĠÃ±awpaqen":5506,"Ġqullaw":5507,"Ġyuyari":5508,"isami":5509,"Ġ1940":5510,"Ġuyaris":5511,"ĠÃ±uqayku":5512,"tishi":5513,"chuqichaka":5514,"Ġmikhunku":5515,"Ġjaneiro":5516,"Ð¸Ñĩ":5517,"hayk":5518,"Ġpisqum":5519,"Ġcomunidad":5520,"Ġpirqapi":5521,"Ġmuruyuq":5522,"Ġquram":5523,"Ġtunkura":5524,"ÙĪØ¯":5525,"Ġpaulo":5526,"Ġbuliw":5527,"illimsa":5528,"dolfo":5529,"Ġderechonchis":5530,"pÃŃritu":5531,"Ġlariqaqa":5532,"Ã³rdoba":5533,"Ġecuador":5534,"Ġsoberano":5535,"ai":5536,"ben":5537,"cchu":5538,"glo":5539,"ote":5540,"ss":5541,"yim":5542,"unmi":5543,"wasqan":5544,"chakun":5545,"Ġqel":5546,"Ġruqyay":5547,"uralan":5548,"Ġichhu":5549,"Ġhapi":5550,"Ġtaru":5551,"Ġtawqa":5552,"Ġtarata":5553,"gued":5554,"wayna":5555,"Ġpachas":5556,"Ġchakin":5557,"chikpa":5558,"Ġpaymanta":5559,"Ġkamasqan":5560,"Ġwank":5561,"Ġyachayniyuq":5562,"Ġmaris":5563,"Ġhuay":5564,"Ġlawriqucha":5565,"ĠâĢİ(":5566,"Ġ41":5567,"Ġreligi":5568,"mino":5569,"Ġargued":5570,"anton":5571,"Ġvii":5572,"Ġvirus":5573,"Ġsinru":5574,"kunamanmi":5575,"Ġuywap":5576,"Ġchurasqa":5577,"Ġchurkuykuna":5578,"Ġkhur":5579,"ariykuna":5580,"ington":5581,"Ġankalli":5582,"ĠÏĢ":5583,"Ġjulio":5584,"Ġwillkan":5585,"Ġsusyalista":5586,"Ġphaqcha":5587,"Ġorellana":5588,"isimitaq":5589,"Ġgiovanni":5590,"Ġripuwlika":5591,"ĠibÃ¡Ã±ez":5592,"67":5593,"]]":5594,"aws":5595,"achinchik":5596,"cam":5597,"gin":5598,"huy":5599,"irisqa":5600,"jarro":5601,"span":5602,"ykuta":5603,"Ïī":5604,"ÙĤ":5605,"á»":5606,"Ġâ":5607,"anza":5608,"chur":5609,"qar":5610,"Ġllant":5611,"Ġwate":5612,"Ã±usqa":5613,"Ġaka":5614,"Ġaut":5615,"qana":5616,"ĠÃ±i":5617,"pash":5618,"tuma":5619,"Ġqhuya":5620,"Ġchaytaqa":5621,"tino":5622,"Ġbolognesi":5623,"Ġsutiwan":5624,"Ġ1918":5625,"Ġaypa":5626,"Ġhawaman":5627,"nica":5628,"Ġpaykunataq":5629,"Ġaswanmi":5630,"Ġsanampa":5631,"Ġqhapaqnin":5632,"chinap":5633,"Ã³gi":5634,"Ġhutk":5635,"Ġuyay":5636,"Ġruwarqa":5637,"107":5638,"Ġsapallan":5639,"Ġelena":5640,"Ġ1953":5641,"chejta":5642,"Ġcastilla":5643,"Ġnispas":5644,"ĠÃ±awiriy":5645,"Ġyawrin":5646,"Ġbuena":5647,"Ġwaqaychana":5648,"ĠiÃ±uwa":5649,"Ġphutuy":5650,"Ġhurq":5651,"rurasqakuna":5652,"Ġmurun":5653,"Ġanafilaxia":5654,"Ġgobiern":5655,"Ġwaqlliy":5656,"Ġservicio":5657,"ĠjudÃŃo":5658,"Ġbautiz":5659,"Ġmarsupi":5660,"Ã¼nchen":5661,"kulumbya":5662,"97":5663,"ad":5664,"akunap":5665,"flores":5666,"gil":5667,"mba":5668,"misk":5669,"Ã´":5670,"Ð¼":5671,"à®":5672,"å¸":5673,"Ġ&":5674,"pala":5675,"mio":5676,"Ġhus":5677,"chakra":5678,"llapan":5679,"Ġkal":5680,"kaÃ±":5681,"Ġag":5682,"Ġatawa":5683,"ure":5684,"urina":5685,"Ġhukkunataq":5686,"wira":5687,"Ġkilu":5688,"Ġkaykunapi":5689,"Ġji":5690,"Ġjark":5691,"eras":5692,"Ġwien":5693,"qullqa":5694,"Ġsimipipas":5695,"kuyqa":5696,"Ġ1924":5697,"Ġashaninka":5698,"Ã¡rez":5699,"Ġsaru":5700,"paymi":5701,"Ġruranakuy":5702,"Ġrurayta":5703,"Ġutishi":5704,"Ġtumpis":5705,"ykimanta":5706,"Ġkutichi":5707,"Ġvera":5708,"marÃŃa":5709,"Ġpushak":5710,"Ġatipaq":5711,"lez":5712,"Ġ60":5713,"Ġcole":5714,"Ġukt":5715,"Ġyupaycha":5716,"Ġrimaspa":5717,"Ġmarkap":5718,"kunapaqpas":5719,"2009":5720,"Ġgriguryu":5721,"aqupampa":5722,"Ġyakuwan":5723,"Ġchuqlluqucha":5724,"Ġdyusqa":5725,"Ġuywakunapas":5726,"Ġyachaqmi":5727,"Ġyachaqpas":5728,"Ġmaqt":5729,"Ġrumita":5730,"Ġhampiq":5731,"Ġransiyapi":5732,"tional":5733,"Ġtinkurachina":5734,"Ġsamay":5735,"Ġrurasqankuna":5736,"Ġxii":5737,"Ġrikunchik":5738,"Ġrespe":5739,"Ġuchuylla":5740,"Ġcuerpo":5741,"Ġmuksichaq":5742,"ĠgonzÃ¡":5743,"Ġhamawt":5744,"800":5745,"])":5746,"apas":5747,"achiy":5748,"by":5749,"ef":5750,"fÃŃa":5751,"gul":5752,"jra":5753,"jorge":5754,"lampa":5755,"ms":5756,"mbo":5757,"stan":5758,"uca":5759,"vÃŃ":5760,"Ïį":5761,"Ġé":5762,"anki":5763,"antin":5764,"anchasqa":5765,"unriya":5766,"aqi":5767,"mira":5768,"Ġkampi":5769,"Ġapus":5770,"Ġpalla":5771,"Ġpachaq":5772,"Ġpatron":5773,"aruna":5774,"ampaq":5775,"pasapa":5776,"paqha":5777,"Ġchaypas":5778,"end":5779,"Ġby":5780,"kuymanta":5781,"kamachi":5782,"Ġasuy":5783,"chishka":5784,"Ġpaqariq":5785,"urata":5786,"Ġsatan":5787,"Ġqallarisqan":5788,"ĠÃ±aws":5789,"ĠwaÃ±usqan":5790,"Ġmunaynin":5791,"luis":5792,"Ġchimpu":5793,"kuqmi":5794,"Ġwillasqan":5795,"Ġmunisipyukuna":5796,"Ġvol":5797,"Ġdiospaq":5798,"Ġllakta":5799,"landya":5800,"Ġ70":5801,"Ġmarkam":5802,"Ġruwaspa":5803,"vez":5804,"Ġkutu":5805,"llapata":5806,"103":5807,"Ġwawamanta":5808,"Ġrimaqnin":5809,"Ġmusuqmanta":5810,"kusaq":5811,"kuspan":5812,"aqasqa":5813,"Ġuyarin":5814,"Ġ1965":5815,"Ġjesusman":5816,"Ġqipa":5817,"qaqkuna":5818,"anchikpaq":5819,"Ġkaspaqa":5820,"Ġnispanku":5821,"Ġwaqaychasqa":5822,"hampi":5823,"Ġreyes":5824,"ikwadurpi":5825,"ayniykichik":5826,"Ġnasyunkunap":5827,"Ġriqsinchik":5828,"Ġawqanakuy":5829,"Ġkusituymi":5830,"Ġbuliwyanu":5831,"94":5832,"].":5833,"af":5834,"ali":5835,"ete":5836,"fnt":5837,"gina":5838,"jÃŃa":5839,"ple":5840,"tÃ©":5841,"uÃ©":5842,"wer":5843,"ÎŃ":5844,"Ġ00":5845,"anankupaq":5846,"piyu":5847,"Ġkhan":5848,"mael":5849,"Ġkasun":5850,"Ġwasa":5851,"kaw":5852,"kali":5853,"Ġllaqtakunaq":5854,"Ġdisi":5855,"ardia":5856,"Ġrimar":5857,"wila":5858,"Ġpichincha":5859,"Ġjun":5860,"Ġqapa":5861,"Ġcana":5862,"Ġquchun":5863,"Ġqufnt":5864,"Ġsami":5865,"Ġmayt":5866,"ÃŃy":5867,"huch":5868,"Ġnillarqan":5869,"Ġ\"Â¿":5870,"ĠumiÃ±a":5871,"Ġyachaynin":5872,"panpa":5873,"Ġparyaqaqa":5874,"olina":5875,"Ġvan":5876,"ptinpas":5877,"pachapi":5878,"Ġsearch":5879,"Ġyuyayku":5880,"Ġcaball":5881,"new":5882,"Ġnacion":5883,"universi":5884,"Ġkasqankuta":5885,"Ġuywakunap":5886,"Ġbaut":5887,"Ġkikinmanta":5888,"Ġkamachiykuna":5889,"Ġ1960":5890,"mbre":5891,"Ġmegantoni":5892,"Ġtakiqsi":5893,"ykichista":5894,"Ġqhelli":5895,"Ġkausay":5896,"burn":5897,"Ġfelipe":5898,"Ġquijarro":5899,"Ġupyana":5900,"Ġklubkuna":5901,"Ġbilhika":5902,"Ġchaqallu":5903,"Ġcentro":5904,"Ġsacerdote":5905,"ÙĦÙĬØ§ÙĦ":5906,"antonio":5907,"63":5908,"cy":5909,"ejo":5910,"fer":5911,"gran":5912,"ikray":5913,"iza":5914,"py":5915,"pos":5916,"ska":5917,"udad":5918,"Ùĥ":5919,"Ġyuq":5920,"anqan":5921,"qachu":5922,"llisqa":5923,"mad":5924,"mat":5925,"maman":5926,"papa":5927,"wasun":5928,"Ġhir":5929,"Ġpol":5930,"chapi":5931,"Ġkam":5932,"Ġaru":5933,"Ġllaqtas":5934,"Ġchus":5935,"Ġpari":5936,"Ġimpa":5937,"Ġiwru":5938,"Ġkayku":5939,"Ġkaywan":5940,"Ġkayninmi":5941,"Ġchaypin":5942,"mondi":5943,"Ġtiy":5944,"Ġinde":5945,"Ġsamana":5946,"ĠÃ±au":5947,"Ġmaya":5948,"roma":5949,"Ġpaytaq":5950,"Ġwankayu":5951,"unchawniyki":5952,"Ġallinchay":5953,"Ã©rica":5954,"luritu":5955,"Ġchunta":5956,"Ġunqun":5957,"Ġlado":5958,"kunannaq":5959,"Ġwillakuykuna":5960,"uter":5961,"Ġphax":5962,"kisqan":5963,"Ġsayk":5964,"Ġayacu":5965,"Ġatisqan":5966,"anchaynin":5967,"Ġchuriy":5968,"imatataq":5969,"Ġrunasimita":5970,"Ø§Ø":5971,"Ġ1937":5972,"Ġ1938":5973,"psyun":5974,"Ġfranz":5975,"Ġqaranqa":5976,"Ġwasinpi":5977,"Ġqayllay":5978,"kunqaku":5979,"layu":5980,"portal":5981,"Ġqelqasqa":5982,"Ġyanapana":5983,"ĠthuÃ±i":5984,"wawakuna":5985,"Ġplaza":5986,"Ġkhuchi":5987,"ĠÃĹ":5988,"ĠsebastiÃ¡n":5989,"62":5990,"achan":5991,"ej":5992,"hus":5993,"iraq":5994,"pburn":5995,"sur":5996,"trun":5997,"vis":5998,"ãĥ":5999,"Ġ×":6000,"ango":6001,"anqanku":6002,"ayaq":6003,"mag":6004,"kunakama":6005,"kunahina":6006,"rie":6007,"ĠpÃ¡":6008,"kusa":6009,"Ġwatu":6010,"kiku":6011,"apaya":6012,"Ġhukmanta":6013,"ambi":6014,"Ġkiru":6015,"Ġyach":6016,"sichus":6017,"Ġpizar":6018,"Ġqaya":6019,"Ġ1917":6020,"Ġ1914":6021,"Ġpachapipas":6022,"alo":6023,"Ġmichiq":6024,"Ġkawsanqa":6025,"Ġgas":6026,"ĠÃ±aka":6027,"ĠwaÃ±uq":6028,"Ġpaykunaq":6029,"Ġhinalla":6030,"kuqtin":6031,"Ġnispaqa":6032,"Ġmunisipyum":6033,"Ġhansuyu":6034,"arabya":6035,"âĨĴ":6036,"Ġhanaqmi":6037,"Ġukyan":6038,"kunawanpas":6039,"Ġalf":6040,"sinchi":6041,"Ġviii":6042,"hanan":6043,"piruwpa":6044,"Ġyachaqana":6045,"Ġguti":6046,"Ġ1944":6047,"Ġ1971":6048,"Ġchuray":6049,"Ġ1957":6050,"Ġkurur":6051,"Ġwamanim":6052,"2012":6053,"Ġapachi":6054,"Ġtex":6055,"Ġmikhunata":6056,"wanaku":6057,"Ġashwan":6058,"ankaru":6059,"qhari":6060,"wuÃ±a":6061,"ceres":6062,"Ġaphrika":6063,"ĠeducaciÃ³n":6064,"Ġjayk":6065,"rikcha":6066,"Ġmilagro":6067,",\"":6068,"mÃ¡":6069,"nisqa":6070,"svg":6071,"ville":6072,"Ã¸":6073,"Ġer":6074,"anos":6075,"unal":6076,"Ġste":6077,"waqa":6078,"kunami":6079,"tit":6080,"Ġhen":6081,"yapa":6082,"kaman":6083,"kamus":6084,"Ġninki":6085,"Ġnurwiga":6086,"Ġsimana":6087,"Ġdan":6088,"Ġtanqa":6089,"Ġtel":6090,"ĠÃ±ust":6091,"Ġhukkuna":6092,"ono":6093,"sipsyun":6094,"Ġhabana":6095,"Ġchaypiqa":6096,"Ġchayraykun":6097,"Ġpisiya":6098,"Ġpikunachus":6099,"Ġwichay":6100,"Ġbre":6101,"Ġtapu":6102,"kaya":6103,"wayta":6104,"Ġ1901":6105,"Ġ1922":6106,"Ã±ataqmi":6107,"Ġlis":6108,"Ġlayqa":6109,"comunidad":6110,"Ġtiyana":6111,"Ġmilan":6112,"Ġcham":6113,"Ġchalan":6114,"Ġurmay":6115,"Ġmaypipas":6116,"romanu":6117,"Ġrimaykunata":6118,"hasqa":6119,"Ġwikipidiyap":6120,"Ã³noma":6121,"Ġatiyta":6122,"chkaspa":6123,"Ġurqukunamanta":6124,"chunchu":6125,"Ġrimaqa":6126,"Ġrimarqanku":6127,"Ġantawaylla":6128,"talaya":6129,"Ġruraqqa":6130,"Ġkunantaq":6131,"Ġpeter":6132,"anchayniyki":6133,"Ġphisqa":6134,"Ġqhawasqa":6135,"Ġqhawarin":6136,"Ġ1948":6137,"Ġjinata":6138,"Ġcont":6139,"paqari":6140,"Ġrunapura":6141,"Ġatiyninta":6142,"Ġatiyniyoq":6143,"ukunaq":6144,"Ġchurinta":6145,"ĠÃ±anpi":6146,"Ġcoron":6147,"wintu":6148,"ĠÃ±akÊ¼":6149,"Ã©sar":6150,"apurimaq":6151,"Ġwawqin":6152,"Ġruraykamay":6153,"Ġrusya":6154,"Ġukumari":6155,"paksi":6156,"Ġ=>":6157,"Ġministrun":6158,"Ġpartidupi":6159,"Ġaugusto":6160,"jandro":6161,"ĠespaÃ±ol":6162,"kristiyanu":6163,"Ġulimpiku":6164,"Ġarguedas":6165,"å¸Ĥ":6166,"ĠgonzÃ¡lez":6167,"600":6168,"atu":6169,"achu":6170,"aÃ±askitu":6171,"cta":6172,"laq":6173,"ppas":6174,"sap":6175,"llina":6176,"piwra":6177,"unaqa":6178,"ritun":6179,"Ġpres":6180,"kuran":6181,"Ġwachu":6182,"Ã±ur":6183,"kal":6184,"Ġllaqtakunam":6185,"uskiy":6186,"usapa":6187,"Ġsiti":6188,"Ġwatasqa":6189,"chiwan":6190,"Ġix":6191,"Ġiwan":6192,"Ġigle":6193,"arisqa":6194,"wicha":6195,"Ġchaypacha":6196,"tinki":6197,"Ġmanachu":6198,"Ġanto":6199,"raymi":6200,"Ġlus":6201,"Ġrunakunas":6202,"Ġgen":6203,"chikman":6204,"regi":6205,"unchawkama":6206,"kuqqa":6207,"Ġyachasqan":6208,"Ġwayllay":6209,"Ġwakmanta":6210,"Ġvino":6211,"Ġeuro":6212,"Ġwasita":6213,"Ġmamallaqtapura":6214,"Ġsinto":6215,"neq":6216,"unchaykuna":6217,"Ġphista":6218,"ĠwaÃ±uchin":6219,"Ġusqhay":6220,"Ġ1959":6221,"Ġpampapi":6222,"ĠhuÃ±un":6223,"Ġpurispa":6224,"Ġdyusmanta":6225,"Ġwillkapampa":6226,"Ġbarran":6227,"Ġwakichina":6228,"Ġsamk":6229,"wriyu":6230,"ĠfernÃ¡ndez":6231,"Ġuniversity":6232,"Ġkachkaspa":6233,"'''":6234,"ikrasqakuna":6235,"Ġhepburn":6236,"Ġmuyun":6237,"Ġnasyunkuna":6238,"ĠĠĠĠ":6239,"qhipaqnin":6240,"Ġinstitu":6241,"Ġwayllukuy":6242,"Ġlibertad":6243,"Ġpaqarisqanmanta":6244,"llantaytampu":6245,"Ġinirupi":6246,"ĠautÃ³noma":6247,"lara":6248,"muru":6249,"qhawa":6250,"uchuy":6251,"wlli":6252,"anmanta":6253,"cht":6254,"inmi":6255,"Ġsisi":6256,"wati":6257,"chari":6258,"kuqa":6259,"kuwa":6260,"Ġchumpi":6261,"Ġmb":6262,"Ġmuqu":6263,"Ġio":6264,"nintaq":6265,"Ġkillka":6266,"Ġkitara":6267,"iqisqa":6268,"pasqu":6269,"Ġyachasqa":6270,"kunayki":6271,"maya":6272,"mayta":6273,"Ġpruwinsyaqa":6274,"Ġ1927":6275,"Ġtimpu":6276,"Ġkaqllataq":6277,"chikpas":6278,"Ġiskusya":6279,"shka":6280,"Ġuchu":6281,"Ġrimaykunam":6282,"Ġunqu":6283,"Ġpuklla":6284,"Ġparlay":6285,"Ġkatiguriyapiqa":6286,"raykum":6287,"Ġllaqtapmi":6288,"allma":6289,"Ġhamurqan":6290,"Ġjac":6291,"lismu":6292,"sunqu":6293,"jatun":6294,"Ġsinqa":6295,"2000":6296,"cep":6297,"Ġruraqkuna":6298,"Ġqillqaqkuna":6299,"meral":6300,"anchayta":6301,"Ġ1995":6302,"Ġchuran":6303,"ĠleÃ³n":6304,"Ġcarmen":6305,"Ġ1956":6306,"Ġqispisqa":6307,"Ġ1935":6308,"Ġyuyaycha":6309,"kota":6310,"Ġlouis":6311,"Ġnisqanman":6312,"Ġwaqaycha":6313,"Ġwasinman":6314,"Ġmaqanakuypi":6315,"Ġcrup":6316,"Ġafrikapi":6317,"Ġajinata":6318,"takichaq":6319,"Ġrioja":6320,"Ġqarqurqan":6321,"Î¯Î±":6322,"Ġmontevideo":6323,"Ġwamra":6324,"ĠkÊ¼acha":6325,"Ġmariscal":6326,"350":6327,"khi":6328,"lus":6329,"yayuq":6330,"Ã¢":6331,"Äĵ":6332,"Ġ]":6333,"anpa":6334,"anpaj":6335,"ayka":6336,"ayniyuq":6337,"mit":6338,"challwa":6339,"Ġkapu":6340,"Ġaba":6341,"Ġagus":6342,"Ġrant":6343,"Ġllaqtawan":6344,"ĠchÃ¡":6345,"Ġmachaqa":6346,"Ġturu":6347,"Ġsimikunata":6348,"Ġricardo":6349,"Ġkaykunata":6350,"Ġkaytaqa":6351,"rawi":6352,"Ġbur":6353,"Ġqatiy":6354,"kuypi":6355,"gue":6356,"nico":6357,"Ġdistritup":6358,"Ġsacha":6359,"Ġsajama":6360,"pumaqucha":6361,"Ġmayo":6362,"Ġislu":6363,"Ġ51":6364,"Ġtupuy":6365,"Ġtumipampa":6366,"Ġpukllana":6367,"punqa":6368,"Ġ47":6369,"Ġvin":6370,"umuy":6371,"Ġespin":6372,"Ġwarmipas":6373,"Ãºl":6374,"ĠâĢĵÂ¡":6375,"raqu":6376,"uyuqmi":6377,"waranqa":6378,"Ġyakuchaq":6379,"Ġtukusqa":6380,"Ġchuqi":6381,"Ġsuyuyuq":6382,"Ġchupa":6383,"Ġwallqan":6384,"Ġawus":6385,"john":6386,"Ġsuyunpi":6387,"Ġpachakmanta":6388,"perÃº":6389,"Ġchayamun":6390,"Ġwillakuykunata":6391,"Ġlluqsin":6392,"Ġjehovamanta":6393,"llawanchu":6394,"ĠØ§ÙĦØ":6395,"Ġisabel":6396,"colÃ¡s":6397,"Ġjerusalen":6398,"Ġshawsha":6399,"Ġhawka":6400,"Ġgrande":6401,"qullqi":6402,"Ġphinyim":6403,"Ġpitumarka":6404,"Ġkhuruq":6405,"Ġpizarro":6406,"86":6407,"ag":6408,"az":6409,"awi":6410,"gÃ¼":6411,"hur":6412,"sya":6413,"tanqa":6414,"tto":6415,"wpu":6416,"à°":6417,"taka":6418,"inan":6419,"inkina":6420,"isha":6421,"Ġsiste":6422,"Ġphas":6423,"Ġkata":6424,"Ġkari":6425,"Ġkara":6426,"Ã±os":6427,"Ġqul":6428,"Ġraya":6429,"ĠmÃ¼nchen":6430,"Ġdar":6431,"Ġdos":6432,"Ġilla":6433,"Ġhukchan":6434,"ninpas":6435,"lip":6436,"Ġrunamasin":6437,"chaynu":6438,"lao":6439,"Ġbay":6440,"Ġbir":6441,"Ġtakana":6442,"Ġkanka":6443,"usqayki":6444,"Ġichapas":6445,"llano":6446,"runaqa":6447,"Ġpaykunawan":6448,"Ġkamarqan":6449,"Ġsantos":6450,"vich":6451,"Ġyachaymi":6452,"teria":6453,"Ġdic":6454,"Ġdimuk":6455,"Ġlago":6456,"kunanka":6457,"Ġwayaqa":6458,"Ġworld":6459,"Ġegi":6460,"gotÃ¡":6461,"Ġrikurqan":6462,"Ġrikukun":6463,"Ġori":6464,"unqati":6465,"Ġjuana":6466,"kuspataq":6467,"Ġseco":6468,"Ġikwadurpa":6469,"Ġwawata":6470,"Ġgubir":6471,"Ġatinmi":6472,"Ġatinki":6473,"ikran":6474,"carlos":6475,"Ġnuwi":6476,"Ġaplaw":6477,"Ġjanq":6478,"Ã¼r":6479,"ĠseÃ±orpa":6480,"Ġrunasta":6481,"Ġwikibooks":6482,"wakya":6483,"Ġwiksa":6484,"ĠkaÃ±ina":6485,"ĠmaraÃ±un":6486,"Ġkamarisqam":6487,"ysespa":6488,"Ġcultura":6489,"Ġesteb":6490,"lipinakuna":6491,"Ġtunkurawa":6492,"%)":6493,"300":6494,"87":6495,"dr":6496,"dÃŃ":6497,"mina":6498,"qos":6499,"sul":6500,"uda":6501,"vent":6502,"ykipi":6503,"takiq":6504,"mata":6505,"maki":6506,"pallqa":6507,"rita":6508,"chawan":6509,"Ġchha":6510,"urani":6511,"rup":6512,"Ġpalo":6513,"Ġtec":6514,"Ġthak":6515,"ĠÃ±ut":6516,"onta":6517,"onia":6518,"yuqkunapaq":6519,"Ġyapay":6520,"tuqa":6521,"simin":6522,"Ġchaykunaqa":6523,"Ġpill":6524,"Ġbinidiktu":6525,"Ġqaran":6526,"Ġcla":6527,"Ġqillqaqa":6528,"Ġllaqtanta":6529,"Ġ1919":6530,"chisqanku":6531,"puyas":6532,"eld":6533,"Ġkaqkunamanta":6534,"hiptu":6535,"Ġallpan":6536,"Ġgram":6537,"Ġsaman":6538,"ÃŃso":6539,"runakunaqa":6540,"Ġsandia":6541,"Ġqhapaqninsi":6542,"Ã³bal":6543,"Ġtumpa":6544,"Ġparin":6545,"ĠparÃŃs":6546,"Ġkuntinpi":6547,"Ġhinaqtin":6548,"Ġ49":6549,"Ġrakisqa":6550,"suni":6551,"ward":6552,"Ġsutinpi":6553,"Ġpuno":6554,"Ġ04":6555,"ĠinkarrÃŃ":6556,"Ġkasqanmanta":6557,"Ġphransis":6558,"Ġqullpa":6559,"Ġawril":6560,"Ġcastro":6561,"Ġphiruru":6562,"Ġhinantin":6563,"winisuyla":6564,"Ġteqsi":6565,"tores":6566,"taripay":6567,"Ġhuchha":6568,"Ġlluqsiy":6569,"Ġwatiqaqkuna":6570,"ĠÎº":6571,"jesusqa":6572,"ĠjapÊ¼":6573,"ÐºÐµ":6574,"Ġsumaj":6575,"Ġgeorge":6576,"Ġregion":6577,"Ġajinamanta":6578,"Ġqallupi":6579,"Ġmerce":6580,"Ġtruhillu":6581,"liwrukuna":6582,"Ġqhawarispa":6583,"ĠjosuÃ©":6584,"Ġdistritunmi":6585,"paqhawana":6586,"Ġindepen":6587,"Ġphinyimpi":6588,"Ġestebanta":6589,"'s":6590,"ach":6591,"allaqta":6592,"gr":6593,"imanta":6594,"ire":6595,"ilanda":6596,"ler":6597,"pÃº":6598,"qpa":6599,"tte":6600,"utaq":6601,"zan":6602,"zia":6603,"Î¸":6604,"Ð¹":6605,"Ġ<":6606,"Ġ>":6607,"Ġà¤":6608,"ankunapi":6609,"Ġkb":6610,"inku":6611,"aqqa":6612,"Ġsyn":6613,"ware":6614,"ticos":6615,"Ġwash":6616,"Ġqil":6617,"Ġnana":6618,"Ġllaqtataqa":6619,"ĠchÊ¼":6620,"Ġchhay":6621,"apra":6622,"Ġripun":6623,"Ġkayampi":6624,"sita":6625,"Ġchaytaq":6626,"Ġpillun":6627,"Ġmanaraqmi":6628,"quta":6629,"Ġbea":6630,"Ġcen":6631,"Ġqillqapi":6632,"Ġyuma":6633,"hata":6634,"Ġlistritu":6635,"Ġini":6636,"kanmi":6637,"chiksuyu":6638,"Ġurpi":6639,"Ġ300":6640,"Ġnitaj":6641,"shina":6642,"chantÃ¡":6643,"Ġhuqa":6644,"chkanki":6645,"Ġlamar":6646,"ĠwaÃ±usqaÃ±a":6647,"Ġwikipidiyapi":6648,"Ġwillakun":6649,"Ġwisa":6650,"Ġllakisqa":6651,"Ġarte":6652,"Ġsuyukunapas":6653,"Ġalma":6654,"ĠÃ±awpaqman":6655,"Ġ90":6656,"Ġcaja":6657,"Ġprome":6658,"murqanku":6659,"suwisa":6660,"Ġ[...":6661,"mori":6662,"Ġchuqu":6663,"rusu":6664,"Ġchull":6665,"Ã±iqin":6666,"Ġguerra":6667,"ĠwaÃ±uchiy":6668,"cuela":6669,"saywaman":6670,"Ġsiminta":6671,"Ġmunanki":6672,"Ġlicencia":6673,"Ġcaste":6674,"ĠÃ±oqan":6675,"Ġyachachiqkuna":6676,"Ġsaphin":6677,"Ġutqaylla":6678,"chaski":6679,"Ġkawpay":6680,"Ġkunkapaqmi":6681,"ĠwillaÃ±iqip":6682,"Ġisraeli":6683,"iraw":6684,"Ġadj":6685,"Ġbulibiya":6686,"Ġlorenzo":6687,"Ġonqoy":6688,"Ġflora":6689,"Ġmagdalena":6690,"Ġillanchaykuq":6691,"Ġgregorio":6692,"Ġyallinakuy":6693,"ĠØ¹Ø¨ÙĪØ¯":6694,"Ġapostol":6695,"Ġsullk":6696,"ĠchÃ¡vez":6697,"ÐºÐµÑĩ":6698,"cÃ³n":6699,"lta":6700,"mes":6701,"panqa":6702,"xos":6703,"chel":6704,"aqpa":6705,"Ġsta":6706,"waran":6707,"rikuq":6708,"Ġhuma":6709,"Ġpura":6710,"Ġpaqu":6711,"kucha":6712,"kumpi":6713,"kapu":6714,"Ġllaqtacha":6715,"Ġmt":6716,"Ġmata":6717,"Ġpallan":6718,"askaq":6719,"Ġiran":6720,"Ġrunamanta":6721,"paschu":6722,"tuwri":6723,"Ġsuwidsuyu":6724,"Ġpili":6725,"Ġqapaq":6726,"ĠcÃ³rdoba":6727,"Ġquz":6728,"ore":6729,"Ġaypan":6730,"didi":6731,"Ġlista":6732,"Ġinf":6733,"Ġinfec":6734,"ĠÃ±aupa":6735,"ranllapa":6736,"rera":6737,"unchawnin":6738,"rqachu":6739,"Ġrimayqa":6740,"Ġ55":6741,"Ġunyun":6742,"Ġunduras":6743,"Ġhinaqtinmi":6744,"Ġ48":6745,"Ġpusam":6746,"aniya":6747,"ĠespÃŃritu":6748,"Ġchaskiy":6749,"Ġuktuwri":6750,"Ġmunapay":6751,"Ġ75":6752,"Ġsayaq":6753,"Ġkuri":6754,"Ġatispa":6755,"Ġinkakuna":6756,"anchaymanta":6757,"aykupaq":6758,"Ġkashaspa":6759,"asqanta":6760,"ĠwaÃ±uchispa":6761,"Ġatinmanchu":6762,"Ø§ÙĨ":6763,"Ġ1934":6764,"aqtintaq":6765,"Ġtuktun":6766,"ĠmaÃ±akuy":6767,"Ġqhechwa":6768,"purtuyis":6769,"grafÃŃa":6770,"Ġyurap":6771,"Ġsamin":6772,"panama":6773,"yachaywasi":6774,"Ġtoro":6775,"Ġkawpaq":6776,"ĠÏĥ":6777,"ĠpuÃ±uy":6778,"muyuntin":6779,"Ġhisp":6780,"Ġfuji":6781,"Ġcampos":6782,"Ġhuanca":6783,"Ġnueva":6784,"Ġpruwinsyanmi":6785,"Ġatawallpa":6786,"bla":6787,"bolÃŃvar":6788,"eti":6789,"huq":6790,"iro":6791,"ikra":6792,"jin":6793,"kÃ¯":6794,"sus":6795,"ykuq":6796,"Ã¬":6797,"Ð³":6798,"Ø²":6799,"Ġorg":6800,"ĠÎ±":6801,"ung":6802,"aykunata":6803,"Ġke":6804,"madrid":6805,"ticia":6806,"Ġhern":6807,"llatam":6808,"llapuni":6809,"Ġ(+":6810,"Ġawan":6811,"Ġapuy":6812,"Ġatina":6813,"Ġnaska":6814,"Ġmain":6815,"Ġnisqapiqa":6816,"Ġpag":6817,"Ġdor":6818,"Ġiqi":6819,"Ġital":6820,"Ġrunapa":6821,"Ġyachana":6822,"Ġsullu":6823,"Ġsucre":6824,"esis":6825,"lali":6826,"laho":6827,"Ġsimipitaq":6828,"Ġbro":6829,"Ġwatapitaq":6830,"Ġtatan":6831,"Ġcle":6832,"Ġqillqaspa":6833,"Ġquin":6834,"Ġkansi":6835,"Ġkanchis":6836,"Ġllamka":6837,"Ġantinpi":6838,"Ġluq":6839,"Ġhawapi":6840,"Ġmichi":6841,"Ġkawsasqa":6842,"Ġglo":6843,"kanta":6844,"payaq":6845,"Ġaswanqa":6846,"Ġwanu":6847,"unchawniy":6848,"panaykuna":6849,"tanku":6850,"llir":6851,"chanam":6852,"Ġhudyu":6853,"ĠhayÃ±in":6854,"ayaku":6855,"Ġpusay":6856,"Ġyurakunata":6857,"Ġllakiy":6858,"uruwayi":6859,"Ġkusiy":6860,"Ġchinkay":6861,"boa":6862,"kunapaqmi":6863,"Ġcaus":6864,"Ġparkim":6865,"Ġsaqi":6866,"Ġkawsaqkuna":6867,"Ġwawakunata":6868,"anchayninta":6869,"illaykuna":6870,"Ġuqunqati":6871,"phis":6872,"Ġguz":6873,"Ġ1972":6874,"Ġnesqa":6875,"ĠwiÃ±arin":6876,"Ġjesusmi":6877,"Ġtiksisqan":6878,"Ġrunasimitam":6879,"Ġkaspapas":6880,"Ġ1931":6881,"Ġmunanmi":6882,"Ġcasos":6883,"Ġsalinas":6884,"Ġnispan":6885,"Ġkulunya":6886,"Ġdyusta":6887,"2016":6888,"ĠÃ±oqayku":6889,"Ġmontes":6890,"Ġqhepanta":6891,"Ġwawra":6892,"Ġ1904":6893,"Ġhoqa":6894,"Ġpikkin":6895,"jean":6896,"awchu":6897,"ÐµÐ²":6898,"Ġunquq":6899,"Ġrakinmi":6900,"Ġasiru":6901,"Â».":6902,"Ġqellqa":6903,"Ġhisus":6904,"briel":6905,"apunin":6906,"liktrun":6907,"Ġcristiano":6908,"Ġtumas":6909,"Ġruphay":6910,"Ġmunaspaykiqa":6911,"Ġcamacho":6912,"ĠcÃ¡ceres":6913,"Ġrakiqunaqa":6914,"Ġwillkanuta":6915,"Ġdisimripi":6916,"tinkimuq":6917,"Ġioan":6918,"cla":6919,"dap":6920,"ek":6921,"greso":6922,"hiq":6923,"iÃ±u":6924,"ly":6925,"lÃ¡n":6926,"nurwiga":6927,"sana":6928,"ster":6929,"tista":6930,"yman":6931,"Ġ01":6932,"cher":6933,"indya":6934,"pakuq":6935,"Ġsen":6936,"mill":6937,"Ġpr":6938,"yaspa":6939,"kamuy":6940,"Ġachu":6941,"Ġnar":6942,"Ġllaqtakunaman":6943,"Ġiqin":6944,"Ġibarra":6945,"Ġrijch":6946,"Ġsuchuq":6947,"taqsi":6948,"cota":6949,"Ġjara":6950,"Ġbis":6951,"Ġqall":6952,"Ġqala":6953,"Ġwatapimanta":6954,"Ġanchay":6955,"hili":6956,"antaman":6957,"chikkuna":6958,"ĠÃ±ataq":6959,"Ġpaypaq":6960,"rqayku":6961,"Ġqhawaq":6962,"Ġ//":6963,"Ġtutay":6964,"Ġyachachispa":6965,"Ġamachana":6966,"Ġtukuyta":6967,"olf":6968,"Ġhamuspa":6969,"Ġayllukuna":6970,"Ġcorin":6971,"Ġescri":6972,"Ġwarmita":6973,"Ġkustarika":6974,"Ġmikhuspa":6975,"Ġastawanqa":6976,"unchaymi":6977,"Ġnace":6978,"kichismi":6979,"gitis":6980,"anchayniy":6981,"Ġkasharqan":6982,"Ġluz":6983,"Ġyanapas":6984,"Ġ1988":6985,"Ġ1943":6986,"Ġhampina":6987,"Ġ1932":6988,"Ġsalwadur":6989,"Ġatiparqan":6990,"Ġqoy":6991,"Ġchaqn":6992,"Ġzamora":6993,"Ġruwana":6994,"Ġpoli":6995,"Ġwakichisqa":6996,"ĠØ¨":6997,"ĠjallpÊ¼":6998,"Ġ1909":6999,"Ġbibliaqa":7000,"Ġporto":7001,"Ġgarci":7002,"Ġaqha":7003,"Ġkunkawaki":7004,"Ġisqunniyuq":7005,"Ġoskar":7006,"Ã©rrez":7007,"Ġnorte":7008,"Ġteresa":7009,"Ġwarmakuna":7010,"uwatana":7011,"biblia":7012,"Ġabraham":7013,"Ġwashington":7014,"blu":7015,"buli":7016,"cina":7017,"dina":7018,"gru":7019,"gram":7020,"gapur":7021,"id":7022,"mm":7023,"panakuy":7024,"png":7025,"stu":7026,"uka":7027,"uchuk":7028,"chk":7029,"inchaq":7030,"aqkunap":7031,"Ġsel":7032,"uywa":7033,"mia":7034,"yas":7035,"Ġquq":7036,"Ġchuru":7037,"ukhu":7038,"Ġnisqas":7039,"Ġnisqamantaqa":7040,"Ġdin":7041,"Ġsimiwan":7042,"arka":7043,"arisqan":7044,"Ġrir":7045,"lito":7046,"iqi":7047,"raw":7048,"ĠsuÃ¡rez":7049,"ers":7050,"Ġwatapikama":7051,"Ġpruwinsyakuna":7052,"Ġtapuna":7053,"Ġtimo":7054,"Ġmiran":7055,"cilia":7056,"ciencia":7057,"Ġkawsana":7058,"Ġkawsarqan":7059,"hiya":7060,"Ġallicha":7061,"Ġchakas":7062,"chikmanta":7063,"Ġruraspa":7064,"Ġimas":7065,"Ġimakunatapas":7066,"Ġruiz":7067,"Ġniwan":7068,"Ġfir":7069,"Ġullantaytampu":7070,"Ġwankani":7071,"Ġyachayniyoq":7072,"cata":7073,"ĠmartÃŃ":7074,"Ġqhatuna":7075,"Ġhuchay":7076,"peqa":7077,"Ġ400":7078,"Ġllamiy":7079,"rinapaq":7080,"mayutata":7081,"Ġrobert":7082,"Ġyupayqa":7083,"Ġmunakun":7084,"sunkichis":7085,"bour":7086,"Ġsevilla":7087,"Ġyakum":7088,"Ġinkap":7089,"Ġuywakunata":7090,"ĠwaÃ±uchisqa":7091,"Ġatinku":7092,"Ġelisa":7093,"Ġchawin":7094,"poli":7095,"llaqtan":7096,"Ġawr":7097,"qallarina":7098,"Ġpurus":7099,"Ġ1933":7100,"Ġunquyta":7101,"Ġkultura":7102,"Ġtantanakuynin":7103,"Ġ1906":7104,"aklla":7105,"Ġpisqukunam":7106,"ĠhuÃ±up":7107,"port":7108,"jesÃºs":7109,"Ġtusuq":7110,"Ġirqi":7111,"Ġpachaykamaypi":7112,"Î¼Î±":7113,"Ġkillaqullu":7114,"Ġchinchiru":7115,"ÑĥÐ°":7116,"gisqatar":7117,"wasinyuq":7118,"Ġasinda":7119,"Ġapulupampa":7120,"Ġamawta":7121,"Ġvargas":7122,"isimitaqi":7123,"Ġkhankiq":7124,"Ġphaxsi":7125,"Ġayacucho":7126,"Ġwallqanqan":7127,"lahoma":7128,"Ġioannes":7129,"aja":7130,"beni":7131,"cuna":7132,"daniel":7133,"ili":7134,"nill":7135,"oc":7136,"ruqucha":7137,"suma":7138,"ser":7139,"vara":7140,"ye":7141,"ysu":7142,"ÏĨ":7143,"Ġè":7144,"qata":7145,"ller":7146,"pisqa":7147,"Ġken":7148,"inpi":7149,"inter":7150,"paul":7151,"Ġsp":7152,"Ġspa":7153,"Ġsto":7154,"ĠsÃ£o":7155,"wal":7156,"rikun":7157,"Ġhero":7158,"Ġah":7159,"Ġagos":7160,"Ġmisi":7161,"asun":7162,"asaq":7163,"anqara":7164,"Ġtsa":7165,"Ġsimitapas":7166,"Ġkaytaq":7167,"Ġpiru":7168,"taqtaq":7169,"chaywan":7170,"Ġbin":7171,"Ġtaka":7172,"Ġtapurqan":7173,"Ġqillqanku":7174,"Ġcm":7175,"ĠcÃ©sar":7176,"Ġsutiyoq":7177,"wayu":7178,"Ġ1913":7179,"chasqam":7180,"Ġandes":7181,"dium":7182,"Ġlen":7183,"Ġing":7184,"cias":7185,"Ġchakana":7186,"Ġmunana":7187,"huan":7188,"Ġrupha":7189,"Ġisla":7190,"Ġwanay":7191,"Ġyachaykunata":7192,"chinan":7193,"chinmi":7194,"Ġdiego":7195,"Ġ53":7196,"Ġparque":7197,"pera":7198,"Ġkawsaymanta":7199,"Ġwasim":7200,"Ġrikuchiy":7201,"Ġjesuk":7202,"huklla":7203,"Ġotaq":7204,"Ġcocha":7205,"lantiku":7206,"Ġyupayninqa":7207,"Ġrimarqan":7208,"2003":7209,"yayayku":7210,"bios":7211,"anchaypi":7212,"Ġmuju":7213,"itz":7214,"parispa":7215,"Ġleo":7216,"fica":7217,"ĠÃ±uÃ±u":7218,"Ġmora":7219,"onado":7220,"Ġllaqtamantaqa":7221,"Ġbearn":7222,"Ġoro":7223,"Ġwasinta":7224,"Ġahinapin":7225,"Ġrimanakuynin":7226,"Ġmaqanakuyta":7227,"Ġ1908":7228,"Ġmikhunapaq":7229,"Ġwikimedia":7230,"dalu":7231,"salmo":7232,"Ġtorre":7233,"Ġperuana":7234,"Ġllimphiqpas":7235,"ĠkaÃ±iti":7236,"Ġturkiya":7237,"Ġshuti":7238,"ÏĥÏĦ":7239,"huwanpa":7240,"Ġchukuwitu":7241,"Ġchinchipi":7242,"Ġpuruha":7243,"ĠmÃ©xico":7244,"Ġthansa":7245,"Ġpantaychu":7246,"Ġcolegio":7247,"Ġkampiuna":7248,"Ġkutupaksi":7249,"ĠgutiÃ©rrez":7250,"Ġsitimripi":7251,"meraldas":7252,"Ġparinaqu":7253,"ÐºÐµÑĩÑĥÐ°":7254,"Ġfujimori":7255,"%),":7256,"ah":7257,"cz":7258,"cro":7259,"ide":7260,"nÃ¶":7261,"puma":7262,"pol":7263,"sy":7264,"vos":7265,"ľĶ":7266,"anchu":7267,"llanqa":7268,"uncha":7269,"Ġkhun":7270,"aqnin":7271,"aqana":7272,"warqa":7273,"rius":7274,"Ġhisto":7275,"chacha":7276,"chaku":7277,"chakunam":7278,"llaraq":7279,"Ġwallqa":7280,"Ġwaral":7281,"kapi":7282,"ushan":7283,"usqanku":7284,"kill":7285,"kira":7286,"Ġsimon":7287,"Ġsilanda":7288,"Ġpasa":7289,"Ġpallqa":7290,"ashan":7291,"Ġtis":7292,"ĠtÃ©r":7293,"Ġriwi":7294,"amu":7295,"sil":7296,"sica":7297,"Ġhak":7298,"Ġchaypis":7299,"Ġpirwa":7300,"Ġwillana":7301,"Ġwidyu":7302,"Ġwilliam":7303,"ĠbÃ¡r":7304,"Ġsutiman":7305,"wayra":7306,"waychu":7307,"kamataq":7308,"kamachiy":7309,"Ġ1911":7310,"yang":7311,"dico":7312,"mond":7313,"ispaÃ±ul":7314,"Ġalliy":7315,"kanki":7316,"kantun":7317,"antaqa":7318,"antapas":7319,"puli":7320,"roel":7321,"Ġniyki":7322,"Ġyachaypi":7323,"Ġhullaqa":7324,"Ġunayta":7325,"Ġyachatsi":7326,"peri":7327,"Ġyupasqa":7328,"Ġyupana":7329,"arata":7330,"dela":7331,"Ġratu":7332,"Ġurqukunapi":7333,"Ġllaj":7334,"Ġhamunqa":7335,"Ġhamuchun":7336,"ming":7337,"hinallataq":7338,"Ġcopa":7339,"Ġestre":7340,"urinkin":7341,"ayninku":7342,"arimuy":7343,"pinchikilla":7344,"Ġsinti":7345,"Ġpuncha":7346,"Ġtaripan":7347,"Ġransis":7348,"Ġ05":7349,"Ġkamayuqninmi":7350,"amas":7351,"Ġkallpay":7352,"Ġsapara":7353,"Ġperdon":7354,"Ġenrique":7355,"Ġqispichiq":7356,"Ġqori":7357,"Ġmedia":7358,"winu":7359,"Ġqanchisniyuq":7360,"ĠiÃ±iypi":7361,"purqa":7362,"tarija":7363,"aringitis":7364,"Ġrusa":7365,"Ġunuta":7366,"Ġvaldi":7367,"à¤¾":7368,"Î¹Îº":7369,"wud":7370,"Ġtorres":7371,"aranway":7372,"Ġsurq":7373,"Ġafrika":7374,"Ġmiraflores":7375,"Ġnorth":7376,"Ġreqsisqa":7377,"purimuq":7378,"kaymantinkimuq":7379,"Ġasunsyun":7380,"ĠcristÃ³bal":7381,"Ġtaruka":7382,"ĠâľĶ":7383,"Ġgobierno":7384,"Ġiwrupiyu":7385,"Ġeuropa":7386,"Ġawrilpi":7387,"Ġkansillir":7388,"cÃ³":7389,"cano":7390,"eg":7391,"fisya":7392,"hen":7393,"iw":7394,"ile":7395,"ken":7396,"lar":7397,"lÃ©":7398,"oy":7399,"ola":7400,"pÃ³":7401,"quyuq":7402,"tti":7403,"ÈĻ":7404,"Ġá":7405,"Ġoq":7406,"qaya":7407,"lly":7408,"llÃ¡y":7409,"pisi":7410,"aqch":7411,"Ġst":7412,"wachu":7413,"riku":7414,"Ġplas":7415,"chamayu":7416,"llaman":7417,"kamanta":7418,"Ġabi":7419,"Ġatalaya":7420,"Ġchuya":7421,"ukay":7422,"Ġparan":7423,"Ġwatas":7424,"anqas":7425,"Ġiraq":7426,"Ġrunasqa":7427,"Ġrunakunatapas":7428,"raki":7429,"Ġqhispi":7430,"sio":7431,"Ġchaypaq":7432,"kuyman":7433,"ordo":7434,"Ġ1926":7435,"chispi":7436,"chismi":7437,"dif":7438,"hiyu":7439,"Ġhinatan":7440,"Ġquchaman":7441,"Ġlitera":7442,"Ġull":7443,"chinankupaq":7444,"riychis":7445,"Ġmarq":7446,"Ġchiqaq":7447,"Ġmayukunapi":7448,"Ġhulyupi":7449,"Ġyuri":7450,"chusuma":7451,"ania":7452,"itiy":7453,"Ġllat":7454,"kwash":7455,"Ġhamuy":7456,"Ġqillqasqam":7457,"Ġjuj":7458,"kuspaqa":7459,"hinan":7460,"munku":7461,"ariq":7462,"Ġqankunapas":7463,"ĠseÃ±o":7464,"Ġ80":7465,"Ġyakuma":7466,"ecua":7467,"Ġtukukuy":7468,"hou":7469,"Ġ02":7470,"Ġ03":7471,"moysespa":7472,"anchayqa":7473,"php":7474,"muriy":7475,"rald":7476,"Ġkallpasapa":7477,"Ġqillqasqanqa":7478,"ther":7479,"Ġhunyupi":7480,"ĠwaÃ±uchiq":7481,"ikana":7482,"Ġjinamanta":7483,"Ġqitina":7484,"Ġkuyuchina":7485,"kusqanmanta":7486,"ĠmejÃŃa":7487,"Ġchurinqa":7488,"kaskas":7489,"fag":7490,"ĠsuÃ±aytam":7491,"ĠuniÃ³n":7492,"Ġcheqa":7493,"Ġcheqas":7494,"Ġruruchinap":7495,"Ġmanchakuspa":7496,"Î¿Î½":7497,"Ġ1895":7498,"Ġpisqukuna":7499,"quipa":7500,"451":7501,"yoqmi":7502,"Ġwisnu":7503,"Ġmadridpi":7504,"Ġciudad":7505,"Ġruwasqanta":7506,"Ġankallis":7507,"Ġmoreno":7508,"ĠamÃ©rica":7509,"Ġyachachisqanmanta":7510,"paraÃŃso":7511,"awstiriya":7512,"watsuyu":7513,"Ġalejandro":7514,"Ġlaqha":7515,"shapampa":7516,"Ġqallarirqa":7517,"Ġbusch":7518,"Ġwaqyaspa":7519,"machuku":7520,"Ġreqsin":7521,"Ġpachakutiy":7522,"Ġflorida":7523,"Ġbernardo":7524,"kitilli":7525,"Ġqhelqasqa":7526,"index":7527,"Ġbautista":7528,"Ġimpapura":7529,"iraqi":7530,"Ġchalanpi":7531,"Ġcoronel":7532,"Ġawustupi":7533,"kumpiyu":7534,"ecuador":7535,"!!":7536,"aku":7537,"akunaqa":7538,"day":7539,"dÃ©":7540,"ment":7541,"opi":7542,"puspa":7543,"qusqa":7544,"ÂŃ":7545,"ä¸":7546,"Ġuna":7547,"anwan":7548,"tataj":7549,"isbn":7550,"pachi":7551,"patapi":7552,"wamp":7553,"wallpa":7554,"uyus":7555,"Ġlluk":7556,"tiz":7557,"Ġpos":7558,"yachina":7559,"mansi":7560,"manqu":7561,"Ġkati":7562,"Ġkamana":7563,"Ġwade":7564,"Ã±ka":7565,"kall":7566,"Ġapaq":7567,"Ġllaqtapata":7568,"Ġmapu":7569,"ruz":7570,"Ġnisqayuq":7571,"Ġnisqapaq":7572,"anqap":7573,"Ġtho":7574,"Ġsimillapim":7575,"ĠÃ±anta":7576,"raka":7577,"sqayki":7578,"kunay":7579,"Ġchayanta":7580,"Ġchaytan":7581,"Ġpirqan":7582,"colo":7583,"Ġjer":7584,"erte":7585,"ermo":7586,"Ġbena":7587,"Ġtakina":7588,"Ġqillqamanta":7589,"Ġkananku":7590,"chish":7591,"mont":7592,"Ġtian":7593,"Ġmir":7594,"tom":7595,"Ġpaqariy":7596,"ĠÃ±aÃ±u":7597,"Ġmayqan":7598,"Ġmunisip":7599,"Ġmunayninta":7600,"llaqtapi":7601,"sall":7602,"Ġhinapas":7603,"Ġlichi":7604,"Ã©c":7605,"Ġrimaykunamanta":7606,"Ġ500":7607,"Ġyachachirqan":7608,"Ġamataq":7609,"ĠamaÃ±a":7610,"utisuyu":7611,"Ġkawsayniyuq":7612,"Ġrikukuq":7613,"khan":7614,"Ġrej":7615,"Ġ::":7616,"minedu":7617,"ayninwan":7618,"Ġalvara":7619,"Ġ99":7620,"Ġ84":7621,"Ġpusaqnin":7622,"sude":7623,"Ġsunturpa":7624,"Ġmuchuy":7625,"Ġakllana":7626,"ĠqiwuÃ±a":7627,"ficio":7628,"Ġruwaykuna":7629,"Ġruwaykunata":7630,"sharqanku":7631,"Ġmetro":7632,"Ġruwanku":7633,"Ġphiwri":7634,"garya":7635,"dente":7636,"rÃŃo":7637,"Ġhuchasapa":7638,"Ġqayllanpi":7639,"Ġ1899":7640,"distritupiqa":7641,"Ġwaska":7642,"Ġkurak":7643,"Ġalex":7644,"Ġlaqhay":7645,"Ġchakran":7646,"Ġoscar":7647,"Ġmunaspaqa":7648,"Ġkawsarim":7649,"Ġniqir":7650,"mamallaqtapura":7651,"Ġcuerpon":7652,"Ġcaracas":7653,"Ġjoseph":7654,"unchul":7655,"Ġestudios":7656,"aphrika":7657,"Ġcheqni":7658,"Ġvillarroel":7659,"Ġjacob":7660,"Ġmayukillapi":7661,"cepciÃ³n":7662,"Ġnuwimripi":7663,"Ġitalyanu":7664,"qallarinakaskas":7665,"ĠbÃ¡rbara":7666,"fagasta":7667,"Ġalvarado":7668,"qallarinakaskasutisuyu":7669,"\":":7670,"\\\\":7671,"akunan":7672,"bÃ¡n":7673,"dona":7674,"evo":7675,"ipay":7676,"juli":7677,"lon":7678,"nuna":7679,"shu":7680,"uwan":7681,"valle":7682,"zas":7683,"ÉĻ":7684,"anto":7685,"chura":7686,"tallas":7687,"Ġkuya":7688,"mali":7689,"uyki":7690,"rikuspa":7691,"Ġlluy":7692,"manchus":7693,"llar":7694,"Ġkapita":7695,"kutaq":7696,"kupampa":7697,"Ġqiq":7698,"Ġnuq":7699,"Ġron":7700,"use":7701,"Ġmy":7702,"wanaqucha":7703,"Ġmakis":7704,"Ġsika":7705,"ĠsiÃ±ur":7706,"Ġpadre":7707,"Ġimp":7708,"ninpiqa":7709,"Ġrikuyta":7710,"Ġripurqan":7711,"lidad":7712,"Ġsuyukunamanta":7713,"Ġrunasimin":7714,"ony":7715,"Ġkayhina":7716,"Ġyatana":7717,"tuliku":7718,"Ġchaypim":7719,"Ġjur":7720,"ensis":7721,"ques":7722,"tintaq":7723,"Ġbun":7724,"Ġcur":7725,"Ġqillqakunata":7726,"Ġqillqasunchik":7727,"Ġquis":7728,"Ġkanchay":7729,"Ġ1910":7730,"Ġmanawi":7731,"Ġpachapas":7732,"aloni":7733,"Ġkaqniyuq":7734,"Ġmiyu":7735,"Ġdistritukuna":7736,"Ġhatunkaray":7737,"Ġuras":7738,"llanes":7739,"Ġimamanta":7740,"Ġisk":7741,"Ġisanka":7742,"Ġfil":7743,"Ġuta":7744,"llimanta":7745,"chanchik":7746,"Ġ1821":7747,"Ġ54":7748,"Ġyachaqaq":7749,"kunanchikpaq":7750,"Ġhinaq":7751,"Ġeu":7752,"Ġraqay":7753,"Ġox":7754,"Ġanchatam":7755,"Ġnini":7756,"Ġyupaychay":7757,"Ġjatu":7758,"Ġmarkapumaqucha":7759,"ĠÃ±awpaqtaqa":7760,"Ġ07":7761,"Ġkitillipipas":7762,"Ġlucas":7763,"asqanmanta":7764,"Ġhinallataqsi":7765,"Ġpawqartampu":7766,"verbios":7767,"Ġkhuska":7768,"impu":7769,"Ġ250":7770,"kusqanrayku":7771,"Ġkasqaku":7772,"Ġcorne":7773,"karuy":7774,"Ġkacharqan":7775,"Ġsouth":7776,"ĠÃ±oqaqa":7777,"Ġandina":7778,"Ġqayna":7779,"akil":7780,"cale":7781,"cales":7782,"1990":7783,"Ġxiv":7784,"Ġwaskaran":7785,"grigur":7786,"Ġwiksan":7787,"Ġmiraynin":7788,"Ġyachaywasikunapi":7789,"ĠkaÃ±ar":7790,"ipisqa":7791,"Ġkurakan":7792,"dunisya":7793,"ĠjehovÃ¤":7794,"Ġpresi":7795,"Ġjesucristoq":7796,"fred":7797,"Ġcharles":7798,"parinku":7799,"Ġchimlasayta":7800,"Ġinternacional":7801,"Ġqirisan":7802,"Ġyawatisuyu":7803,"Ġprince":7804,"Ġquchuntin":7805,"Ġnillarqantaqmi":7806,"Ġmilano":7807,"ĠagustÃŃn":7808,"Ġsistema":7809,"Ġegipto":7810,"lalit":7811,"ĠguzmÃ¡n":7812,"Ġtimoteo":7813,"ĠseÃ±ora":7814,"achisqan":7815,"fal":7816,"gana":7817,"ime":7818,"ky":7819,"kon":7820,"nis":7821,"pra":7822,"pel":7823,"than":7824,"ĠÐ°":7825,"tale":7826,"unga":7827,"ayti":7828,"pichu":7829,"pichus":7830,"aqninkuna":7831,"mati":7832,"paÃ±a":7833,"Ġsy":7834,"wam":7835,"waruchiri":7836,"rikuy":7837,"Ġllall":7838,"Ġlloj":7839,"tiva":7840,"kuti":7841,"kuchi":7842,"kachaq":7843,"Ġllaqtapa":7844,"Ġllaqtakunata":7845,"ukranya":7846,"kir":7847,"Ġsiwk":7848,"Ġpati":7849,"Ġiliktrun":7850,"Ġsimillapi":7851,"wili":7852,"amo":7853,"ameri":7854,"Ġrunataqa":7855,"ration":7856,"tupaq":7857,"paqta":7858,"esar":7859,"Ġchayn":7860,"Ġpie":7861,"Ġpiki":7862,"cora":7863,"Ġjuq":7864,"Ġjord":7865,"chaypacha":7866,"Ġwillam":7867,"tinta":7868,"Ġqasa":7869,"Ġclub":7870,"Ġayq":7871,"Ġllamkana":7872,"chisaq":7873,"ĠmanaÃ±an":7874,"monte":7875,"ĠindÃŃ":7876,"Ġsacri":7877,"Ġsajra":7878,"rand":7879,"Ġniya":7880,"vila":7881,"Ġukupi":7882,"tex":7883,"Ġrimaytam":7884,"lupi":7885,"Ġchil":7886,"ulimpiku":7887,"Ġyachatsik":7888,"Ġlak":7889,"Ġamachanapaq":7890,"Ġparla":7891,"Ġwillaspa":7892,"chiqta":7893,"olÃ³gi":7894,"Ġiskaychay":7895,"ĠvÃŃ":7896,"Ġrai":7897,"minikana":7898,"chunta":7899,"Ġcora":7900,"Ġhanaqpacha":7901,"Ġwarmikunata":7902,"Ġchaskiq":7903,"hinam":7904,"Ġalonso":7905,"waras":7906,"gado":7907,"Ġcala":7908,"Ġpusaqkuna":7909,"kunamanpas":7910,"Ġkachkanku":7911,"Ġkunanpacha":7912,"ananchikpaq":7913,"Ġwatakamas":7914,"tria":7915,"pusqan":7916,"tone":7917,"Ġwaqra":7918,"Ġwaqllisqa":7919,"Ġkikinta":7920,"Ġguill":7921,"Ġatinman":7922,"Ġsuntu":7923,"field":7924,"Ġukhumanta":7925,"ĠhuÃ±uy":7926,"Ġyuyayniyuq":7927,"korqanku":7928,"Ġwaqachinam":7929,"Ġjean":7930,"Ġze":7931,"ĠbogotÃ¡":7932,"Ġdyuspi":7933,"Ġwillayta":7934,"kson":7935,"Ġmuyup":7936,"Ġbella":7937,"Ġtemp":7938,"dong":7939,"ciso":7940,"Ġkanmanchu":7941,"ĠØª":7942,"Ġoffi":7943,"Ġ1872":7944,"Ð¾ÑĢ":7945,"Ġsarun":7946,"Ġxiii":7947,"Ġespirit":7948,"Ġqawasqa":7949,"liodoro":7950,"Ġkinrayninpi":7951,"yawyu":7952,"Ġchiksuyu":7953,"Ġchukcha":7954,"iÃ±icha":7955,"Ġqallawap":7956,"Ġsinago":7957,"Ġonqosqa":7958,"Ġnapaykuy":7959,"flora":7960,"Ġinternational":7961,"Ġsaksaywaman":7962,"james":7963,"Ġgalilea":7964,"giles":7965,"Ġdimukra":7966,"Ġ[...]":7967,"Ġcorinti":7968,"Ġphiwrirupi":7969,"ĠindÃŃgen":7970,"allapata":7971,"blin":7972,"bro":7973,"erio":7974,"jillo":7975,"mosa":7976,"nar":7977,"pti":7978,"pru":7979,"qhu":7980,"qshks":7981,"rpa":7982,"sisi":7983,"yle":7984,"zÃ¡n":7985,"Äĩ":7986,"ËĪ":7987,"Î´":7988,"à§":7989,"Ġmantapas":7990,"chos":7991,"pika":7992,"Ġkhin":7993,"aqkunam":7994,"pac":7995,"waw":7996,"wamanqa":7997,"Ġhon":7998,"chakuspa":7999,"yar":8000,"llawaya":8001,"Ġkachkay":8002,"kutu":8003,"Ã±Ã³n":8004,"Ġaus":8005,"Ġatam":8006,"ĠaÃ±aw":8007,"Ġabel":8008,"Ġllaqtayoq":8009,"Ġsiki":8010,"Ġsiglo":8011,"chij":8012,"Ġiru":8013,"Ġichi":8014,"Ġsimikunamanta":8015,"amayu":8016,"lid":8017,"Ġkaykunaqa":8018,"sion":8019,"paqtaq":8020,"eso":8021,"Ġpipis":8022,"erre":8023,"Ġmanqus":8024,"Ġbara":8025,"Ġtapurqanku":8026,"apaqmi":8027,"Ġ1900":8028,"Ġ1912":8029,"Ġaynin":8030,"Ġayqe":8031,"Ġlara":8032,"ald":8033,"alis":8034,"els":8035,"ĠpuÃ±u":8036,"Ġindu":8037,"Ġkawsaspa":8038,"Ġcharin":8039,"Ġgro":8040,"kanka":8041,"Ġsat":8042,"ĠwaÃ±urqa":8043,"Ġmundi":8044,"Ġisrayil":8045,"Ġnikun":8046,"ĠnicolÃ¡s":8047,"Ġfray":8048,"vir":8049,"Ġumanta":8050,"ĠuÃ±a":8051,"Ġuic":8052,"Ã³w":8053,"data":8054,"chananpaq":8055,"kunapta":8056,"Ġhaykuspa":8057,"Ġpuquna":8058,"Ġkunsipsyun":8059,"ĠwÃ±ka":8060,"utc":8061,"derico":8062,"Ġespe":8063,"Ġestero":8064,"qaykuman":8065,"Ġkusisami":8066,"Ġjuez":8067,"Ġalfredo":8068,"Ġnisqapim":8069,"uyuqkunapaq":8070,"Ġjaqay":8071,"kista":8072,"pachak":8073,"iyar":8074,"Ġlimapi":8075,"Ġsinch":8076,"Ġathina":8077,"Ġwawakunapa":8078,"moto":8079,"Ġinkawi":8080,"Ġkasqanku":8081,"Ġwatana":8082,"Ġkamayuqmi":8083,"phaq":8084,"150":8085,"Ġkantarawi":8086,"Ġkashanku":8087,"Ġbac":8088,"Ġnegro":8089,"Ġkamachiynin":8090,"vero":8091,"Ġpampachay":8092,"noqa":8093,"onato":8094,"tisuyus":8095,"Ġunquymi":8096,"Ġdyusmi":8097,"Ġyachanapaq":8098,"garÃ¡":8099,"Ġkachamusqa":8100,"Ġsobre":8101,"Ġallichay":8102,"drich":8103,"Ġalimanyap":8104,"Ġqhepan":8105,"Ġqhepata":8106,"Ġ1898":8107,"Ġchayamuq":8108,"provin":8109,"Ġpachakwatap":8110,"lawsi":8111,"Ġmallkiqpa":8112,"umirqucha":8113,"Ġwiktionary":8114,"Ġespiritun":8115,"Ġyachaywasipi":8116,"franz":8117,"chilipi":8118,"Ġkhuyapaya":8119,"Ġllumpapi":8120,"Ġllapanku":8121,"Ġmuyuy":8122,"ĠmatÃŃas":8123,"Ġmillp":8124,"Ġpatma":8125,"Ġtakya":8126,"Ġsusyalismu":8127,"pluma":8128,"calipsis":8129,"Ġ%-":8130,"Ġentienden":8131,"Ġpampas":8132,"Ġqelqan":8133,"Ġabad":8134,"Ġuktuwripi":8135,"iÃ±uku":8136,"ĠtÃ©rmino":8137,"Ġestrepto":8138,"Ġliteratura":8139,"ĠjordÃ¡n":8140,"Ġraimondi":8141,"Ġkhiniya":8142,"Ġuicn":8143,"aÃ±a":8144,"apiqa":8145,"gla":8146,"hap":8147,"koq":8148,"mero":8149,"ptiy":8150,"vÃ¡":8151,"ymi":8152,"zona":8153,"Ġç":8154,"ananku":8155,"chester":8156,"unquy":8157,"Ġkuyuq":8158,"inneq":8159,"mamay":8160,"isqu":8161,"wall":8162,"manaraq":8163,"llarqa":8164,"Ġkami":8165,"Ġampa":8166,"Ġapasqa":8167,"Ġmaqta":8168,"wanta":8169,"Ġmati":8170,"Ġmakiy":8171,"rul":8172,"rqanchu":8173,"ondo":8174,"ique":8175,"sqam":8176,"pasa":8177,"kunkichis":8178,"kunkichu":8179,"Ġsuri":8180,"Ġhaqay":8181,"illka":8182,"estra":8183,"Ġpitapas":8184,"Ġjin":8185,"Ġjim":8186,"erro":8187,"enze":8188,"Ġbul":8189,"Ġqaras":8190,"Ġtap":8191,"Ġcr":8192,"Ġ1921":8193,"Ġasankaru":8194,"Ġumallin":8195,"diyu":8196,"Ġlc":8197,"Ġpachakunapi":8198,"Ġmil":8199,"hire":8200,"Ġgor":8201,"Ġsaw":8202,"Ġsawud":8203,"Ġmundo":8204,"huÃ±u":8205,"huÃ±usqa":8206,"Ġnico":8207,"Ġfar":8208,"Ġquchas":8209,"Ġumay":8210,"Ġyachayninta":8211,"david":8212,"Ġqhatuq":8213,"ĠÃ±awra":8214,"Ġ1844":8215,"Ġmayuwan":8216,"Ġwikipidiyaqa":8217,"Ġllikan":8218,"asqam":8219,"Ġpuquynin":8220,"Ġvas":8221,"Ġrikuway":8222,"Ġrikuchiq":8223,"allwiya":8224,"Ġllalli":8225,"Ġesper":8226,"Ġumalliqmi":8227,"Ġjudas":8228,"Ġjudea":8229,"Ġalmay":8230,"muni":8231,"boli":8232,"Ġviuda":8233,"Ġtaripasqan":8234,"Ġatlantiku":8235,"muqiwa":8236,"kusani":8237,"Ġkamayuqkuna":8238,"Ġphis":8239,"Ġmaskay":8240,"Ġakllan":8241,"kurqani":8242,"Ġjinalla":8243,"Ġqulluy":8244,"Ġllaqtakunapa":8245,"Ġtiyarqan":8246,"Ġukhuman":8247,"mbardia":8248,"chejchu":8249,"Ġsalo":8250,"tribu":8251,"Ġdyuspaq":8252,"Ġpotter":8253,"ĠwaranqachÃ¡":8254,"inois":8255,"Ġyaykuy":8256,"Ġyayayku":8257,"Ġpedroqa":8258,"Ġkusikuy":8259,"Ġwawqen":8260,"grad":8261,"Ð¸Ñ":8262,"Ġgabriel":8263,"Ġllikapi":8264,"Ġfiesta":8265,"Ġrinku":8266,"dalgo":8267,"gansuyu":8268,"Ġyachachisqankunata":8269,"Ġchimpan":8270,"kuychischu":8271,"Ġupyan":8272,"Ġmayqinkunachus":8273,"Ġisaac":8274,"Ġakllaspa":8275,"imaynataq":8276,"fectura":8277,"thiyup":8278,"Ġchachapuyas":8279,"Ġvega":8280,"Ġtawna":8281,"Ġazul":8282,"imaraykutaq":8283,"Ġnuevo":8284,"Ġchimlasay":8285,"Ġapamusqa":8286,"llimphiq":8287,"Ġarhintinap":8288,"Ġ{{":8289,"ginia":8290,"Ġapustul":8291,"utervo":8292,"riedrich":8293,"inchaqkunapta":8294,"Ġelisabet":8295,"pulitika":8296,".\",":8297,"bec":8298,"ckh":8299,"cruz":8300,"dÃ¡":8301,"emi":8302,"ello":8303,"gÃŃa":8304,"ij":8305,"iyu":8306,"ichiy":8307,"ois":8308,"qoq":8309,"sinki":8310,"tpa":8311,"ypa":8312,"yaya":8313,"ĠÙĪ":8314,"ĠÑģ":8315,"aychis":8316,"pia":8317,"inchik":8318,"main":8319,"paris":8320,"Ġshun":8321,"rikuna":8322,"yachaq":8323,"mano":8324,"llado":8325,"llapis":8326,"Ġapo":8327,"killi":8328,"kichka":8329,"Ġmolina":8330,"Ġsip":8331,"Ġnisqataqa":8332,"Ġnisqamantam":8333,"mantas":8334,"chikuspa":8335,"Ġtos":8336,"Ġtro":8337,"Ġtole":8338,"Ġsimitaqa":8339,"Ġhukchay":8340,"aray":8341,"Ġkichasqa":8342,"Ġkilli":8343,"Ġrunawan":8344,"rac":8345,"ruwaq":8346,"Ġmamallak":8347,"Ġyakuy":8348,"kunta":8349,"Ġ--":8350,"enda":8351,"anaj":8352,"kuymi":8353,"ores":8354,"chispas":8355,"puya":8356,"Ġang":8357,"Ġanki":8358,"alta":8359,"Ġtiq":8360,"Ġtibet":8361,"Ġtiwanaku":8362,"Ġkaqrayku":8363,"Ġmiy":8364,"Ġingen":8365,"tora":8366,"Ã¡z":8367,"kunapin":8368,"Ġpaykunataqa":8369,"huay":8370,"Ġfitz":8371,"Ġqhapaqpa":8372,"Ġuqa":8373,"ĠuÃ±":8374,"cala":8375,"Ġallinpaq":8376,"Ġallinchayta":8377,"Ġdipluma":8378,"),[":8379,"Ġlachiwa":8380,"Ġamachay":8381,"Ġwayu":8382,"Ġwillakuq":8383,"Ġkutichin":8384,"Ġeli":8385,"aniza":8386,"Ġrikus":8387,"rinkuna":8388,"Ġllaqtansi":8389,"Ġ69":8390,"Ġcosude":8391,"Ġjuz":8392,"raqchu":8393,"hinaspa":8394,"Ġmunarqa":8395,"Ġrimapay":8396,"Ġmishi":8397,"lisa":8398,"sunchis":8399,"Ġ150":8400,"Ġyuyaspa":8401,"nej":8402,"aquÃŃn":8403,"biÃ³":8404,"ecas":8405,"simipi":8406,"Ġ09":8407,"ĠÃ±awpagradupi":8408,"Ġallpata":8409,"much":8410,"Ġchullpa":8411,"ĠwaÃ±uchiyta":8412,"imataq":8413,"bera":8414,"Ġatiyniyoj":8415,"Ġmoxos":8416,"qallawa":8417,"mbuya":8418,"Ġapulli":8419,"Ġfamilia":8420,"Ġrapra":8421,"Ġnisqankama":8422,"ĠÃ±awikaruy":8423,"Ġkulun":8424,"Ġpotos":8425,"âĸª":8426,"Ġbuh":8427,"Ġqharip":8428,"ĠmaÃ±akun":8429,"Ġwallaqa":8430,"grama":8431,"grado":8432,"kumani":8433,"Ġxv":8434,"Ġxxi":8435,"Ġ1902":8436,"Ġ1903":8437,"Ġ1905":8438,"Ġhurquy":8439,"Ġkarka":8440,"Ġrurasqanmi":8441,"Ġkausaypi":8442,"Ġwawanta":8443,"Ġqurani":8444,"ĠÎ¼":8445,"uksimbur":8446,"mente":8447,"Ġquito":8448,"Ġmoskwa":8449,"Ġpantasqa":8450,"Ġ1857":8451,"paykichisqa":8452,"janq":8453,"ĠmaraÃ±Ã³n":8454,"Ġmariano":8455,"Ġtaytanchis":8456,"Ġbustillo":8457,"Ġbolivi":8458,"tulsuyu":8459,"Ġurasuyupi":8460,"ldonado":8461,"Ġmichael":8462,"Ġrawrana":8463,"Ġempresa":8464,"Ġrumanya":8465,"Ġtampupata":8466,"Ã³nica":8467,"Ġkasukuq":8468,"Ġvirgen":8469,"Ġvenezia":8470,"stein":8471,"geoportal":8472,"tolomÃ©":8473,"ĠÃ±awpaqenpi":8474,"Ġbarranca":8475,"Ġindependencia":8476,"Ġiqiptu":8477,"Ġagosto":8478,"dalupe":8479,"Ġvaldivia":8480,"Ġtaripasqankuna":8481,"Ġtoledo":8482,"101":8483,"baq":8484,"fur":8485,"gay":8486,"hamp":8487,"nispa":8488,"sol":8489,"tza":8490,"ux":8491,"uÃ±u":8492,"uficial":8493,"ykunata":8494,"×ķ":8495,"áº":8496,"Ġ#":8497,"chuna":8498,"Ġkuma":8499,"inc":8500,"aqkunata":8501,"aqkunaqa":8502,"Ġsch":8503,"waqay":8504,"Ġpoqo":8505,"llama":8506,"llatapas":8507,"Ġkatt":8508,"kupa":8509,"Ġwamaq":8510,"Ã±e":8511,"Ġqusqa":8512,"Ġarika":8513,"Ġnillan":8514,"Ġras":8515,"uras":8516,"ruta":8517,"rupa":8518,"apus":8519,"mantachu":8520,"ĠtÃ©c":8521,"Ġrikuna":8522,"raj":8523,"siy":8524,"Ġhat":8525,"Ġpiti":8526,"erta":8527,"ende":8528,"lago":8529,"guas":8530,"Ġdepor":8531,"waychis":8532,"Ġ1923":8533,"Ġpuwpu":8534,"tola":8535,"nipi":8536,"Ġgana":8537,"llank":8538,"Ġruf":8539,"Ġisti":8540,"Ġisland":8541,"llaqtapata":8542,"Ġfla":8543,"ĠfÃº":8544,"Ġaswantaq":8545,"Ġquchakunapi":8546,"unchawpa":8547,"Ġallinlla":8548,"Ġmark":8549,"rqaspa":8550,"lucas":8551,"Ġ1825":8552,"Ġtutura":8553,"Ġyachachinku":8554,"chaqllisinchi":8555,"Ġparlan":8556,"Ġuyun":8557,"Ġuyuni":8558,"ykiman":8559,"olm":8560,"Ġkutita":8561,"1980":8562,"Ġvista":8563,"llayki":8564,"Ġpusasqan":8565,"Ġrepa":8566,"Ġyurakunaqa":8567,"Ġradio":8568,"Ġmuspha":8569,"Ġhamp":8570,"Ġwarmiwan":8571,"wikiliwrukuna":8572,"Ġyupaymi":8573,"Ġchinkan":8574,"Ġtarma":8575,"Ġjawira":8576,"mund":8577,"kisa":8578,"Ġsingapur":8579,"Ã±uwa":8580,"ĠseÃ±a":8581,"Ġsayarispa":8582,"ninpim":8583,"rasqan":8584,"Ġcata":8585,"Ġyalapipas":8586,"Ġqillqaqpas":8587,"Ġwawakunapaq":8588,"bero":8589,"Ġuywasqa":8590,"Ġkristu":8591,"Ġguay":8592,"Ġusus":8593,"Ġqullana":8594,"Ġpampacha":8595,"Ġawki":8596,"250":8597,"Ġqorqan":8598,"Ġwillaykuna":8599,"Ġyawarta":8600,"Ġyachani":8601,"Ġqullqita":8602,"purtugal":8603,"Ġtinta":8604,"Î¿Î»":8605,"Ġkananmi":8606,"Ġportillo":8607,"Ġkausayta":8608,"Ġvalencia":8609,"Ġjames":8610,"usqanta":8611,"dyus":8612,"Ġ1868":8613,"ÏģÎ±":8614,"Ġapaykacha":8615,"zaro":8616,"Ġministerio":8617,"kushan":8618,"Ġderecho":8619,"valo":8620,"Ð½Ð¾Ð²":8621,"Ġeduca":8622,"Ġsumak":8623,"ght":8624,"chard":8625,"1969":8626,"Ġmusiyu":8627,"ĠæĿ":8628,"ĠgermÃ¡n":8629,"ologÃŃa":8630,"Ġpachakutiq":8631,"apunchis":8632,"aroa":8633,"Ġrosario":8634,"Ġwarak":8635,"imaraykuchus":8636,"Ġasyapipas":8637,"Ġbenedic":8638,"Ġiglesi":8639,"Ġchumpiwillka":8640,"Ġhumala":8641,"ĠmartÃŃnez":8642,"Ġjesukristoq":8643,"Ġhistoria":8644,"Ġsacrificio":8645,"ĠvÃŃctor":8646,"Ġmundial":8647,"ĠuÃ±naqa":8648,"::":8649,"aca":8650,"bos":8651,"dral":8652,"dero":8653,"eva":8654,"emb":8655,"eÃ±o":8656,"gang":8657,"iyta":8658,"jara":8659,"mul":8660,"ptiyki":8661,"qura":8662,"rri":8663,"rÃ³n":8664,"wina":8665,"xo":8666,"yec":8667,"Ġ$":8668,"ĠÑ":8669,"tak":8670,"tami":8671,"piq":8672,"ĠkÃ¶":8673,"maÃ±ay":8674,"israyil":8675,"pakuy":8676,"Ġshe":8677,"warqanku":8678,"watapi":8679,"uyo":8680,"tiwu":8681,"Ġpes":8682,"Ġkatis":8683,"Ġwatiq":8684,"kaka":8685,"kampa":8686,"Ġrish":8687,"Ġchristi":8688,"Ġmachaq":8689,"mantapis":8690,"Ġthay":8691,"Ġill":8692,"Ġhuktaq":8693,"arsuyu":8694,"wig":8695,"wichu":8696,"lita":8697,"lier":8698,"Ġrunataq":8699,"ĠyaÄī":8700,"Ġ-,":8701,"esto":8702,"Ġchayaspa":8703,"churi":8704,"Ġmanapuni":8705,"ule":8706,"tini":8707,"Ġbol":8708,"Ġbras":8709,"Ġtambo":8710,"kuyniyuq":8711,"kaymantapacha":8712,"Ġdemo":8713,"Ġkanapaq":8714,"Ġananiya":8715,"Ã±ak":8716,"Ġlant":8717,"Ġluya":8718,"Ġgil":8719,"Ġmaymanta":8720,"llut":8721,"Ġismu":8722,"sapam":8723,"ĠfrÃŃ":8724,"pani":8725,"mpara":8726,"dag":8727,"Ġdiya":8728,"Ġ1849":8729,"Ġwarku":8730,"Ġunanchasqa":8731,"Ġpukllan":8732,"Ġlagos":8733,"Ġamazon":8734,"Ġmayupi":8735,"Ġuywan":8736,"peter":8737,"Ġhinapuni":8738,"Ġhinaptinmi":8739,"Ġvis":8740,"Ġepin":8741,"Ġwasimanta":8742,"dera":8743,"Ġjesu":8744,"Ġrato":8745,"Ġrawra":8746,"Ġrakhu":8747,"Ġllakwash":8748,"Ġota":8749,"Ġ65":8750,"Ġ66":8751,"Ġesmeraldas":8752,"Ġarchi":8753,"louis":8754,"Ġpulitikum":8755,"Ġmunash":8756,"munan":8757,"Ġ1551":8758,"gallanes":8759,"Ġyuyarin":8760,"Ġsayan":8761,"cheqaq":8762,"Ġcapi":8763,"Ġchaymantataqmi":8764,"nevado":8765,"Ġnata":8766,"Ġnavar":8767,"Ġmusuqchasqa":8768,"Ġkamachikusqan":8769,"Ġmuchus":8770,"Ġchuraspa":8771,"ikraq":8772,"Ġwarayu":8773,"Ġawqaqkunap":8774,"ĠÃ±uqaqa":8775,"now":8776,"atiy":8777,"Ġchurinkuna":8778,"Ġnisyu":8779,"Ġnisunman":8780,"Ġyachachiyta":8781,"Ġallintachu":8782,"Ġallintapuni":8783,"Ġphilipinakuna":8784,"Ġpop":8785,"Ġwaranqaysu":8786,"desland":8787,"Ġqharipas":8788,"Ġpaqarimurqa":8789,"Ġtantari":8790,"ĠÃ±oqanchis":8791,"iskaynintin":8792,"varo":8793,"Ġ1907":8794,"Ġjohan":8795,"1997":8796,"Ġabaroa":8797,"Ã±awpaqta":8798,"Ġhich":8799,"Ġhidalgo":8800,"Ġqhipagradupi":8801,"Ġpartidun":8802,"Ġ1874":8803,"ĠhuÃ±unakuynin":8804,"ganda":8805,"wakllanwa":8806,"cerro":8807,"Ġyachachisqankunaqa":8808,"Ġtiempon":8809,"ĠispaÃ±ulkunap":8810,"atuq":8811,"Ġawsanqati":8812,"áĥĺ":8813,"Ġyanapayta":8814,"samuel":8815,"kichwapi":8816,"Ġdavidpa":8817,"Ġmancharikuychu":8818,"illimsay":8819,"Ġmuksichaqta":8820,"Ġachachilla":8821,"Ġcampero":8822,"Ġplanta":8823,"Ġtiksimuyup":8824,"Ġborja":8825,"cinto":8826,"Ġocci":8827,"mikhuna":8828,"ciedad":8829,"Ġgaleras":8830,"Ġnapurunakunam":8831,"ruraqpa":8832,"Ġlukana":8833,"efrina":8834,"arunari":8835,"Ġunqunayaq":8836,"Ġjackson":8837,"ventura":8838,"Ġmerced":8839,"sterdam":8840,"olfgang":8841,"Ġbundesland":8842,"Ġsinagoga":8843,"ckholm":8844,"Ġbenedictus":8845,"ĠfrÃŃas":8846,"Ġepinefrina":8847,"650":8848,"750":8849,"akunatam":8850,"akunanpaq":8851,"ct":8852,"gli":8853,"gne":8854,"mel":8855,"mulo":8856,"nun":8857,"nÃŃy":8858,"rasqa":8859,"sn":8860,"sch":8861,"tbol":8862,"wuliwya":8863,"woo":8864,"yon":8865,"Â±":8866,"Ø¬":8867,"ĠÐ²":8868,"ante":8869,"anga":8870,"pawqar":8871,"Ġshan":8872,"mica":8873,"Ġhol":8874,"yachakuq":8875,"kupaq":8876,"kullan":8877,"Ã±una":8878,"Ġnap":8879,"Ġren":8880,"kiqa":8881,"Ġmuk":8882,"wantaq":8883,"ĠmaÃ±ay":8884,"Ġsiwi":8885,"Ġsiles":8886,"Ġpapil":8887,"Ġden":8888,"asi":8889,"chila":8890,"Ġsimiyuq":8891,"Ġrikuq":8892,"Ġrivera":8893,"wiÃ±a":8894,"liyu":8895,"liyun":8896,"Ġrunakunatam":8897,"iquq":8898,"Ġkaypa":8899,"raqa":8900,"Ġmamallakta":8901,"Ġsuiza":8902,"Ġsukumpiyu":8903,"ess":8904,"Ġchaywanmi":8905,"Ġpicchu":8906,"taqu":8907,"ulin":8908,"Ġsimipiqa":8909,"mayqen":8910,"Ġqal":8911,"ospa":8912,"Ġcay":8913,"Ġcir":8914,"Ġ1916":8915,"Ġayu":8916,"Ġayti":8917,"Ġasu":8918,"Ġmanallataq":8919,"Ġgusta":8920,"Ġmundu":8921,"Ġpiruwpipas":8922,"Ġruras":8923,"tambo":8924,"Ġimappas":8925,"Ġrub":8926,"Ġisbn":8927,"Ġniraq":8928,"Ġnieto":8929,"vio":8930,"videncia":8931,"shaqtin":8932,"Ġulla":8933,"luh":8934,"Ġ1830":8935,"Ġ1829":8936,"Ġwarmis":8937,"Ġyachakunchu":8938,"chkani":8939,"Ġlajas":8940,"kunankuta":8941,"Ġmayumanta":8942,"Ġkutichiy":8943,"Ġkawsayninmanta":8944,"Ġatipay":8945,"kunamantawan":8946,"Ġ64":8947,"Ġcota":8948,"urinam":8949,"santo":8950,"Ġukranya":8951,"ayninqa":8952,"ayninpi":8953,"Ġmunarqanku":8954,"Ġjacinto":8955,"lisya":8956,"Ġmarkapata":8957,"bora":8958,"pachaman":8959,"Ġvida":8960,"Ġriqsisqan":8961,"Ġyalaman":8962,"Ġtarikuq":8963,"Ġkapurqan":8964,"aykipaqqa":8965,"ity":8966,"parti":8967,"Ġmaskh":8968,"ernando":8969,"Ġwakintaq":8970,"Ġlee":8971,"Ġruntucha":8972,"laso":8973,"Ġsiminmi":8974,"Ġpurina":8975,"Ġapukuna":8976,"Ġlombardia":8977,"chejpaj":8978,"Ġpascua":8979,"Ġunquyqa":8980,"hein":8981,"Ġbote":8982,"Ġrepublikakunap":8983,"Ġllullu":8984,"illuta":8985,"Ġjanaq":8986,"Ġsuyunkuna":8987,"Ġamachaqmi":8988,"Ġmont":8989,"Ġkusikun":8990,"Ġpukllaykunapi":8991,"Ġachki":8992,"Ġtantanakuymi":8993,"Ð¸Ð½":8994,"Ġhunumanta":8995,"Ġ1896":8996,"1992":8997,"Ġshipi":8998,"Ġ1875":8999,"Ġ1876":9000,"Ġsarakuru":9001,"ÙħØ¯":9002,"Ġkallpachasqa":9003,"ĠiÃ±uyuq":9004,"Ġlast":9005,"ĠÏĨ":9006,"atma":9007,"Ġwarminta":9008,"Ġmillma":9009,"Ġqallarirqanku":9010,"Ġtradi":9011,"Ġchiqniq":9012,"charles":9013,"Ã§a":9014,"ftware":9015,"Ġrawray":9016,"llankutaq":9017,"Ġwakamayu":9018,"Ġtesti":9019,"Ġbernard":9020,"unchaykunapin":9021,"Ġchallwaq":9022,"Ġpakistan":9023,"universidad":9024,"romagna":9025,"Ġcastellano":9026,"etique":9027,"Ġtutayaq":9028,"Ġalexand":9029,"Ġquispe":9030,"Ġespirituq":9031,"ĠpotosÃŃ":9032,"ĠfÃºtbol":9033,"achiq":9034,"bon":9035,"boro":9036,"cap":9037,"cle":9038,"cusco":9039,"dd":9040,"dge":9041,"epi":9042,"eve":9043,"emas":9044,"fc":9045,"hunt":9046,"iki":9047,"irin":9048,"kel":9049,"len":9050,"laya":9051,"mbi":9052,"vol":9053,"zhou":9054,"ĠÃ©":9055,"Ġern":9056,"ĠÙģ":9057,"tapunin":9058,"qallu":9059,"llcha":9060,"unan":9061,"ayay":9062,"ayÃ¡":9063,"pirqa":9064,"Ġky":9065,"inqu":9066,"mac":9067,"maris":9068,"iskusya":9069,"Ġstu":9070,"Ġsispa":9071,"Ġsuyuq":9072,"wapi":9073,"kunaka":9074,"yatana":9075,"Ġwaru":9076,"Ġquna":9077,"Ġasti":9078,"Ġaway":9079,"Ġawasqa":9080,"Ġrespi":9081,"Ġllaqtami":9082,"Ġllaqtakunaqa":9083,"Ġllaqtakunapas":9084,"usu":9085,"qankunaqa":9086,"Ġmuyuq":9087,"Ġmala":9088,"Ġmachasqa":9089,"Ġsiland":9090,"Ġpakta":9091,"Ġdal":9092,"Ġ101":9093,"Ġihiptu":9094,"Ġhukchakuq":9095,"Ġrika":9096,"Ġripuy":9097,"amin":9098,"amus":9099,"ampu":9100,"liq":9101,"Ġsuyuwan":9102,"Ġrunaka":9103,"tula":9104,"sika":9105,"ĠpiÃ±a":9106,"erÃŃa":9107,"insya":9108,"ting":9109,"Ġball":9110,"maypim":9111,"Ġtapusqa":9112,"apaqpas":9113,"ale":9114,"Ġtim":9115,"Ġtikra":9116,"Ġrunakunaka":9117,"hio":9118,"Ġgrana":9119,"lland":9120,"llantaqmi":9121,"Ġislaw":9122,"Ġfl":9123,"Ġfun":9124,"Ġsanti":9125,"Ġwanta":9126,"unchawpiqa":9127,"chinchi":9128,"dora":9129,"Ġrimayninkuna":9130,"chanankupaq":9131,"Ġhuh":9132,"Ġlatina":9133,"Ġmayukunap":9134,"Ġwayana":9135,"Ġwayakil":9136,"risa":9137,"Ġwuliwya":9138,"Ġkutichirqan":9139,"Ġhanja":9140,"Ġrein":9141,"Ġdiospi":9142,"Ġhamusqa":9143,"Ġok":9144,"Ġ61":9145,"Ġargen":9146,"raqo":9147,"ĠromÃ¡n":9148,"Ġyupaychaq":9149,"anpaqmi":9150,"Ġmikhukun":9151,"niykipi":9152,"Ġastawanpis":9153,"Ġphawaq":9154,"Ġ71":9155,"Ġ700":9156,"Ġqanwan":9157,"Ġsutinmi":9158,"pintu":9159,"Ġsinta":9160,"Ã±uqa":9161,"sey":9162,"Ġcami":9163,"Ġpusaqsi":9164,"yunpi":9165,"Ġyakuqa":9166,"Ġnatural":9167,"Ġchakrata":9168,"Ġ06":9169,"mez":9170,"ĠantibiÃ³":9171,"Ġsuysa":9172,"bern":9173,"kuspanku":9174,"Ġsunturpi":9175,"Ġlud":9176,"Ġkallpayuq":9177,"Ġ130":9178,"Ġbabil":9179,"Ġbatallas":9180,"mush":9181,"qhipa":9182,"chisqanta":9183,"Ġchurarqan":9184,"Ġusi":9185,"Ġcarta":9186,"ĠconcepciÃ³n":9187,"Ġqichuy":9188,"Ġpampaman":9189,"Ġawtun":9190,"Ġpuris":9191,"mbold":9192,"kunkum":9193,"kusqanku":9194,"Ġllaqtakunapipas":9195,"Ġnisqanmanjina":9196,"aqtinchus":9197,"Ġwillaykunata":9198,"Ġwillkamayu":9199,"llatataq":9200,"Ġdocum":9201,"entos":9202,"Ġpanu":9203,"Ġpansa":9204,"Ġqarqo":9205,"tions":9206,"Ġwankapampa":9207,"Ã¤r":9208,"yanapa":9209,"Ġmachupi":9210,"Ġsamuel":9211,"llinraq":9212,"Ġ1890":9213,"1993":9214,"1999":9215,"inkakunap":9216,"Ġchinkasqa":9217,"Ġrinri":9218,"Ġpalab":9219,"kimsantin":9220,"antikunapi":9221,"salwadur":9222,"Ġwatikanu":9223,"Ġtawantinsuyup":9224,"Ġcerv":9225,"ĠiÃ±iqkuna":9226,"Ġeditores":9227,"Ġllapanta":9228,"ĠpuÃ±una":9229,"Ġoslo":9230,"kusunchis":9231,"Ġlinares":9232,"Ġliwrun":9233,"Ġwayllukuqsi":9234,"Ġpaqllun":9235,"Ġderechos":9236,"Ġgraci":9237,"Ġwankurisqan":9238,"niqta":9239,"Ġpunata":9240,"Ġmitrukama":9241,"ĠhayÃ±iyuq":9242,"Ġpurtuyiskunap":9243,"ĠÃ±ukanchik":9244,"asqankuta":9245,"cienci":9246,"Ġqhapaqsuyun":9247,"ÏĮÏĤ":9248,"yuyay":9249,"Ġsatipu":9250,"muthiyu":9251,"Ġblanca":9252,"Ġalfaro":9253,"Ġiwanhi":9254,"Ġantofagasta":9255,"Ġsintomas":9256,"watimala":9257,"ĠhernÃ¡ndez":9258,"Ġfirenze":9259,"Ġlengua":9260,"pÃ³lito":9261,"ĠyachatsikÃ¯":9262,"Ġcorintios":9263,"etiquetas":9264,"%-":9265,"(*":9266,")-":9267,"ato":9268,"akunqa":9269,"caya":9270,"ell":9271,"eral":9272,"gÃ©n":9273,"hon":9274,"jus":9275,"jer":9276,"jil":9277,"ln":9278,"pla":9279,"quya":9280,"rara":9281,"tÃ³":9282,"ÇĲ":9283,"æĸ":9284,"Ġà¦":9285,"anda":9286,"qaspa":9287,"aycha":9288,"piya":9289,"piru":9290,"Ġhit":9291,"chakunata":9292,"yarqa":9293,"Ġwauq":9294,"Ġqshks":9295,"Ġ(~":9296,"Ġachik":9297,"Ġaca":9298,"Ġariq":9299,"Ġnm":9300,"uqi":9301,"Ġmaran":9302,"Ġsimp":9303,"Ġpad":9304,"aptinqa":9305,"Ġ118":9306,"asÃ±a":9307,"chim":9308,"chika":9309,"Ġik":9310,"Ġitur":9311,"Ġiwriyu":9312,"ninka":9313,"lim":9314,"litar":9315,"Ġrunallap":9316,"rati":9317,"paqucha":9318,"Ġchaykunamanta":9319,"Ġchayllapi":9320,"chaypiqa":9321,"Ġwicha":9322,"tinpa":9323,"mayqin":9324,"âĢĿ":9325,"anaman":9326,"Ġcel":9327,"Ġqillqam":9328,"Ġqupa":9329,"Ġyuyu":9330,"guÃŃa":9331,"Ġaychan":9332,"Ġayllur":9333,"Ġmanachus":9334,"Ġani":9335,"Ġanda":9336,"raya":9337,"Ġumallina":9338,"Ġles":9339,"Ġlaqu":9340,"altu":9341,"alfredo":9342,"Ġkaqmi":9343,"Ġrunakunapi":9344,"Ġrunakunapak":9345,"Ġkawsanapaq":9346,"Ġgros":9347,"Ġqhipanta":9348,"Ġmayk":9349,"Ġimasta":9350,"Ġniyan":9351,"Ġkamariy":9352,"Ġfal":9353,"Ġfara":9354,"Ġflor":9355,"Ġuvas":9356,"unchawkuna":9357,"riypi":9358,"Ġmarcel":9359,"dado":9360,"chanka":9361,"Ġchir":9362,"Ġchimu":9363,"kuqkunata":9364,"Ġ56":9365,"Ġwarnes":9366,"Ġtukuypa":9367,"Ġuyayuq":9368,"Ġhaya":9369,"Ġwikipidiyapaq":9370,"Ġwillarqan":9371,"asqachu":9372,"Ġhinaptin":9373,"Ġkutipi":9374,"1960":9375,"Ġevo":9376,"Ġefec":9377,"Ġreal":9378,"ĠurquÃ±iq":9379,"Ġollanta":9380,"Ġ600":9381,"qiru":9382,"Ġestra":9383,"Ġescuela":9384,"aykita":9385,"santu":9386,"sing":9387,"Ġmunaku":9388,"Ġrimakuna":9389,"qhayta":9390,"munismo":9391,"Ġwakllanwata":9392,"Ġqankunawan":9393,"Ġruwarqan":9394,"Ġvictor":9395,"Ġtakiykuna":9396,"Ġsaywan":9397,"yayta":9398,"Ġchaymantas":9399,"Ġchaymantapacha":9400,"aqumayu":9401,"holland":9402,"Ġ08":9403,"Ġkunanmi":9404,"ispillu":9405,"Ġuqshapampa":9406,"Ġkamachikuykuna":9407,"Ġyanama":9408,"cionario":9409,"Ġkankuman":9410,"achamanta":9411,"Ġrisirwakuna":9412,"Ġatinchik":9413,"Ġsunquyuq":9414,"waqchis":9415,"waqniy":9416,"Ġquyllurmi":9417,"Ġcontribu":9418,"pampilla":9419,"Ġatiyninwan":9420,"uyanu":9421,"Ġtawak":9422,"mbay":9423,"Ġrunakunataqa":9424,"Ġyuyaywan":9425,"johan":9426,"Ġjuanpa":9427,"Ġchaskispa":9428,"Ġchaqnam":9429,"george":9430,"ĠnuÃ±uwa":9431,"Ġcorpo":9432,"Ġunidos":9433,"ttle":9434,"chuqi":9435,"Ġyachanichu":9436,"Ġsoftware":9437,"Ġruruchiq":9438,"Ġqarayuq":9439,"Ġayllunkuna":9440,"Î¿Ïħ":9441,"Ġ1892":9442,"Ġphuti":9443,"distritukuna":9444,"Ġpuriqlla":9445,"Ġabril":9446,"Ġutqay":9447,"Ġimaymanata":9448,"Ġintercul":9449,"1982":9450,"eira":9451,"jiang":9452,"kamulla":9453,"ninkumanta":9454,"Ġharawikuna":9455,"Ġ1854":9456,"Ġsupayqa":9457,"Ġmakinta":9458,"Ġaqupampa":9459,"Ġediciones":9460,"Ġpumapampa":9461,"Ġmunasqanman":9462,"Ġpatsa":9463,"Ġtiempopi":9464,"Ġrikhur":9465,"Ġkomunismo":9466,"Ã§ois":9467,"Ġwayllukuqpas":9468,"kapchiy":9469,"yachachiy":9470,"yachachikuq":9471,"Ġbanla":9472,"ÎµÎ¹":9473,"Ġtrigo":9474,"Ġqallawam":9475,"ĠcolÃ³n":9476,"kultura":9477,"Ġumanpi":9478,"Ġgonzalo":9479,"Ġpalamakunam":9480,"Ġqasikaypi":9481,"Ġchillki":9482,"Ġsilva":9483,"Ġkunankamapas":9484,"Ġgregorius":9485,"Ġamerikaq":9486,"Ġtunari":9487,"Ġestudi":9488,"Ġbritan":9489,"Ġtiqsimuyu":9490,"north":9491,"indihina":9492,"jesustaq":9493,"Ġkriyiq":9494,"ĠasunciÃ³n":9495,"ĠsutÊ¼incha":9496,"Ġarhintinu":9497,"Ġkilugram":9498,"ĠjaykÊ¼":9499,"Ġlisboa":9500,"Ġlusiya":9501,"Ġmuyuntinpi":9502,"Ġchullusqa":9503,"Ġmunisipyunmi":9504,"griguryu":9505,"ylepis":9506,"Ġkatisismu":9507,"Ġcervantes":9508,"Ġaylluruna":9509,"117":9510,"]\"":9511,"atam":9512,"achani":9513,"bru":9514,"clo":9515,"dÃ³n":9516,"dÃŃa":9517,"eus":9518,"fen":9519,"hea":9520,"imp":9521,"ides":9522,"kt":9523,"kanqa":9524,"mri":9525,"nap":9526,"ou":9527,"pes":9528,"pÃ¡":9529,"play":9530,"runi":9531,"rero":9532,"sz":9533,"tla":9534,"tle":9535,"turu":9536,"tÃ©s":9537,"wtis":9538,"yuna":9539,"zal":9540,"zamora":9541,"ËĲ":9542,"ÑĮ":9543,"à±":9544,"ãĤ":9545,"å¤":9546,"chukuy":9547,"unu":9548,"unyapi":9549,"Ġsoqta":9550,"rir":9551,"richin":9552,"rituy":9553,"Ġllasa":9554,"til":9555,"ĠpolÃŃ":9556,"manq":9557,"llao":9558,"llakuna":9559,"llachishka":9560,"Ġkatuliku":9561,"kukuna":9562,"kuba":9563,"Ġwallam":9564,"Ġwachan":9565,"Ġais":9566,"Ġalan":9567,"Ġagen":9568,"Ġnay":9569,"ukru":9570,"qankuna":9571,"kiwan":9572,"Ġmasa":9573,"Ġmakusani":9574,"Ġmaldonado":9575,"chirqanku":9576,"chikurqan":9577,"chikunku":9578,"wiq":9579,"witi":9580,"wiha":9581,"amun":9582,"ampasqa":9583,"Ġsuyupa":9584,"Ġkaytam":9585,"Ġkaypiqa":9586,"rafael":9587,"kuntur":9588,"sill":9589,"sitan":9590,"Ġchayan":9591,"Ġjanaj":9592,"eros":9593,"Ġwipha":9594,"quÃŃ":9595,"tinkuna":9596,"Ġqataq":9597,"Ġqaway":9598,"anata":9599,"Ġtatas":9600,"Ġcutervo":9601,"guis":9602,"kamapas":9603,"Ġays":9604,"Ġasta":9605,"hat":9606,"chasqachu":9607,"dica":9608,"Ġlun":9609,"Ġluksimbur":9610,"Ġhawamanta":9611,"elos":9612,"Ġpuchun":9613,"Ġpurirqan":9614,"Ġmilla":9615,"Ġmikuy":9616,"Ġintra":9617,"cica":9618,"ciano":9619,"cipul":9620,"hima":9621,"Ġsuyupitaq":9622,"niraq":9623,"Ġchapari":9624,"antam":9625,"antaÃ±iqiq":9626,"line":9627,"Ġmaynas":9628,"Ġ365":9629,"robert":9630,"Ġimakuna":9631,"Ġismuy":9632,"ranu":9633,"Ġniko":9634,"shpa":9635,"Ġuri":9636,"Ġwantar":9637,"Ġwankur":9638,"Ġyachaypa":9639,"Ġyachaytaq":9640,"dom":9641,"Ġmarino":9642,"nacion":9643,"Ġrimaymanta":9644,"luc":9645,"Ġchikan":9646,"Ġchipaya":9647,"Ġ1880":9648,"Ġhuchayuq":9649,"Ġ52":9650,"Ġyachachina":9651,"chkanchik":9652,"maqanakuy":9653,"Ġamacha":9654,"Ġuyan":9655,"manata":9656,"ytaqa":9657,"Ġwaychu":9658,"Ġkuntisuyus":9659,"Ġraymita":9660,"Ġyuman":9661,"Ġkawsayman":9662,"Ġwasip":9663,"Ġdiosnin":9664,"Ġdiosniyki":9665,"Ġrahu":9666,"Ġmusp":9667,"Ġhampin":9668,"Ġllaqtanchik":9669,"Ġayllumanta":9670,"Ġwarmikunapas":9671,"Ġkushka":9672,"Ġukh":9673,"Ġaltar":9674,"qhe":9675,"Ġjawa":9676,"Ġmikhusqa":9677,"Ġvila":9678,"Ġyuyarina":9679,"Ġachkata":9680,"unchayqa":9681,"Ġwawakunap":9682,"Ġwawakunawan":9683,"Ġtaytay":9684,"Ġtaytacha":9685,"ĠispaÃ±ap":9686,"medi":9687,"metro":9688,"anchayman":9689,"aykuta":9690,"Ġkashaq":9691,"Ġphur":9692,"130":9693,"Ġnece":9694,"ĠwiÃ±aspa":9695,"bela":9696,"beth":9697,"Ġatiywan":9698,"kusqayki":9699,"wasichay":9700,"Ġpurisqan":9701,"Ġaranwa":9702,"Ġrunakunatas":9703,"Ġcup":9704,"kusqankuta":9705,"dores":9706,"Ġhinaspapas":9707,"Ġmeta":9708,"Ġlluchk":9709,"chuqlluqucha":9710,"Ġcheqan":9711,"Ġapur":9712,"Ġfrancis":9713,"Ġdatem":9714,"qillqay":9715,"Ġyayan":9716,"Ġteo":9717,"Ġrikina":9718,"Ġpatallaqta":9719,"ĠseÃ±orninchis":9720,"Ġmunaylla":9721,"tros":9722,"ĠjoaquÃŃn":9723,"Ġqillqanchik":9724,"Ġkarl":9725,"Ġhora":9726,"Ġrakikuna":9727,"rurun":9728,"ruray":9729,"Ġashtawan":9730,"Ġtaqi":9731,"Ġfifa":9732,"waskaran":9733,"Ġqurpa":9734,"jeho":9735,"Ġ1864":9736,"Ġ1882":9737,"1984":9738,"Ġjehovata":9739,"tenango":9740,"Ġherrera":9741,"Ġyachaywasikuna":9742,"Ġmakinpi":9743,"zig":9744,"Ġpalma":9745,"ĠwaÃ±unanpaq":9746,"kusunchik":9747,"siquw":9748,"wikisimitaqi":9749,"Ġkamaqill":9750,"Ġmariaqa":9751,"Ġwaqachinakuna":9752,"Ġqespichisqa":9753,"bridge":9754,"Ġchiklayu":9755,"Ġterry":9756,"Ġloreto":9757,"Ġpusapunam":9758,"Ġkikillanta":9759,"Î·ÏĤ":9760,"Ġpilato":9761,"chiqap":9762,"Ġmantaru":9763,"Ġakllanakuypi":9764,"Ġqurakunam":9765,"Ġmoises":9766,"ullku":9767,"chinkichu":9768,"hamakuna":9769,"Ġkutawasi":9770,"rinidad":9771,"helm":9772,"llimphi":9773,"Ġisidro":9774,"oteca":9775,"Ġbuenaventura":9776,"Ġmurunkunatam":9777,"ĠwaÃ±usqanmanta":9778,"hampikamayuq":9779,"sapsi":9780,"Ġwayaqacha":9781,"dapest":9782,"Ġstockholm":9783,"Ġherodes":9784,"sallpu":9785,"Ġkapitalista":9786,"provincie":9787,"bolivia":9788,"lladolid":9789,"Ġdiplumatiku":9790,"Ġrufino":9791,"Ġillinois":9792,"wakllanwatapi":9793,"Ġrespira":9794,"Ġpansaliyu":9795,"Ġgraciasta":9796,"muthiyupaq":9797,"Ġchaqnamuy":9798,"Ġwankurina":9799,"siquwina":9800,"ao":9801,"achiyta":9802,"bina":9803,"binidiktu":9804,"cun":9805,"dul":9806,"dunya":9807,"fil":9808,"fÃ¡n":9809,"hta":9810,"juk":9811,"jose":9812,"ror":9813,"spi":9814,"sel":9815,"sÃ£o":9816,"tya":9817,"vy":9818,"wka":9819,"wor":9820,"ynin":9821,"ÅĦ":9822,"ÛĮ":9823,"ĠčĊ":9824,"ĠÙĦÙĬØ§ÙĦ":9825,"anchana":9826,"ankichu":9827,"tama":9828,"llÃŃn":9829,"ayman":9830,"ayrimana":9831,"Ġkla":9832,"inkuna":9833,"inankupaq":9834,"mach":9835,"wallqa":9836,"rimuy":9837,"Ġllus":9838,"tifi":9839,"Ġpunchawpi":9840,"Ġkatal":9841,"Ġkajta":9842,"Ġkalalit":9843,"kulla":9844,"Ġwaqaq":9845,"Ġwamachuku":9846,"Ã±ar":9847,"Ã±asqa":9848,"kati":9849,"katu":9850,"Ġqurqan":9851,"Ġalla":9852,"ĠnÃº":9853,"Ġllaqtaruna":9854,"Ġchor":9855,"Ġchong":9856,"ukya":9857,"Ġmalla":9858,"Ġmadidi":9859,"Ġpatri":9860,"Ġ110":9861,"asman":9862,"Ġich":9863,"Ġipis":9864,"ĠÃ±irqan":9865,"arus":9866,"arte":9867,"Ġrikunalla":9868,"wich":9869,"Ġkaychis":9870,"Ġkayna":9871,"Ġsub":9872,"Ġchayraq":9873,"chumpi":9874,"Ġjon":9875,"Ġjuni":9876,"enz":9877,"tinpas":9878,"Ġbam":9879,"Ġqaraq":9880,"Ġcity":9881,"istunya":9882,"orgia":9883,"Ġantisuyu":9884,"wsa":9885,"Ġlinti":9886,"Ġtiwlli":9887,"elpa":9888,"hira":9889,"Ġgall":9890,"Ġglas":9891,"antawaylla":9892,"kunapitaq":9893,"Ġsali":9894,"Ġurqus":9895,"puta":9896,"Ġqhipata":9897,"Ġpaykunamanta":9898,"Ġimapis":9899,"hui":9900,"Ġisqon":9901,"rano":9902,"Ġkamariq":9903,"vides":9904,"Ġutu":9905,"Ġumayuq":9906,"Ġyachayqa":9907,"cate":9908,"Ġallinkunata":9909,"Ġallinkaqta":9910,"Ã³mulo":9911,"Ġmary":9912,"tander":9913,"lliy":9914,"Ġrimaykunaqa":9915,"Ġ180":9916,"Ġ1822":9917,"Ġ1841":9918,"Ġlata":9919,"hasa":9920,"Ġparlari":9921,"kunappas":9922,"Ġtukuynin":9923,"Ġuywaq":9924,"Ġwayqe":9925,"risunchik":9926,"Ġwisk":9927,"Ġiskayniyoq":9928,"Ġeliodoro":9929,"Ġkawsaykuna":9930,"ankuchu":9931,"ankupaj":9932,"Ġllaqtapura":9933,"dellÃŃn":9934,"Ġmusquy":9935,"ptinku":9936,"Ġllaqtanpi":9937,"Ġ62":9938,"Ġcolum":9939,"Ġescale":9940,"urupampa":9941,"aykichista":9942,"Ġpulitikumi":9943,"hinaspan":9944,"Ġtarpun":9945,"Ġtarpuq":9946,"anpaqqa":9947,"sunki":9948,"munanpaq":9949,"aria":9950,"Ġ76":9951,"Ġqankunapaq":9952,"box":9953,"kunapash":9954,"ceo":9955,"Ġkuriya":9956,"Ġpunkuta":9957,"Ġpunkiy":9958,"unchaynin":9959,"Ġyakup":9960,"Ġnak":9961,"Ġqusqupi":9962,"mera":9963,"medo":9964,"Ġsuyus":9965,"Ġnoqan":9966,"orges":9967,"geno":9968,"Ġhunta":9969,"Ġakna":9970,"Ġkasaq":9971,"Ġuyarisqa":9972,"posi":9973,"Ġqhipaqnintaq":9974,"Ġquyllurkuna":9975,"Ġchaypitaq":9976,"Ġentre":9977,"Ġawkikuna":9978,"cash":9979,"Ġpurisqa":9980,"Ġcuen":9981,"Ġqosqa":9982,"llatak":9983,"Ġchawpipi":9984,"Ġfrank":9985,"Ġfransis":9986,"Ġpanka":9987,"Ã©ndez":9988,"Ġpaqarichin":9989,"Ġqullqiyuq":9990,"Ġmancharisqa":9991,"asapa":9992,"Ġwakichiy":9993,"ykichispi":9994,"Ġandre":9995,"Ġimaynata":9996,"Ġrunasman":9997,"Ġpuriri":9998,"Ġqayllapi":9999,"breos":10000,"Ġllimphisqa":10001,"landis":10002,"Ġpuriyta":10003,"muyurikuq":10004,"1994":10005,"1996":10006,"ĠvalparaÃŃso":10007,"Ġqhipaman":10008,"ikrarqan":10009,"Ġinlisyapi":10010,"Ġinlatirrapi":10011,"Ġfierro":10012,"huahua":10013,"proverbios":10014,"Ġukhunman":10015,"Ġserv":10016,"Ġtunqur":10017,"Ġ1886":10018,"1981":10019,"ÙĨÙĬ":10020,"ĠÃ±isqatapas":10021,"ÏģÎ¹":10022,"Ġmorona":10023,"ĠÃ±oqamanta":10024,"aytucha":10025,"Ġkuraka":10026,"Ġtawantinsuyupi":10027,"chikunman":10028,"state":10029,"Ġlloqsispa":10030,"ĠiÃ±iqqa":10031,"ayupaya":10032,"Ġshumaq":10033,"Ġshuwar":10034,"kuptinqa":10035,"wikipidiyaqa":10036,"Äģn":10037,"ĠhuÃ±usqam":10038,"Ġgermanu":10039,"Ġfounda":10040,"Ġbilisi":10041,"nasyun":10042,"Ġllaqtaykuq":10043,"cayo":10044,"Ġcentral":10045,"Ġrumantiku":10046,"Ġcristianos":10047,"Ġtukunanpaq":10048,"Ġniranllapa":10049,"Ġentiende":10050,"Ġawahun":10051,"Ġjusticia":10052,"Ġsillwi":10053,"chukuwitu":10054,"Ġbenede":10055,"Ġyamt":10056,"Ġarequipa":10057,"tumasa":10058,"Ġhusiy":10059,"lampalliqi":10060,"Ġasuykuspa":10061,"ambik":10062,"Ġhansuyupa":10063,"Ġtexas":10064,"Ġunquchiq":10065,"Ġparlaykuna":10066,"Ġespinar":10067,"Ġgubirnasyun":10068,"pÃºblica":10069,"Ġcajamarca":10070,"Ġpromete":10071,"Ġorganiza":10072,"Ġrirpu":10073,"Ġbenavides":10074,"mariscal":10075,"Ġastika":10076,"Ġoklahoma":10077,"ĠantibiÃ³ticos":10078,"Ġyachaytaqpi":10079,"Ġfoundation":10080,"\"),":10081,"110":10082,"550":10083,"?),":10084,"[[":10085,"achkan":10086,"aÃ±an":10087,"bÃ³n":10088,"cona":10089,"dere":10090,"ew":10091,"gg":10092,"gdad":10093,"hana":10094,"hampa":10095,"iqan":10096,"jon":10097,"jÃ¡n":10098,"nillan":10099,"pri":10100,"raspa":10101,"rena":10102,"snin":10103,"saya":10104,"uco":10105,"west":10106,"xx":10107,"ywan":10108,"Ã²":10109,"Ïĩ":10110,"×Ļ":10111,"Ø´":10112,"Ø·":10113,"ĠÙĦ":10114,"ans":10115,"ankunata":10116,"antan":10117,"anne":10118,"anllapa":10119,"chha":10120,"taria":10121,"ayasqa":10122,"piruwanu":10123,"inam":10124,"intu":10125,"maria":10126,"ispas":10127,"ĠsÃŃn":10128,"Ġsurata":10129,"uyt":10130,"uyancha":10131,"miyu":10132,"mitan":10133,"milio":10134,"riri":10135,"riti":10136,"rirqanku":10137,"Ġllin":10138,"Ġpg":10139,"Ġpdf":10140,"chakunaqa":10141,"Ġkakun":10142,"kupu":10143,"kurin":10144,"katan":10145,"Ġqor":10146,"Ġagra":10147,"ĠllaqtaÃ±iq":10148,"usit":10149,"Ġmap":10150,"Ġsiwil":10151,"ruman":10152,"Ġpallasqa":10153,"Ġ119":10154,"Ġ117":10155,"chimpurasu":10156,"Ġsimitaq":10157,"wiru":10158,"wiraqucha":10159,"pastasa":10160,"Ġyakun":10161,"kunaykipaq":10162,"Ġsupi":10163,"paqu":10164,"Ġjr":10165,"Ġjor":10166,"chaysi":10167,"Ġmanya":10168,"Ġwiqi":10169,"Ġqatan":10170,"Ġtai":10171,"Ġtarirqan":10172,"Ġqupaqhawana":10173,"guin":10174,"hai":10175,"hari":10176,"dilla":10177,"Ġkaqllam":10178,"Ġkaqkunapas":10179,"Ġpumaq":10180,"Ġinmun":10181,"Ġchaqay":10182,"Ġchakray":10183,"Ġhatunmayu":10184,"puriq":10185,"Ġqallaw":10186,"Ġ360":10187,"isiya":10188,"Ġimam":10189,"Ġimage":10190,"Ġismael":10191,"sqankuta":10192,"Ġsananchan":10193,"Ġliy":10194,"shÅ«":10195,"Ġyachaysapa":10196,"chinman":10197,"Ġallintam":10198,"Ġqhichwata":10199,"mpaj":10200,"llika":10201,"Ġ1831":10202,"Ġtutapi":10203,"Ġyachaqay":10204,"Ġlamas":10205,"Ġhayaq":10206,"ykiq":10207,"Ġwillakunata":10208,"risun":10209,"Ġkutiqa":10210,"Ġkutimuspa":10211,"Ġiskaymi":10212,"Ġem":10213,"Ġemilia":10214,"gow":10215,"Ġkawsayqa":10216,"arachiq":10217,"mpurqan":10218,"Ġreino":10219,"Ġrevista":10220,"departamento":10221,"Ġhamus":10222,"Ġllaqtanchiq":10223,"Ġcob":10224,"Ġcoro":10225,"Ġmamallaqtam":10226,"ĠÂ»":10227,"Ġroga":10228,"Ġphawa":10229,"Ġphalaq":10230,"Ġ1533":10231,"Ġ72":10232,"Ġ77":10233,"warispa":10234,"Ġmarkapipas":10235,"ĠÃ±awpaqmanta":10236,"Ġ96":10237,"pinuta":10238,"Ġsegun":10239,"Ġ800":10240,"Ġyuyan":10241,"Ġkuwa":10242,"180":10243,"yunka":10244,"duwa":10245,"Ġtaripasqa":10246,"Ġkawsaqkunap":10247,"Ġatisqa":10248,"Ġtukukuq":10249,"suwidsuyu":10250,"tajrÃŃ":10251,"quchas":10252,"kusisami":10253,"Ġuqhu":10254,"phy":10255,"iypi":10256,"Ġkamachikuynin":10257,"Ġkashani":10258,"isaÃŃas":10259,"Ê¼u":10260,"trieve":10261,"Ġbagua":10262,"Ġbawtis":10263,"Ġqillqasqanpi":10264,"thur":10265,"thuyuqkunapaq":10266,"Ġrisirwapi":10267,"ikrasqan":10268,"Ġruntun":10269,"Ġrumipi":10270,"Ġsinchiyasqa":10271,"kusqaku":10272,"Ġpurun":10273,"ukunan":10274,"Ġpasaq":10275,"Ġllaqtakunapiqa":10276,"Ġchaqna":10277,"Ġzi":10278,"Ġunidas":10279,"Ġyachanku":10280,"killaqa":10281,"Ġruruchinam":10282,"Ġdakota":10283,"asaka":10284,"Ġtiyaqkuna":10285,"Ġqayllan":10286,"Ġriqsichi":10287,"kunqachu":10288,"Ġrusu":10289,"Ġtayhan":10290,"Ġ1891":10291,"Ġllikam":10292,"1991":10293,"Ġsirbya":10294,"forma":10295,"Ġvale":10296,"Ġashka":10297,"uquÃ©n":10298,"Ġsunquwan":10299,"Ġqunchu":10300,"Ġwask":10301,"ĠÎµ":10302,"Ġ1867":10303,"Ġdiscipul":10304,"Ġ1881":10305,"Ġ1887":10306,"1985":10307,"1988":10308,"Ġpikchupi":10309,"Ġapaykachay":10310,"Ġamsterdam":10311,"Ġmakiya":10312,"Ġhermanos":10313,"Ġmakinmanta":10314,"acÃ¡n":10315,"ÐºÐ°":10316,"Ġaqumayu":10317,"ĠediciÃ³n":10318,"à¦¾":10319,"munisipyukuna":10320,"chinqaku":10321,"augus":10322,"Ġcristoqa":10323,"Ġwiraquchakuna":10324,"wasqayki":10325,"orod":10326,"ichki":10327,"kusikuy":10328,"Ġmercado":10329,"Ġqhepaman":10330,"tuktun":10331,"Ġguadalupe":10332,"Ġpuliwya":10333,"Ġyawrim":10334,"Ġtulluyuq":10335,"Ġtuyru":10336,"Ġoveja":10337,"ØŃÙħØ¯":10338,"Ġmessa":10339,"hirsiquwina":10340,"Ã±aphi":10341,"Ġfree":10342,"Ġreligion":10343,"Ġcaballero":10344,"Ġkamri":10345,"Ġusqhaylla":10346,"Ġinstituto":10347,"Ġisluwakya":10348,"Ġcochabamba":10349,"Ġparinaqutapas":10350,"Ġhinaqsi":10351,"Ġyawatisuyupi":10352,"taleza":10353,"Ġayninakuy":10354,"Ã¡zquez":10355,"apustul":10356,"rriÃ±aphi":10357,"Ġwatiqmanta":10358,"Ġotavalo":10359,"wood":10360,"yachakuqkunapa":10361,"Ġtradicional":10362,"Ġgranada":10363,"Ġawtunumu":10364,"Ġcorporation":10365,"trieved":10366,"112":10367,"aqay":10368,"achirqan":10369,"bap":10370,"baya":10371,"cr":10372,"cÃŃ":10373,"cca":10374,"cÃ¡n":10375,"cles":10376,"cristi":10377,"dish":10378,"eda":10379,"fan":10380,"hr":10381,"haq":10382,"huna":10383,"hmi":10384,"ig":10385,"irqa":10386,"ibo":10387,"jay":10388,"jarani":10389,"ny":10390,"od":10391,"omer":10392,"sos":10393,"tÃ¡n":10394,"umanta":10395,"ute":10396,"ullun":10397,"vor":10398,"waqmi":10399,"ykuwan":10400,"zos":10401,"{{":10402,"Î¾":10403,"Ġuyu":10404,"ĠÉµ":10405,"qarwa":10406,"llos":10407,"aym":10408,"ayra":10409,"piÃ±a":10410,"pipis":10411,"makin":10412,"isqun":10413,"kunachu":10414,"kunallan":10415,"uypi":10416,"miri":10417,"riwa":10418,"rios":10419,"rimun":10420,"ricardo":10421,"Ġhana":10422,"yarqan":10423,"llaku":10424,"Ġkapi":10425,"Ġkaman":10426,"Ġkasan":10427,"Ã±isqa":10428,"kat":10429,"Ġqis":10430,"Ġapas":10431,"Ġace":10432,"Ġamb":10433,"Ġagua":10434,"Ġnum":10435,"Ġnapo":10436,"Ġrisqan":10437,"Ġllaqtatas":10438,"Ġchhuk":10439,"urana":10440,"wanpis":10441,"Ġmaru":10442,"Ġmash":10443,"Ġmadre":10444,"Ġpaciencia":10445,"appas":10446,"Ġder":10447,"asara":10448,"chio":10449,"chiway":10450,"chimpu":10451,"Ġtul":10452,"Ġtla":10453,"Ġtre":10454,"aram":10455,"ninkama":10456,"ninnaq":10457,"Ġribe":10458,"lilla":10459,"rapi":10460,"Ġyallinraq":10461,"kunchik":10462,"Ġqhar":10463,"Ġsuce":10464,"Ġsullana":10465,"paqchu":10466,"inata":10467,"Ġhaway":10468,"ese":10469,"este":10470,"esaloni":10471,"Ġbran":10472,"Ġblo":10473,"Ġbaqu":10474,"Ġbrun":10475,"Ġqaray":10476,"Ġcalle":10477,"Ġsutita":10478,"tunya":10479,"Ġaychanta":10480,"chisunki":10481,"Ġanhil":10482,"die":10483,"Ġling":10484,"Ġkaqhina":10485,"Ġmik":10486,"Ġmilitar":10487,"Ġinga":10488,"cios":10489,"himi":10490,"kanku":10491,"Ġsaqa":10492,"Ġurqun":10493,"linu":10494,"llanka":10495,"llanpim":10496,"Ġmungul":10497,"runakunap":10498,"roga":10499,"Ġruruyuq":10500,"Ġimapaqpas":10501,"Ġistu":10502,"Ġislay":10503,"Ġislam":10504,"retrieved":10505,"Ġflores":10506,"Ġfaringitis":10507,"llampu":10508,"Ġquchawan":10509,"unchawniyku":10510,"Ġyachaymanta":10511,"doval":10512,"pando":10513,"Ã©li":10514,"Ã©xo":10515,"Ġmarco":10516,"Ġ1810":10517,"Ġhuar":10518,"Ġhugo":10519,"Ġ57":10520,"Ġyachakuy":10521,"Ġyachakunapaq":10522,"Ġamaraka":10523,"Ġhayun":10524,"olk":10525,"1979":10526,"1959":10527,"1975":10528,"Ġeus":10529,"Ġeva":10530,"Ġecu":10531,"Ġwasicha":10532,"Ġwasikunata":10533,"Ġrikusqan":10534,"Ġrikuchirqan":10535,"Ġatiene":10536,"demo":10537,"allqu":10538,"Ġdioswan":10539,"itiwu":10540,"leo":10541,"Ġllaqtankuna":10542,"Ġllaqtanmanta":10543,"Ġoa":10544,"Ġom":10545,"Ġcose":10546,"Ġpukyukuna":10547,"Ġarce":10548,"Ġjuanqa":10549,"lotte":10550,"kuspalla":10551,"bac":10552,"listu":10553,"Ġqankunamanta":10554,"Ġmarkapiqa":10555,"Ġ97":10556,"Ġvil":10557,"Ġsinri":10558,"Ġsemana":10559,"sea":10560,"aquta":10561,"unchaykama":10562,"Ġsaqer":10563,"Ġnazar":10564,"dukuna":10565,"Ġ120":10566,"Ġtukuchin":10567,"Ġwawakunaqa":10568,"kichista":10569,"kichispas":10570,"meta":10571,"anchayniyku":10572,"Ġsuytuk":10573,"illaymanta":10574,"Ġchanchamayu":10575,"Ġuqu":10576,"Ġkapchiq":10577,"Ġkasharqa":10578,"ralde":10579,"Ġmuri":10580,"ĠmuÃ±":10581,"itpa":10582,"xiamas":10583,"Ġmaskha":10584,"achata":10585,"Ġgualberto":10586,"Ġchurarqa":10587,"askar":10588,"Ġcarcel":10589,"juch":10590,"Ġcongreso":10591,"Ġtiyakuq":10592,"kusqay":10593,"ukunku":10594,"Ġyuyaykuspa":10595,"Ġkuyuchin":10596,"kunkuman":10597,"Ġsalv":10598,"Ġnisqanpi":10599,"Ġchurinsi":10600,"Ġnishu":10601,"face":10602,"Ġzh":10603,"Ġdyuswan":10604,"atawallpa":10605,"kuyninqa":10606,"kshire":10607,"Ġlluta":10608,"waÃ±uy":10609,"Ġapana":10610,"choa":10611,"Ġwaqaychan":10612,"Ġyuraqyaku":10613,"Ġyaykun":10614,"Ġarab":10615,"ĠrikÃ¤":10616,"kunapak":10617,"Ã¤nam":10618,"Ġtantanakuypa":10619,"kumanchu":10620,"Ġsonqowan":10621,"Ġestados":10622,"Ġxvi":10623,"Ġrimasqakama":10624,"brera":10625,"Ġtaytanta":10626,"Ġ1897":10627,"1995":10628,"Ġrurasqanta":10629,"Ġrakirinkuna":10630,"à¤°":10631,"ĠhuÃ±ukuna":10632,"quito":10633,"Ġchallwakunam":10634,"ashqa":10635,"Ġlluqsirqan":10636,"Ġkachkarqa":10637,"Ġ1865":10638,"Ġ1866":10639,"phia":10640,"Ġkallpawan":10641,"derÃ³n":10642,"Ġqullqakuna":10643,"Ġ1852":10644,"Ġ1856":10645,"Ġimanaqtinchus":10646,"Ġchakiyuq":10647,"Ġasipay":10648,"ĠÃ±uÃ±uqkunam":10649,"Ġllaphi":10650,"dislao":10651,"tumpis":10652,"Ġqonqo":10653,"imaynatÃ¡":10654,"kapchiq":10655,"cesco":10656,"cript":10657,"iqtayniy":10658,"Ġvalladolid":10659,"gnos":10660,"Ġyanqalla":10661,"Ġqolqeta":10662,"ĠÐ¼":10663,"Ġqarikuna":10664,"Ð¾Ð²Ð¸Ñĩ":10665,"Ġjesucristopi":10666,"Ġhasp":10667,"ĠmÃ©rida":10668,"ĠbelÃ©n":10669,"Ġvirginia":10670,"lingÃ¼":10671,"runasimipi":10672,"Ġnishpa":10673,"ĠØ¹Ø¨Ø¯":10674,"akincha":10675,"tics":10676,"ĠÃ¡ngeles":10677,"Ġyupaycharqanku":10678,"kamachichisqa":10679,"Ġministruninmi":10680,"Ġqulcha":10681,"ÐµÐ²Ð¸Ñĩ":10682,"Ġnarciso":10683,"Ġkampiunatukuna":10684,"ĠparanÃ¡":10685,"Ġisklaw":10686,"Ġchaynulla":10687,"Ġniyatiwu":10688,"kistadur":10689,"Ġbulgarya":10690,"Ġkillikacha":10691,"maÃ±aykuna":10692,"Ġamazonas":10693,"Ġsilandaq":10694,"mboldt":10695,"Ġiturralde":10696,"Ġsiwilchasqa":10697,"esaloniki":10698,"Ġsuytukancha":10699,"900":10700,"achinapaq":10701,"but":10702,"burinkin":10703,"cti":10704,"gl":10705,"hy":10706,"iriy":10707,"ichiq":10708,"iwriyu":10709,"jis":10710,"jar":10711,"jardo":10712,"lina":10713,"mÃŃn":10714,"mento":10715,"napu":10716,"prin":10717,"pÃŃs":10718,"suntur":10719,"tta":10720,"ug":10721,"uman":10722,"velo":10723,"zh":10724,"Ã¥":10725,"Äĥ":10726,"Íĺ":10727,"ĠÅ¡":10728,"chuya":10729,"tarata":10730,"unpa":10731,"unka":10732,"ayruma":10733,"aykamulla":10734,"piki":10735,"Ġkho":10736,"Ġkemp":10737,"inchay":10738,"inapaq":10739,"inkar":10740,"mapi":10741,"isyun":10742,"Ġsuk":10743,"waspa":10744,"wasa":10745,"micha":10746,"riyuq":10747,"tiykichis":10748,"Ġpel":10749,"ĠpÃ«":10750,"Ġprima":10751,"chap":10752,"manka":10753,"Ġkali":10754,"kachan":10755,"kathuliku":10756,"Ġqes":10757,"Ġawi":10758,"Ġaco":10759,"Ġnam":10760,"Ġnaran":10761,"uqmi":10762,"ukana":10763,"kichej":10764,"ĠmÃ¡r":10765,"wanu":10766,"Ġmai":10767,"Ġmak":10768,"Ġmakilla":10769,"Ġsiku":10770,"Ġsira":10771,"rukuna":10772,"Ġdur":10773,"Ġwataq":10774,"Ġwatapaq":10775,"Ġ116":10776,"Ġtsay":10777,"Ġidio":10778,"Ġsimipas":10779,"Ġsimikunaqa":10780,"arsi":10781,"aryu":10782,"ninrayku":10783,"ninkunamanta":10784,"Ġrirqa":10785,"wice":10786,"lie":10787,"Ġrunaspa":10788,"rak":10789,"raÃ±a":10790,"Ġyagua":10791,"kunayoq":10792,"Ġqhaq":10793,"Ġsul":10794,"ĠsuÃ±":10795,"siÃ³n":10796,"umas":10797,"Ġpichana":10798,"Ġpied":10799,"Ġpiqpa":10800,"Ġjel":10801,"chaykuna":10802,"erna":10803,"insyun":10804,"Ġmanyan":10805,"enas":10806,"lama":10807,"lawya":10808,"Ġwiks":10809,"quer":10810,"Ġtama":10811,"Ġtariy":10812,"kuyllu":10813,"Ġcristoq":10814,"Ġayni":10815,"Ġaskhan":10816,"yanya":10817,"diego":10818,"Ġkaqninta":10819,"Ġkaqtinqa":10820,"Ġkaqninkunata":10821,"Ġinte":10822,"Ġinsik":10823,"Ġindunisya":10824,"ispataq":10825,"Ġgru":10826,"aqtaqa":10827,"antallawanchu":10828,"Ġsamar":10829,"Ġiskuy":10830,"Ġhinapi":10831,"Ġhinataqmi":10832,"real":10833,"Ġlie":10834,"unchawniyuq":10835,"unchawniyuqmi":10836,"Ġyachaywanmi":10837,"Ġallinkaq":10838,"panpi":10839,"Ã©nez":10840,"tano":10841,"Ġqhat":10842,"luwakya":10843,"uliwiya":10844,"Ġ1824":10845,"Ġ1826":10846,"Ġ1845":10847,"Ġhuchuy":10848,"Ġtullun":10849,"Ġwarkh":10850,"Ġnispam":10851,"Ġhayka":10852,"Ġkatiguriyakuna":10853,"Ġwolfgang":10854,"Ġkutim":10855,"Ġkutiy":10856,"1949":10857,"ĠepÃŃs":10858,"tawantin":10859,"Ġpusana":10860,"Ġatikun":10861,"Ġatiwaq":10862,"ĠrepÃºblica":10863,"ullalla":10864,"ĠraÃºl":10865,"rinku":10866,"Ġllaqtancheq":10867,"minist":10868,"Ġcos":10869,"uruta":10870,"unqaq":10871,"unqaku":10872,"Ġsuyukunaman":10873,"Ġjuchayuq":10874,"lov":10875,"Ġalban":10876,"Ġjaruma":10877,"Ġwatamantam":10878,"Ġqankunata":10879,"Ġqankunaman":10880,"Ġ91":10881,"Ġantakuru":10882,"Ġimayuq":10883,"Ġimayaymi":10884,"Ġcate":10885,"Ġcabrera":10886,"Ġkulli":10887,"aque":10888,"aqui":10889,"vaca":10890,"llapachu":10891,"Ġsaqe":10892,"102":10893,"ducciÃ³n":10894,"Ġchakrapi":10895,"Ġwawakunapas":10896,"Ġtaytayku":10897,"Ġperi":10898,"Ġkasqanman":10899,"anchayku":10900,"berta":10901,"kusha":10902,"llurkuna":10903,"Ġchuta":10904,"musika":10905,"Ġphinsuyu":10906,"Ġguer":10907,"Ġbio":10908,"Ġrisirwapiqa":10909,"imamani":10910,"Ġwakinkuna":10911,"Ġnerqanku":10912,"Ġusu":10913,"Ġusqhayta":10914,"Ġqhipaqnin":10915,"Ġqullusqa":10916,"Ġqullqin":10917,"khallka":10918,"Ġtiyash":10919,"Ġkhay":10920,"Ġkhish":10921,"ĠÃ±uka":10922,"Ġcreen":10923,"Ø§Ùħ":10924,"mbus":10925,"Ġapulliq":10926,"Ġwaqar":10927,"Ġfajardo":10928,"Ġcasa":10929,"carrald":10930,"Ġllaqtakunapim":10931,"Ġchurinmi":10932,"hem":10933,"Ġruwankichis":10934,"Ġninapi":10935,"Ġnuestra":10936,"Ġphichqa":10937,"Ġtomas":10938,"llatachu":10939,"Ġkachamu":10940,"Ġpaqarichiq":10941,"Ġtantachisqa":10942,"Ġtiksimuyuntin":10943,"Ġchinchaysuyupi":10944,"winya":10945,"Ġtakiqkuna":10946,"Ġkananpaqqa":10947,"buco":10948,"Ġyachachiqmi":10949,"guslawya":10950,"Ġkananchispaq":10951,"Ġqillqanakuna":10952,"Ġcanton":10953,"Ġmanuripi":10954,"Ġhurquq":10955,"Ġkartulsuyu":10956,"Ġkurkup":10957,"Ġvaler":10958,"kanada":10959,"Ġimaymanakuna":10960,"ikrana":10961,"Ġinlisyan":10962,"Ġ1871":10963,"Ġ1879":10964,"chinchaysuyu":10965,"Ġwamanipi":10966,"Ð¾Ñģ":10967,"Ġlluqsimuy":10968,"Ġmikhuqmi":10969,"Ġwasha":10970,"barcelona":10971,"Ġqurqa":10972,"Ġ1863":10973,"Ġ1884":10974,"Ġ1888":10975,"1987":10976,"wakcha":10977,"ĠÃ±isqapi":10978,"ĠiÃ±ini":10979,"ĠispaÃ±ulkuna":10980,"Ġimayaypa":10981,"punapaq":10982,"meros":10983,"Ġwarminwan":10984,"Ġmunasqanku":10985,"urice":10986,"Ġsipaskuna":10987,"Ġcheqaqtan":10988,"Ġjehovap":10989,"Ġlinguis":10990,"Ġchikitus":10991,"kuptinmi":10992,"Ġharry":10993,"enses":10994,"Ġmusikuq":10995,"Ġyupakuna":10996,"Ð»Ð°":10997,"chayraykum":10998,"niqir":10999,"Ġtakyasqa":11000,"Ġyarqasqa":11001,"ichÃ©":11002,"rumilla":11003,"Ġlarunpi":11004,"Ġvaca":11005,"sirbya":11006,"Ġtrujillo":11007,"Ġchachakumani":11008,"drup":11009,"ĠÐ±":11010,"Å«shÅ«":11011,"Ġkhipu":11012,"Ġajlla":11013,"cure":11014,"california":11015,"florida":11016,"Ġbautiza":11017,"Ġamerican":11018,"Ġsuticharqa":11019,"________":11020,"harawi":11021,"Ġjacobo":11022,"Ġolmedo":11023,"mburg":11024,"thomas":11025,"Ġpolylepis":11026,"ĠĠĠĠĠĠĠĠ":11027,"Ġtecn":11028,"Ġchuquimamani":11029,"Ġqhechwasimipi":11030,"Ġapuyaya":11031,"Ġescrito":11032,"bourne":11033,"huanca":11034,"Ġoxford":11035,"Ġampatu":11036,"Ġesperanza":11037,"ĠæĿİ":11038,"Ġipistula":11039,"Ġamarakaeri":11040,"aykamullaway":11041,"\";":11042,"116":11043,"700":11044,"awar":11045,"achispa":11046,"cs":11047,"dena":11048,"eqe":11049,"fernando":11050,"guy":11051,"itin":11052,"igal":11053,"jchu":11054,"luq":11055,"of":11056,"phin":11057,"ryu":11058,"sisa":11059,"tqa":11060,"triya":11061,"tsin":11062,"ugh":11063,"yanqa":11064,"zz":11065,"áĪ":11066,"ĠÃ³":11067,"ĠÎ¿":11068,"Ġ''":11069,"anchi":11070,"lluy":11071,"llku":11072,"aywiki":11073,"pisa":11074,"pichqantin":11075,"Ġkong":11076,"aqwa":11077,"unas":11078,"mam":11079,"macha":11080,"ise":11081,"parqan":11082,"Ġsco":11083,"wallaqa":11084,"wampis":11085,"uyay":11086,"michi":11087,"mila":11088,"tiv":11089,"tier":11090,"tipu":11091,"timuthiyupaq":11092,"Ġhiq":11093,"Ġpruw":11094,"Ġpaqucha":11095,"manmanta":11096,"Ġkambuya":11097,"kuk":11098,"kumin":11099,"kuchkaptin":11100,"Ġwalli":11101,"kamuq":11102,"Ġqanta":11103,"Ġavil":11104,"Ġrisqa":11105,"usay":11106,"usÃ±i":11107,"ĠmÃ¡":11108,"Ġmsn":11109,"wanda":11110,"Ġmadri":11111,"Ġnisqakunata":11112,"Ġpachi":11113,"ĠdÃŃ":11114,"Ġdol":11115,"asra":11116,"anqayuq":11117,"Ġtinki":11118,"Ġtrans":11119,"ĠitÃ©":11120,"ĠÃ±iy":11121,"Ġrirqanku":11122,"Ġsuyuman":11123,"paska":11124,"Ġqhu":11125,"Ġqhish":11126,"Ġhal":11127,"Ġchaytam":11128,"yupa":11129,"Ġpio":11130,"coa":11131,"chayri":11132,"chayanta":11133,"Ġmani":11134,"Ġmanda":11135,"late":11136,"Ġwiyu":11137,"Ġqallwa":11138,"Ġtam":11139,"Ġcun":11140,"Ġcari":11141,"Ġqillqamuy":11142,"kaywan":11143,"guer":11144,"Ġkanankuta":11145,"waylas":11146,"kamarka":11147,"Ġsutiyuqmi":11148,"chisun":11149,"Ġmanachayqa":11150,"Ġluna":11151,"Ġtirul":11152,"elota":11153,"Ġkaqninkuna":11154,"Ġmime":11155,"Ġinkumin":11156,"cife":11157,"Ġallwya":11158,"Ġchampi":11159,"ĠgÃ³":11160,"Ġgama":11161,"Ġgeo":11162,"kanuku":11163,"paypi":11164,"Ġmaymanpas":11165,"Ġmaywiy":11166,"ÃŃsti":11167,"ÃŃni":11168,"Ġpiruwpas":11169,"tamina":11170,"Ġpaytaqa":11171,"Ġimapi":11172,"Ġimakunata":11173,"Ġislandya":11174,"sqanmi":11175,"Ġkamarqa":11176,"kinchu":11177,"Ġfriedrich":11178,"llamp":11179,"Ġsantander":11180,"Ġugel":11181,"Ġutawa":11182,"Ġwanki":11183,"cachi":11184,"chino":11185,"tein":11186,"tantin":11187,"lumin":11188,"chanpi":11189,"Ġchica":11190,"Ġ1814":11191,"Ġ1820":11192,"Ġ1833":11193,"Ġ1834":11194,"Ġhua":11195,"Ġ58":11196,"Ġchuntu":11197,"Ġwaranqamanta":11198,"Ġyachakun":11199,"kunanchispaq":11200,"Ġuyapur":11201,"Ġhayku":11202,"peg":11203,"pei":11204,"Ġkungu":11205,"Ġkunturi":11206,"Ġwillakuynin":11207,"risqanku":11208,"Ġwhi":11209,"Ġwest":11210,"Ġraymim":11211,"1945":11212,"mary":11213,"tawanmi":11214,"Ġpusitiwu":11215,"Ġwasiqa":11216,"Ġatipan":11217,"Ġatipaspa":11218,"Ġreg":11219,"Ġllalla":11220,"Ġllajta":11221,"rinqa":11222,"rinka":11223,"Ġofi":11224,"Ġintita":11225,"Ġintimanta":11226,"Ġ63":11227,"Ġ67":11228,"Ġcoca":11229,"mayupi":11230,"Ġkusasqa":11231,"Ġroca":11232,"Ġroberto":11233,"Ġrodolfo":11234,"hinaqtinmi":11235,"ayninman":11236,"anpaqpas":11237,"Ġalkali":11238,"bao":11239,"maraÃ±un":11240,"guro":11241,"Ġlliwta":11242,"Ġqanmi":11243,"jac":11244,"Ġ900":11245,"Ġviz":11246,"Ġvidal":11247,"tales":11248,"Ġsecre":11249,"Ġ85":11250,"Ġ1781":11251,"see":11252,"hanka":11253,"vada":11254,"llapaqa":11255,"Ġruraqkunata":11256,"Ġtariq":11257,"muqu":11258,"Ġpachapitaq":11259,"Ġped":11260,"Ġkitillikunapi":11261,"ananmi":11262,"piruwpiqa":11263,"Ġlugar":11264,"ralta":11265,"Ġquyan":11266,"eau":11267,"Ġyanapasqa":11268,"Ġwaqllin":11269,"achalli":11270,"ĠwaÃ±uchisqan":11271,"Ġyanaqucha":11272,"Ġelec":11273,"Ġkasma":11274,"Ġush":11275,"Ġsunin":11276,"Ġleey":11277,"Ġleone":11278,"turkiya":11279,"Ġjinataq":11280,"Ġtiyasqa":11281,"Ġqimis":11282,"Ġchaypitaj":11283,"arqani":11284,"Ġkimsak":11285,"Ġtikina":11286,"anchikmi":11287,"Ġpuchukanqa":11288,"ichataq":11289,"Ġapuwasinyuq":11290,"Ġmunanchu":11291,"Ġcuida":11292,"Ġlocal":11293,"Ġfaus":11294,"Ġcastillo":11295,"carpus":11296,"ĠmedellÃŃn":11297,"kasanku":11298,"ĠÃ±awiyuq":11299,"Ġruwanayki":11300,"Ġpod":11301,"ĠsuÃ±aykuna":11302,"tts":11303,"ĠapÃ³s":11304,"Ġbeta":11305,"Ġbetan":11306,"Ġwaqaychay":11307,"Ġqhariqa":11308,"Ġqharikuna":11309,"Ġbarbara":11310,"Ġallichasqa":11311,"eredia":11312,"Ã¼rich":11313,"osada":11314,"ĠØ£":11315,"ĠwaÃ±uymanta":11316,"Ġmillayta":11317,"layqa":11318,"Ġjob":11319,"diosmi":11320,"ishqa":11321,"Ġkawsananpaq":11322,"Ġkawsanankupaq":11323,"ĠhipÃ³lito":11324,"Ġvalen":11325,"Ġrimanakuspa":11326,"Ġwawankuna":11327,"Ġpartido":11328,"Ġukuku":11329,"Ġuyarichun":11330,"ankash":11331,"suyruqucha":11332,"kunankupaj":11333,"kachaspa":11334,"Ġ1883":11335,"Ġmore":11336,"ĠÃ±oqawan":11337,"Ġqarawili":11338,"ĠiÃ±isqan":11339,"kushaqtin":11340,"ĠÏĦ":11341,"alimanyapi":11342,"banu":11343,"áĥĲ":11344,"Ġyanapayninwan":11345,"ÐºÐ¸":11346,"Ġaqupampilla":11347,"Ġyachachirqa":11348,"ÑĢÐ°":11349,"Ġpumap":11350,"Ġsumajta":11351,"Ø±ÙĬ":11352,"Ġpremio":11353,"Ġkamaqninsi":11354,"Ġisai":11355,"Ġwatankumanta":11356,"Ġchakatasqa":11357,"Ġruranakuspa":11358,"ipzig":11359,"Ġpaqtan":11360,"jasja":11361,"tinkutaq":11362,"Ġfoot":11363,"qispiqanchi":11364,"ĠpaÃ±aman":11365,"iÃ±iy":11366,"Ġtanqan":11367,"Ġparkipiqa":11368,"Ġprutun":11369,"xaca":11370,"Ġshukllachishka":11371,"ĠÐ¿":11372,"dolf":11373,"Ġplurina":11374,"Ġqhatuchay":11375,"Ġedward":11376,"Ġcordero":11377,"eduardo":11378,"Ġamericana":11379,"Ġupalla":11380,"Ġhinaspas":11381,"Ġllaktapi":11382,"Ġkutakachi":11383,"Ġapaykachana":11384,"hirya":11385,"Ġdiablo":11386,"Ġmuspharqanku":11387,"Ġhelhasqa":11388,"à¥į":11389,"ssel":11390,"awstralya":11391,"ÏīÎ½":11392,"ĠÃ±awiriywasi":11393,"Ġyawrinmi":11394,"ĠjarkÊ¼":11395,"ĠÃ±awsa":11396,"grande":11397,"Ġyuquna":11398,"Ġpress":11399,"Ġpukllasqan":11400,"Ġyumasqa":11401,"waraniyi":11402,"Ġgarcilaso":11403,"bulibiya":11404,"Ġthomas":11405,"Ġlaqhayaq":11406,"Ġkanchayllu":11407,"Ġllojsi":11408,"Ġpikillaqta":11409,"ĠcorazÃ³n":11410,"Ġbarat":11411,"ĠestreptocÃ³":11412,"Ġtoscana":11413,"Ġankichiy":11414,"Ġfitzcarrald":11415,"Ġmishikunapas":11416,"dagaskar":11417,"Ġnapayku":11418,"tÃ³lica":11419,"Ġ(~)":11420,"Ġumallinamanta":11421,"Ġgrosso":11422,"Ġintercultural":11423,"Ġmakiyasiq":11424,"Ġmessages":11425,"esalonikiyuqkunapaq":11426,"Ġjeljasja":11427,"ĠepÃŃstola":11428,"ĠavilÃ©s":11429,"ĠdÃŃez":11430,"ĠitÃ©nez":11431,"Ġutawalu":11432,"118":11433,"115":11434,"akunamanta":11435,"aga":11436,"akaq":11437,"akusqan":11438,"agua":11439,"achkaq":11440,"bÃŃo":11441,"cli":11442,"cke":11443,"clas":11444,"club":11445,"dl":11446,"dney":11447,"dbr":11448,"fun":11449,"hqa":11450,"hor":11451,"hol":11452,"ipas":11453,"ikun":11454,"lya":11455,"mena":11456,"nus":11457,"nonato":11458,"oya":11459,"oza":11460,"zano":11461,"Äĳ":11462,"Ð±":11463,"×¨":11464,"á¹":11465,"æĺ":11466,"Ġuti":11467,"ane":11468,"anaq":11469,"anum":11470,"chor":11471,"llqan":11472,"llki":11473,"pish":11474,"Ġkol":11475,"inga":11476,"inlisya":11477,"aqllay":11478,"maqa":11479,"maruku":11480,"isun":11481,"paw":11482,"pati":11483,"palla":11484,"pariy":11485,"pachaq":11486,"wakuna":11487,"wala":11488,"mita":11489,"rias":11490,"Ġhy":11491,"Ġhtt":11492,"Ġhurqu":11493,"chak":11494,"challa":11495,"chapampa":11496,"yawa":11497,"manca":11498,"Ġwallanpi":11499,"Ġquspa":11500,"Ġqincha":11501,"Ġ(=":11502,"Ġ(%)":11503,"Ġamu":11504,"Ġraq":11505,"Ġrasu":11506,"uray":11507,"qanakuy":11508,"kipas":11509,"wani":11510,"wanchej":11511,"Ġmato":11512,"Ġsim":11513,"ruwillka":11514,"Ġnisqakunapi":11515,"Ġnisqakunam":11516,"ĠpaÃŃs":11517,"ape":11518,"Ġdun":11519,"ĠdÃŃa":11520,"Ġ1000":11521,"chira":11522,"chikuyta":11523,"ĠichÃ¡":11524,"Ġimira":11525,"Ġsimilla":11526,"Ġrita":11527,"Ġriyta":11528,"will":11529,"wick":11530,"william":11531,"lium":11532,"Ġkitinmi":11533,"rqanki":11534,"rama":11535,"tua":11536,"Ġhaku":11537,"Ġchayaq":11538,"Ġchaynu":11539,"Ġpimanpas":11540,"enjo":11541,"ladel":11542,"Ġwiray":11543,"qupaqhawana":11544,"tinyu":11545,"tinapaq":11546,"Ġsimipim":11547,"Ġqarqa":11548,"osh":11549,"kuykunata":11550,"Ġcus":11551,"ĠcÃ©":11552,"Ġcita":11553,"Ġcesar":11554,"kayninta":11555,"Ġsutiyuqmanta":11556,"puyuq":11557,"chasqaÃ±a":11558,"did":11559,").[":11560,"como":11561,"elu":11562,"Ġpuchu":11563,"Ġinkill":11564,"Ġkawsananchikpaq":11565,"toles":11566,"town":11567,"Ã¡tica":11568,"niki":11569,"Ġallillan":11570,"Ġchapusqa":11571,"kanam":11572,"uraz":11573,"antaykuta":11574,"putu":11575,"payay":11576,"Ġmaylla":11577,"lluta":11578,"Ġmunayku":11579,"rom":11580,"Ġimapaq":11581,"Ġimaptin":11582,"saqa":11583,"Ġkamachis":11584,"Ġrikchaq":11585,"vimiento":11586,"unchawmi":11587,"Ġyachaywan":11588,"pania":11589,"daqa":11590,"Ġrimayninta":11591,"luca":11592,"chiynin":11593,"Ġchico":11594,"kuqchu":11595,"Ġ1816":11596,"Ġhump":11597,"Ġhuchusuma":11598,"Ġyacharqa":11599,"Ġlake":11600,"Ġlagar":11601,"Ġpardo":11602,"Ġuyanta":11603,"Ġkitiqa":11604,"punta":11605,"Ġwikipidiyata":11606,"Ġlliph":11607,"Ġllipt":11608,"ykiqa":11609,"Ġwayllaq":11610,"Ġwillakuyta":11611,"Ġyuthu":11612,"Ġvall":11613,"Ġemer":11614,"Ġemilio":11615,"govia":11616,"Ġkawsaykunata":11617,"Ġpusarqan":11618,"Ġrikuchisqa":11619,"khay":11620,"Ġatipanakuy":11621,"Ġrepar":11622,"itikunapi":11623,"leg":11624,"niyuqchu":11625,"Ġop":11626,"Ġ68":11627,"Ġcop":11628,"Ġwarmiy":11629,"Ġararan":11630,"urumanta":11631,"Ã±iyuq":11632,"Ġrou":11633,"Ġroger":11634,"ayninmanta":11635,"Ġtarpusqa":11636,"Ġalfred":11637,"Ġrimari":11638,"Ġrimachkanku":11639,"niypi":11640,"Ġmisa":11641,"Ġphaway":11642,"Ġ1532":11643,"Ġ74":11644,"javier":11645,"Ġviral":11646,"Ġantapampa":11647,"Ġsindi":11648,"Ġimayman":11649,"Ġsec":11650,"cef":11651,"Ġ81":11652,"Ġ89":11653,"vedo":11654,"ĠcatÃ³lica":11655,"nejta":11656,"Ġpusaqninmi":11657,"unchayninpi":11658,"Ġprograma":11659,"Ġchakrakunapi":11660,"ect":11661,"Ġ[[":11662,"Ġtaytayki":11663,"Ġinkallaqta":11664,"anchayki":11665,"Ġsuyt":11666,"pecial":11667,"Ġchankay":11668,"Ġnove":11669,"Ġuqi":11670,"phisqa":11671,"Ġquyta":11672,"trio":11673,"llunk":11674,"keÄį":11675,"Ġqhawasqan":11676,"imaraykun":11677,"ĠelÃŃas":11678,"erno":11679,"Ġuyarisqan":11680,"askachakuq":11681,"ĠleguÃŃa":11682,"Ġjesuswan":11683,"Ġtiyapuynin":11684,"lasiku":11685,"ĠrumiÃ±awi":11686,"filo":11687,"Ġpampakunapi":11688,"Ġsiminmanta":11689,"Ġrunasimiman":11690,"Ø§Ø¯":11691,"casa":11692,"Ġwaqachinchik":11693,"Ġumalliqninsi":11694,"Ġunquykuna":11695,"Ġunquywan":11696,"Ġchayraykutaq":11697,"Ġchaninta":11698,"Ġpinkuyllu":11699,"Ġninakurqanku":11700,"Ġwillkawaman":11701,"2017":11702,"Ġmuyuriy":11703,"Ġsoto":11704,"Ġsocial":11705,"Ġortiz":11706,"Ġwaqaychanapaq":11707,"tarina":11708,"...)":11709,"Ġpaqarichiy":11710,"Ġchinchaysuyu":11711,"ikakuna":11712,"Ġparaqas":11713,"Ġwakichin":11714,"Ġaragun":11715,"Ġpedrota":11716,"sissip":11717,"uÃ±ichiy":11718,"vard":11719,"Ġtinkuna":11720,"Ġpuririy":11721,"Ġtantanakuypi":11722,"Ġkuyllurkuna":11723,"gusta":11724,"Ġyanapakuykuna":11725,"diosmanta":11726,"Ġllakikuy":11727,"ologna":11728,"Ġhurwatsuyu":11729,"Ġpisqukunap":11730,"Ġkamachiqkuna":11731,"Ġchinkachisqa":11732,"Ġhinaspanmi":11733,"Ġkamaypaq":11734,"Ġquncha":11735,"Ġpalabra":11736,"ĠhuÃ±unasqa":11737,"Ġcielo":11738,"Ġcielota":11739,"Ġruwasqanku":11740,"Ã¡squez":11741,"andrÃ©s":11742,"Ġ1862":11743,"Ġkamachikuykunata":11744,"Ġ1889":11745,"1989":11746,"Ġperuano":11747,"phili":11748,"rinada":11749,"ÏģÎ¬":11750,"kamri":11751,"Ġamor":11752,"Ġwarikancha":11753,"Ġherman":11754,"derland":11755,"Ġkuraj":11756,"Ġyorkshire":11757,"Ġimayaykunam":11758,"Ġsunim":11759,"Ġinlisyap":11760,"Ġpalmas":11761,"dison":11762,"pukllay":11763,"Ġmunasqanta":11764,"Ġprefectura":11765,"Ġmayqinchus":11766,"ĠvelÃ¡zquez":11767,"Ġgreen":11768,"ĠcalderÃ³n":11769,"1967":11770,"Ġplata":11771,"Ġterror":11772,"Ġbantu":11773,"Ð»Ðµ":11774,"wariku":11775,"Ġachkiyqa":11776,"imanaqtintaq":11777,"cord":11778,"Ġindyapi":11779,"bilhika":11780,"Ġpututu":11781,"Ġhoras":11782,"Ġaguas":11783,"arrollo":11784,"Ġatirqanchu":11785,"Ġtruyanu":11786,"vgorod":11787,"Ġtarapaka":11788,"tiksimuyu":11789,"terial":11790,"Ġcaperna":11791,"Ġyachaqayta":11792,"Ġsamarikuy":11793,"Ġblanco":11794,"Ġweber":11795,"Ġitali":11796,"Ġyawrinkuna":11797,"Ġwaqlliynin":11798,"vÃŃctor":11799,"Ġqallarisqanpi":11800,"magdalena":11801,"Ġdansuyu":11802,"ĠÎºÎ±":11803,"Ġchhayna":11804,"Ġmediawiki":11805,"fisyal":11806,"Ġmetropoli":11807,"Ġkawsarimpun":11808,"Ġwiksanpi":11809,"Ġjuqhu":11810,"Ġwillamuy":11811,"Ġdimukratiku":11812,"Ġespejo":11813,"ĠseÃ±al":11814,"yecto":11815,"ĠyaÄīha":11816,"Ġdemokra":11817,"ĠcontribuciÃ³n":11818,"Ġbenedetto":11819,"ĠmÃ¡rquez":11820,"Ġinsiklupi":11821,"ĠestreptocÃ³cica":11822,"Ġimiratukuna":11823,"sissippi":11824,"'t":11825,".]":11826,"450":11827,":-":11828,":[":11829,"achayuq":11830,"ebre":11831,"gni":11832,"gol":11833,"itu":11834,"ichisqa":11835,"jana":11836,"kri":11837,"kchu":11838,"lv":11839,"lulu":11840,"nampa":11841,"oi":11842,"om":11843,"oto":11844,"ochukuy":11845,"qs":11846,"quspa":11847,"quni":11848,"rh":11849,"rusqa":11850,"rtika":11851,"suq":11852,"ses":11853,"syu":11854,"uin":11855,"vene":11856,"wo":11857,"wisk":11858,"wels":11859,"xtla":11860,"yayuqmi":11861,"yperu":11862,"~~":11863,"Éª":11864,"à¶":11865,"å·":11866,"ĮĹ":11867,"chwan":11868,"qaru":11869,"qasqan":11870,"aywan":11871,"pie":11872,"inman":11873,"inchu":11874,"inisya":11875,"aqpis":11876,"aqninmi":11877,"mash":11878,"pawa":11879,"paku":11880,"Ġstan":11881,"Ġsapay":11882,"Ġstre":11883,"uywan":11884,"rianu":11885,"Ġllum":11886,"titi":11887,"tiyuq":11888,"Ġpuraq":11889,"manku":11890,"kuchkaq":11891,"kullantaq":11892,"kachu":11893,"kawri":11894,"ĠaÃ±":11895,"Ġatun":11896,"Ġavi":11897,"Ġapar":11898,"Ġalawsi":11899,"Ġchuma":11900,"Ġchuki":11901,"Ġmuth":11902,"wananchispaq":11903,"Ġmamayuq":11904,"Ġmario":11905,"Ġnisqawanqa":11906,"Ġpaolo":11907,"apana":11908,"apulu":11909,"astawan":11910,"anqatam":11911,"chikurqa":11912,"ĠtÃ¡":11913,"Ġtrinidad":11914,"Ġiki":11915,"Ġilu":11916,"Ġithiyup":11917,"ĠÃ±am":11918,"arki":11919,"ninpaq":11920,"nintam":11921,"ninkunap":11922,"nintaqa":11923,"nintapas":11924,"Ġriya":11925,"Ġrunachu":11926,"Ġrunamasi":11927,"Ġkayrayku":11928,"Ġkaypim":11929,"rawa":11930,"Ġmamakuna":11931,"tugu":11932,"Ġsuper":11933,"Ġllaqtapis":11934,"inawa":11935,"esina":11936,"Ġchayhina":11937,"Ġpichi":11938,"cole":11939,"Ġjaq":11940,"Ġjas":11941,"Ġjitpa":11942,"Ġmanapunin":11943,"ulaymi":11944,"ladi":11945,"qupi":11946,"quin":11947,"Ġbla":11948,"Ġbron":11949,"Ġqat":11950,"Ġqawan":11951,"Ġqampa":11952,"Ġqawana":11953,"anaju":11954,"Ġcin":11955,"Ġcura":11956,"Ġqillqakamayuq":11957,"Ġsuticharqan":11958,"istina":11959,"wayt":11960,"orÃŃa":11961,"Ġ1915":11962,"Ġaysa":11963,"Ġaymar":11964,"chistaq":11965,"yanku":11966,"yanyapi":11967,"hav":11968,"diente":11969,"Ġicharati":11970,"Ġkaqkama":11971,"Ġmirana":11972,"hiyup":11973,"nimpi":11974,"Ġallqa":11975,"Ġchampa":11976,"Ġgris":11977,"Ġgalle":11978,"Ġgeno":11979,"Ġhatunchan":11980,"antapampa":11981,"chikwan":11982,"Ġsau":11983,"Ġuran":11984,"pumaq":11985,"payku":11986,"Ġmayun":11987,"ÃŃmac":11988,"Ġ350":11989,"Ġpiruwki":11990,"tamento":11991,"Ġpaypura":11992,"Ġimawan":11993,"Ġimapipas":11994,"Ġrupa":11995,"Ġnikuq":11996,"sajama":11997,"Ġfle":11998,"Ġsansa":11999,"Ġsandoval":12000,"viare":12001,"Ġum":12002,"Ġallinya":12003,"tea":12004,"tec":12005,"teca":12006,"Ġmarx":12007,"Ġqhata":12008,"nalla":12009,"Ġrimayninqa":12010,"Ġchika":12011,"Ġ1839":12012,"Ġ1836":12013,"Ġtutata":12014,"Ġtukapu":12015,"Ġyacharqan":12016,"Ġyachash":12017,"chkanmi":12018,"Ġlaru":12019,"hasqanta":12020,"Ġamapuni":12021,"kunanchik":12022,"ykipas":12023,"Ġkunkay":12024,"Ġkunkistadur":12025,"ĠwillaÃ±iq":12026,"ristu":12027,"asqata":12028,"Ġhini":12029,"Ġvul":12030,"anita":12031,"arami":12032,"Ġyurakunapas":12033,"Ġdiosninchik":12034,"Ġurqukunam":12035,"rinman":12036,"Ġhamurqanku":12037,"Ġollantay":12038,"qaykuwan":12039,"Ġkusis":12040,"Ġjuchas":12041,"Ġukya":12042,"Ġromero":12043,"hinaptinmi":12044,"kunawanqa":12045,"bach":12046,"bama":12047,"Ġmunakuq":12048,"munay":12049,"Ġ155":12050,"Ġ1548":12051,"Ġ78":12052,"Ġqanman":12053,"pachakamaq":12054,"Ġruwasaq":12055,"jaco":12056,"Ġ92":12057,"zada":12058,"Ġsecure":12059,"cea":12060,"Ġyuyariy":12061,"seille":12062,"chemill":12063,"Ġachkam":12064,"Ġkuchu":12065,"Ġkump":12066,"Ġkupam":12067,"hanu":12068,"Ġhapun":12069,"duminikana":12070,"Ġtukupun":12071,"anchayninku":12072,"ananpi":12073,"Ġnoqaqa":12074,"Ġnoqanchis":12075,"Ġuqllu":12076,"phinsuyu":12077,"Ġwatakamaqa":12078,"Ġallpap":12079,"Ġallpaman":12080,"Ġdelgado":12081,"Ġmuchun":12082,"Ġphus":12083,"Ġwaqkuna":12084,"Ġmashi":12085,"ĠwaÃ±uchina":12086,"imatan":12087,"Ġyanas":12088,"Ġyanisha":12089,"Ġchuranqa":12090,"Ġchurasqan":12091,"Ġkamachiypa":12092,"Ġkamachiyninpi":12093,"Ġcarolina":12094,"waqra":12095,"ĠllankÊ¼":12096,"Ġarizona":12097,"Ġrumilla":12098,"Ġrumikunata":12099,"Ġkurkupi":12100,"Ġenero":12101,"Ġcree":12102,"Ġkaptinsi":12103,"koki":12104,"Ġpukarani":12105,"Ġsalta":12106,"Ġanqara":12107,"Ġqoll":12108,"Ġqowayku":12109,"hebreos":12110,"vowels":12111,"pajqa":12112,"fauna":12113,"Ġyawarmanta":12114,"Ġllimphu":12115,"Ġpoma":12116,"Ġunited":12117,"Ġtok":12118,"Ġbutan":12119,"Ġbudapest":12120,"Ġyachanki":12121,"Ġyachanchu":12122,"Ġkachar":12123,"Ġmuyuri":12124,"Ġapanqara":12125,"Ġpaqarirqaku":12126,"Ġtantakuy":12127,"Ġtantalli":12128,"Ġmanchakuy":12129,"fera":12130,"Ġqaranta":12131,"ĠmaÃ±aku":12132,"nuqa":12133,"Ġyaykuyta":12134,"Ġarawak":12135,"Ġarawikuna":12136,"Ġriktur":12137,"Ġrikchakuna":12138,"Ġpachakwataqa":12139,"Î±Î½":12140,"varez":12141,"puran":12142,"apuwasinyuq":12143,"hammad":12144,"Ġsonqolla":12145,"Ġkankichik":12146,"Î¿Ïį":12147,"Ġraphiyuqmi":12148,"Ġautori":12149,"Ġyunkuyu":12150,"Ġimatataq":12151,"inkakunaqa":12152,"Ġrurasqanpa":12153,"Ã±oqa":12154,"à¤¿":12155,"quilla":12156,"Ġutkupampa":12157,"uqutu":12158,"Ġchallwam":12159,"Ġpulgar":12160,"Ġ1877":12161,"Ġ1878":12162,"Ġchayamu":12163,"ashka":12164,"tÃ¡y":12165,"Ġcien":12166,"andÃŃa":12167,"Ġmanchayta":12168,"Ġkachiqucha":12169,"chaymantataq":12170,"akunman":12171,"base":12172,"Ġramos":12173,"Ġwiksay":12174,"chasqanmi":12175,"qillqasqa":12176,"Ġkamachinamanta":12177,"Ġninkum":12178,"ĠcerrÃ³n":12179,"Ġrimaqniyuqmi":12180,"Ġkawsayninkuta":12181,"Ġlaqhis":12182,"ĠpuÃ±un":12183,"shawsha":12184,"Ġthuni":12185,"Ġsipirqan":12186,"wisaw":12187,"Ġiruru":12188,"Ġkunturkanki":12189,"Ġkamaqninmi":12190,"ĠwiÃ±ariy":12191,"Ġtraba":12192,"tyle":12193,"Ġsapsilla":12194,"Ġmarie":12195,"Ġmurukunata":12196,"Ġbush":12197,"Ġqallariypi":12198,"Ġlanki":12199,"Ġlangua":12200,"ĠmaskÊ¼":12201,"yawli":12202,"1961":12203,"Ġchikla":12204,"Ġdublin":12205,"Ġmunasqayki":12206,"Ġawqana":12207,"Ġsoldado":12208,"kusituy":12209,"Ġkacharichisqa":12210,"Ġespirituqa":12211,"malta":12212,"Ġaylluy":12213,"Ġayllus":12214,"Ġachala":12215,"Ġpruphis":12216,"Ġpilawit":12217,"Ġputumayu":12218,"Ġzacari":12219,"kapunqa":12220,"Ġsikri":12221,"Ġrikchasapa":12222,"urango":12223,"Ġakllanakuykunapi":12224,"Ġmachaca":12225,"Ġbravo":12226,"Ġkaqtinpas":12227,"Ġawstralyap":12228,"Ġraymin":12229,"Ġniykichismi":12230,"ĠtÊ¼uku":12231,"Ġkichkasapa":12232,"Ġkurkunpi":12233,"âĢ²âĢ²":12234,"Ġsillp":12235,"Ġvocales":12236,"ĠÙħØŃÙħØ¯":12237,"Ġqhawanakunti":12238,"Ġpraha":12239,"Ġleoncio":12240,"Ġhurqunchik":12241,"gory":12242,"Ġsamarikuna":12243,"Ġwakichikunankupaq":12244,"Ġkaruncha":12245,"á»į":12246,"endÃŃn":12247,"anqankunata":12248,"Ġpariwanaqucha":12249,"Ġtiyaqmi":12250,"unchawniykichik":12251,"title":12252,"Ġcontranpi":12253,"ĠÃ±akÊ¼ariy":12254,"Ġsintoma":12255,"qhawariy":12256,"Ġbird":12257,"Ġpalomino":12258,"Ġclemente":12259,"Ġcasosmanta":12260,"Ġachuqalla":12261,"uchukay":12262,"llaqtanmi":12263,"taqtaqtaqtaq":12264,"Ġakllanakuspa":12265,"julio":12266,"Ġoffice":12267,"ĠindÃŃgena":12268,"Ġirupana":12269,"Ġumallinapaq":12270,"Ġingeni":12271,"illimsayaq":12272,"Ġtestigo":12273,"Ġiwanhilista":12274,"Ġhitler":12275,"Ġcolumbia":12276,"kurinthuyuqkunapaq":12277,"Ġecuarunari":12278,"Ġkempff":12279,"inkarrÃŃ":12280,"Ġfootball":12281,"enjoyperu":12282,"urazno":12283,"Ġimaptinchus":12284,"anajuato":12285,"ĠwillaÃ±iqita":12286,"chemillÃ©n":12287,".:":12288,".;":12289,"114":12290,"113":12291,"?\",":12292,"bb":12293,"bÃ©":12294,"cc":12295,"cant":12296,"ctic":12297,"hill":12298,"hran":12299,"ico":12300,"ilia":12301,"ibarra":12302,"kins":12303,"muksi":12304,"naqucha":12305,"nsy":12306,"pho":12307,"spaq":12308,"tÅį":12309,"uisi":12310,"wisqa":12311,"wkan":12312,"zor":12313,"Ïİ":12314,"Ùī":12315,"ĠÐ¸":12316,"Ġáĥ":12317,"angel":12318,"chon":12319,"qayta":12320,"llus":12321,"unti":12322,"unqu":12323,"unfo":12324,"pidrup":12325,"intin":12326,"istu":12327,"iseo":12328,"islandya":12329,"pat":12330,"paz":12331,"Ġsurinam":12332,"waj":12333,"wataqa":12334,"uyap":12335,"mik":12336,"miwya":12337,"millay":12338,"riyu":12339,"ribio":12340,"Ġllun":12341,"Ġhos":12342,"Ġpani":12343,"chaman":12344,"karqan":12345,"kallpa":12346,"Ġav":12347,"Ġalo":12348,"Ġawaq":12349,"Ġatucha":12350,"Ġllaqtapaq":12351,"urpi":12352,"kiru":12353,"Ġmec":12354,"wansi":12355,"Ġmaqaq":12356,"Ġmagallanes":12357,"Ġnisqapa":12358,"Ġpapas":12359,"Ġdr":12360,"Ġdres":12361,"Ġdurango":12362,"Ġ112":12363,"Ġ113":12364,"asankaru":12365,"chiya":12366,"Ġten":12367,"Ġteno":12368,"Ġsimikunapi":12369,"arayku":12370,"Ġrico":12371,"amaq":12372,"amuy":12373,"amento":12374,"Ġkichay":12375,"Ġkillaq":12376,"Ġqhill":12377,"Ġsuwan":12378,"sios":12379,"Ġhatu":12380,"esÃŃa":12381,"Ġchaykunan":12382,"Ġchaypipas":12383,"Ġchayarqan":12384,"Ġchayarqa":12385,"Ġpiq":12386,"ence":12387,"enrique":12388,"ĠÃ±iqintaq":12389,"laguna":12390,"Ġkillaqa":12391,"Ġbr":12392,"Ġqallan":12393,"Ġqatasqa":12394,"osta":12395,"anaqa":12396,"Ġtamp":12397,"Ġtakisqa":12398,"Ġtalara":12399,"kuypaq":12400,"Ġcris":12401,"Ġsutip":12402,"kaymanta":12403,"kayllu":12404,"guay":12405,"guÃŃn":12406,"Ġkanaykichispaq":12407,"Ġkanampaq":12408,"waywash":12409,"tunpi":12410,"Ġaypana":12411,"hal":12412,"Ġumapi":12413,"ĠlÃ¡":12414,"Ġluru":12415,"Ġlanka":12416,"Ġlosada":12417,").-":12418,"aldo":12419,"Ġtitu":12420,"Ġkaqkunawan":12421,"Ġkaqkunaman":12422,"torio":12423,"hia":12424,"ĠgÃ¶":12425,"kanchik":12426,"Ġhatunchasqa":12427,"Ġurq":12428,"pukara":12429,"paykichis":12430,"ÃŃl":12431,"llani":12432,"Ġimashi":12433,"hullaqa":12434,"Ġruasqa":12435,"Ġruwli":12436,"llaqtap":12437,"saj":12438,"sala":12439,"Ġ\"Â¡":12440,"Ġfri":12441,"Ġfon":12442,"Ġsankhu":12443,"vidad":12444,"shuy":12445,"Ġullun":12446,"Ġuwas":12447,"chinchu":12448,"dou":12449,"dows":12450,"domin":12451,"Ġallintan":12452,"Ã³dico":12453,"tela":12454,"tega":12455,"Ã©m":12456,"ĠmarbÃ¡n":12457,"rqay":12458,"rqapurqan":12459,"lukaspa":12460,"Ġchihuahua":12461,"Ġ1823":12462,"Ġ1838":12463,"Ġtukuna":12464,"Ġladislao":12465,"Ġamachan":12466,"kunanmi":12467,"Ġparlam":12468,"Ġmayuqa":12469,"Ġuyaykuna":12470,"Ġwaytara":12471,"Ġkunkan":12472,"utÃ¡n":12473,"Ġkutipa":12474,"Ġkutilla":12475,"1948":12476,"1965":12477,"1968":12478,"1953":12479,"1974":12480,"Ġvac":12481,"goza":12482,"Ġkawsayniyoq":12483,"Ġwasichasqa":12484,"Ġrikuchirqa":12485,"arachupa":12486,"Ġrequ":12487,"dec":12488,"deen":12489,"deau":12490,"rinri":12491,"Ġhamuni":12492,"Ġhamush":12493,"Ġob":12494,"Ġoficial":12495,"Ġcoo":12496,"Ã±it":12497,"aykichikpaq":12498,"Ġqillqasqakuna":12499,"Ġtiyananqa":12500,"logo":12501,"sunin":12502,"Ġphawan":12503,"Ġ1535":12504,"Ġ79":12505,"warma":12506,"Ġantamarka":12507,"Ġriqsiq":12508,"Ġ88":12509,"gali":12510,"set":12511,"seco":12512,"Ġsayna":12513,"Ġsayarisqan":12514,"ninpipas":12515,"rasu":12516,"rasapa":12517,"Ġkumpa":12518,"kunamantan":12519,"yunkay":12520,"Ġparkiqa":12521,"Ġkachkanchik":12522,"qhapaqkunap":12523,"Ġnaces":12524,"Ġtaripaq":12525,"Ġwawakunapi":12526,"Ġkarupi":12527,"Ġtaytayuq":12528,"gias":12529,"irus":12530,"Ġ161":12531,"Ġ103":12532,"Ġnovgorod":12533,"phuyu":12534,"Ġallpapiqa":12535,"Ġkasharqanku":12536,"Ġluwichu":12537,"Ġmulli":12538,"ĠbaÃ±os":12539,"musaq":12540,"musiku":12541,"Ġchaniyoq":12542,"ket":12543,"Ġphani":12544,"general":12545,"thay":12546,"Ġsiqsi":12547,"Ġperqay":12548,"ĠwaÃ±uchinapaq":12549,"Ġkasukun":12550,"Ġkamachiyninpa":12551,"Ġqullq":12552,"Ġcarl":12553,"Ġjesusmanta":12554,"Ġtiyaspa":12555,"betu":12556,"Ġkhar":12557,"Ġrumim":12558,"kusqaÃ±a":12559,"anchikpa":12560,"Ġminh":12561,"caste":12562,"mbÃ³":12563,"Ġyuyayman":12564,"Ġunquymanta":12565,"Ġhinaspam":12566,"Ġchantapas":12567,"Ġchurinchus":12568,"Ġkayninmanta":12569,"Ġrepublikapa":12570,"Ġtoma":12571,"Ġtoribio":12572,"llataÃ±a":12573,"gart":12574,"desto":12575,"Ġqharita":12576,"Ġchinchayninpi":12577,"fesios":12578,"Ġmikhunanpaq":12579,"Ġqaranapi":12580,"ĠmaÃ±akuspa":12581,"Ġwasinmanta":12582,"Ġapamun":12583,"Ġarabi":12584,"Ã±amu":12585,"Ġmallkim":12586,"Ġkananpaqmi":12587,"buliwyap":12588,"Ġpatakunapi":12589,"Ġyachachiqkunaq":12590,"ĠØŃ":12591,"Ġpachantinpi":12592,"Ġtantanakuykuna":12593,"enico":12594,"Ġiwrupamanta":12595,"ĠwaÃ±uyman":12596,"Ġkanichu":12597,"Ġmikhunam":12598,"Ġyanaparqan":12599,"Ġpurinku":12600,"costa":12601,"Ġtaytanqa":12602,"Ġbibliapi":12603,"Ġraphimuyu":12604,"Ġqillqanmi":12605,"Ġ1893":12606,"muyupampa":12607,"Ġshilla":12608,"Ġwawanpa":12609,"uchupi":12610,"Ġkashapampa":12611,"porqa":12612,"Ġqunqay":12613,"Ġpalabras":12614,"Ġuyarikun":12615,"Î¹ÏĤ":12616,"Ġsarwa":12617,"karaw":12618,"Ġnasyuna":12619,"marie":12620,"mariano":12621,"Ġsantukuna":12622,"Ġ1861":12623,"uksiyn":12624,"Ġfederico":12625,"1983":12626,"Ġwarani":12627,"Ġwaranka":12628,"Ġqarapi":12629,"Ġanchatapuni":12630,"awqanakuy":12631,"Ġpukllaymi":12632,"ikwadurpa":12633,"allampakunam":12634,"Ġderechun":12635,"Ġpinchikillachana":12636,"alimanruna":12637,"Ġmakinwan":12638,"Ġqawarin":12639,"dungun":12640,"Ġpatrun":12641,"Ġtiyaykurqan":12642,"ffer":12643,"ĠphiÃ±akuspa":12644,"Ġchiqni":12645,"Ġkawsarichi":12646,"Ġdumin":12647,"Ġkuyuymi":12648,"Ð»Ð¸":12649,"Ġmunakuywan":12650,"Ġpachamamata":12651,"Ġtaksa":12652,"truhillu":12653,"Ġmikhuyta":12654,"Ġurapi":12655,"rumiyasqa":12656,"Ġqarqusqa":12657,"Ġtriunfo":12658,"Ã¨ve":12659,"kultur":12660,"Ġchaqruspa":12661,"Ġpuystu":12662,"Ġtestamento":12663,"urankichu":12664,"Ġkiskachay":12665,"Ġmuyuriqninpi":12666,"lileo":12667,"hisus":12668,"iwrupapi":12669,"Ġwilhelm":12670,"Ġabrahampa":12671,"asyatiku":12672,"hilyu":12673,"lariqaqa":12674,"Ġfaunapas":12675,"Ġhatariy":12676,"chikichasqa":12677,"Ġmayukillap":12678,"à¥Ģ":12679,"fuerte":12680,"Ġankallikurqan":12681,"Ġveracruz":12682,"Ġchimputi":12683,"ĠÃ±aupaq":12684,"uterono":12685,"Ø§Ø¡":12686,"Ġalfonso":12687,"Ġninkichis":12688,"Ġsimanapi":12689,"romanukunapaq":12690,"Ġiwanhilyu":12691,"Ġiglesia":12692,"region":12693,"Ġhawkalla":12694,"Ġdiccionario":12695,"Ġpillpintu":12696,"Ġgrammar":12697,"Ġisraelitas":12698,"Ġmunapayankichu":12699,"Ġmainz":12700,"Ġcristianosqa":12701,"ĠdinÃ©":12702,"Ġmiranda":12703,"Ġyachatsikunapaq":12704,"kitillipiqa":12705,"Ġ::*":12706,"Ġmakisapa":12707,"Ġeugen":12708,"Ġguillermo":12709,"Ġkulunyan":12710,"Ġdeportes":12711,"Ġnavarro":12712,"ĠÙģÙĬ":12713,"Ġrunakapaq":12714,"Ġmachupicchu":12715,"gÃ©nesis":12716,"Ġestrada":12717,"runikamanta":12718,"Ġglasgow":12719,"Ġserviq":12720,"Ġnazaret":12721,"ĠdÃŃaz":12722,"lvania":12723,"Ġkusisamin":12724,"Ġsikritar":12725,"nsylvania":12726,"uisiana":12727,"Ġraphimuyum":12728,"Ġnasyunalista":12729,"'.":12730,".(":12731,"680":12732,"?)":12733,"ataqa":12734,"ajina":12735,"cl":12736,"dum":12737,"fon":12738,"gman":12739,"gari":12740,"gasa":12741,"iwan":12742,"ikuy":12743,"impa":12744,"ignacio":12745,"ihiptu":12746,"junt":12747,"kÃ¤":12748,"mol":12749,"mÃº":12750,"naska":12751,"oh":12752,"ov":12753,"oli":12754,"oÃ±i":12755,"sninta":12756,"spanku":12757,"tpi":12758,"tist":12759,"ukunata":12760,"vre":12761,"wq":12762,"yus":12763,"zburg":12764,"ÅĽ":12765,"à½":12766,"åľ":12767,"Ġì":12768,"ĠÙĨ":12769,"anchista":12770,"chy":12771,"taman":12772,"llaymi":12773,"aychu":12774,"aykuspa":12775,"Ġkon":12776,"Ġkkota":12777,"inos":12778,"inkin":12779,"indu":12780,"aqkunapas":12781,"mato":12782,"mampi":12783,"mathi":12784,"iswa":12785,"pallana":12786,"pablo":12787,"palidad":12788,"Ġscript":12789,"wapsi":12790,"mitru":12791,"rilla":12792,"rizon":12793,"tida":12794,"Ġheredia":12795,"Ġhqs":12796,"Ġpant":12797,"chal":12798,"chamanta":12799,"manhina":12800,"llat":12801,"Ġkallu":12802,"kuki":12803,"Ġwawi":12804,"Ġwamali":12805,"kak":12806,"Ġqina":12807,"ĠaÃ±ay":12808,"Ġakilla":12809,"Ġnut":12810,"Ġrina":12811,"ukisa":12812,"uski":12813,"usill":12814,"usaqmi":12815,"usep":12816,"kipaya":12817,"Ġmol":12818,"ĠmÃ©ndez":12819,"wankayu":12820,"Ġmac":12821,"Ġmamanta":12822,"Ġmaca":12823,"Ġmaxi":12824,"Ġmamuriy":12825,"Ġsierra":12826,"Ġnisqakunamanta":12827,"Ġnisqamanmi":12828,"Ġpav":12829,"Ġpatu":12830,"Ġpasan":12831,"Ġpapata":12832,"Ġpage":12833,"Ġdata":12834,"Ġwatay":12835,"ĠwataÃ±a":12836,"Ġ115":12837,"aslla":12838,"Ġthun":12839,"Ġtrata":12840,"Ġiyun":12841,"Ġsimiy":12842,"ninkunam":12843,"ninkupi":12844,"Ġrikunankupaq":12845,"Ġrichard":12846,"amon":12847,"Ġsuyupas":12848,"Ġrunakunayuq":12849,"iqip":12850,"iqui":12851,"Ġkayan":12852,"umawa":12853,"Ġhatar":12854,"Ġhamanq":12855,"Ġ210":12856,"esti":12857,"escuela":12858,"Ġchayar":12859,"Ġchaykunataqa":12860,"chuan":12861,"Ġpitaq":12862,"Ġpish":12863,"Ġpikuta":12864,"coma":12865,"Ġjona":12866,"ĠmanÃ¡":12867,"enci":12868,"enqay":12869,"ense":12870,"laqa":12871,"Ġwij":12872,"Ġwiq":12873,"Ġwich":12874,"qullpa":12875,"Ġqayay":12876,"Ġqasaq":12877,"Ġqahira":12878,"kunataj":12879,"anal":12880,"kuyninmi":12881,"Ġcy":12882,"Ġqillqamun":12883,"Ġqullun":12884,"Ġqutupi":12885,"istuy":12886,"istot":12887,"Ġkanqanku":12888,"ors":12889,"puyta":12890,"Ġmanallataqmi":12891,"Ġanth":12892,"Ġantis":12893,"Ġumawa":12894,"dire":12895,"Ġlap":12896,"Ġlong":12897,"Ġlayu":12898,"Ġpachaj":12899,"alex":12900,"monio":12901,"eland":12902,"elson":12903,"Ġpuchuq":12904,"Ġmitu":12905,"Ġkawsaymi":12906,"Ġkawsash":12907,"hila":12908,"nikarawa":12909,"Ġallende":12910,"Ġchachas":12911,"Ġgan":12912,"Ġgla":12913,"Ġgras":12914,"aqtay":12915,"aqtasqa":12916,"kansas":12917,"Ġhatunqulla":12918,"chikkunapi":12919,"Ġsahara":12920,"Ġmaypim":12921,"ĠwaÃ±ur":12922,"Ġmunanakuy":12923,"romanos":12924,"isiÃ³n":12925,"Ġruraymi":12926,"Ġpaykunapura":12927,"Ġimataq":12928,"hue":12929,"llaqtaymanta":12930,"Ġhinapin":12931,"Ġkamacheq":12932,"Ġford":12933,"Ġumu":12934,"Ġugar":12935,"Ġyachayninkuta":12936,"caja":12937,"docarpus":12938,"teu":12939,"tepe":12940,"Ġmaryana":12941,"dala":12942,"lumani":12943,"chanmi":12944,"Ġdil":12945,"Ġdiez":12946,"kuqta":12947,"Ġnispataq":12948,"Ġamaz":12949,"Ġhaylli":12950,"ykiwan":12951,"ykikunata":12952,"oldid":12953,"Ġkutichispa":12954,"Ġkuticherqa":12955,"190":12956,"1970":12957,"1946":12958,"1973":12959,"Ġyuguslawya":12960,"Ġevan":12961,"Ġeast":12962,"Ġkawsaypa":12963,"ankuman":12964,"Ġwasipim":12965,"Ġrikuchispa":12966,"khin":12967,"aragoza":12968,"Ġatipana":12969,"chkasqa":12970,"unty":12971,"Ġrapa":12972,"Ġrakh":12973,"Ġchunkamanta":12974,"itipiqa":12975,"rinanpaq":12976,"Ġhamurqa":12977,"Ġllaqtanchikpi":12978,"chunkantin":12979,"Ġopen":12980,"Ġohio":12981,"Ġrimanankupaq":12982,"Ġmamallaqtayuq":12983,"qaykupi":12984,"Ġwarmimanta":12985,"Ġwarmikunawan":12986,"Ġchaskis":12987,"loÃ©":12988,"chisqaku":12989,"Ġalqo":12990,"Ġmikhurqan":12991,"Ġphat":12992,"Ġ1572":12993,"Ġ73":12994,"kisuyu":12995,"Ã¡ng":12996,"Ġruwarqanku":12997,"Ġ94":12998,"Ġtakikunata":12999,"Ġimaykana":13000,"Ã±uÃ±uq":13001,"Ġseq":13002,"Ġyuyaris":13003,"Ġsayarin":13004,"chea":13005,"Ġcauca":13006,"Ġkuku":13007,"Ġchaymantapas":13008,"aqutu":13009,"Ġprogreso":13010,"Ġsaqill":13011,"Ġsaqilla":13012,"Ġkachkanki":13013,"Ġchakrakunata":13014,"Ġkawsaqkunam":13015,"Ġikwaduryanu":13016,"ĠatlÃ¡n":13017,"Ġwawakunamanta":13018,"Ġ140":13019,"gica":13020,"tajina":13021,"Ġinkas":13022,"Ġkasqanchik":13023,"Ġkasqankurayku":13024,"irÃ¡":13025,"anchaymi":13026,"ananchik":13027,"kaqi":13028,"Ġsuyaykamullaway":13029,"kustarika":13030,"Ġnoel":13031,"Ġnoqayku":13032,"Ġsunturpim":13033,"Ġkarqaspa":13034,"iymanta":13035,"Ġkapka":13036,"Ġkamachikurqan":13037,"Ġchupayuq":13038,"triz":13039,"push":13040,"tuwal":13041,"gencia":13042,"thesalonikiyuqkunapaq":13043,"qaqatampu":13044,"Ġmaskaspa":13045,"niykimanta":13046,"achakuna":13047,"achawan":13048,"Ġgui":13049,"ĠbilingÃ¼":13050,"Ġrisirwakunapas":13051,"Ġyanuspa":13052,"askasqa":13053,"Ġlenin":13054,"turo":13055,"poemas":13056,"Ġjinallataq":13057,"Ġcarri":13058,"Ġcarpio":13059,"Ġsumaqmi":13060,"Ġconai":13061,"Ġtiyasqan":13062,"Ġqiw":13063,"bei":13064,"fico":13065,"Ġmovie":13066,"Ġqillqaypim":13067,"noqaqa":13068,"Ġenvi":13069,"Ġhampiy":13070,"Ġsiminpi":13071,"Ø§Ø±":13072,"Ġcuba":13073,"Ġpasaqta":13074,"dorf":13075,"Ġsalva":13076,"Ġsalasaka":13077,"Ġchantataq":13078,"Ġnisqankamaqa":13079,"Ġchaninchay":13080,"ÙĦÙĩ":13081,"ĠÃ±awiriyta":13082,"Ġruwanapaq":13083,"kuyninmanta":13084,"Ġyawarninta":13085,"ĠiÃ±iyta":13086,"Ġunicef":13087,"karta":13088,"waÃ±is":13089,"misti":13090,"tarma":13091,"Ġtiksicha":13092,"asadre":13093,"Ġkruspi":13094,"Ġqanchismanta":13095,"ĠiÃ±iyniyoq":13096,"Ġyayayki":13097,"Ġkashanchis":13098,"cula":13099,"culus":13100,"llasqataq":13101,"Ġkachunchu":13102,"Ġtantanakuyninmi":13103,"Ġkapchiypa":13104,"Ġofren":13105,"Ġindihinakunata":13106,"Ġyanaparqa":13107,"Ġyanapawanchik":13108,"Ġpurinanpaq":13109,"galpa":13110,"kuwani":13111,"Ġtaylor":13112,"Ġjoya":13113,"Ġauto":13114,"Ġgau":13115,"mirya":13116,"aspiwan":13117,"akllana":13118,"Ġkarchi":13119,"Ġqaqata":13120,"Ġporres":13121,"Ġchinkachi":13122,"Ġvald":13123,"Ġjamut":13124,"angdong":13125,"porto":13126,"Ġpalacio":13127,"Ġuniversitaria":13128,"Ġcampania":13129,"dyusqa":13130,"ĠÎ²":13131,"ĠÎ³":13132,"ĠÎ¸":13133,"Ġonqoq":13134,"Ġservin":13135,"Ġlluqsiq":13136,"sonqo":13137,"Ġhuwancha":13138,"umirq":13139,"ĠqaraÃ±awi":13140,"ĠbermÃº":13141,"allinta":13142,"Ġmasiy":13143,"dansuyu":13144,"Ġalegre":13145,"Ġpaula":13146,"Ġqawari":13147,"samaytu":13148,"Ġyupanchik":13149,"Ġllullakuspa":13150,"Ġthanta":13151,"Ġirram":13152,"Ġsumaku":13153,"Ġkallaw":13154,"Ġtrato":13155,"ĠthuÃ±isqa":13156,"ĠllampÊ¼u":13157,"Ġchikchi":13158,"Ġpaqo":13159,"Ġwarmakunam":13160,"Ġurmasqa":13161,"aypik":13162,"Ġparlarqa":13163,"Ġpachamamap":13164,"Ġpaqtachani":13165,"Ġbilbao":13166,"Ġqhawanankupaq":13167,"Ġuchpa":13168,"Ġkikillan":13169,"warqanchis":13170,"Ġpachakutinapaq":13171,"Ġkacharikuna":13172,"riktur":13173,"sirk":13174,"Ġcultural":13175,"muspataq":13176,"llarqantaq":13177,"apocalipsis":13178,"Ġchachakuma":13179,"ĠmaÃ±asqa":13180,"ĠmaÃ±aspa":13181,"more":13182,"Ġsuyakuy":13183,"Ġqutuqa":13184,"Ġmamaykuna":13185,"Ġjuchalli":13186,"zuela":13187,"awankay":13188,"ĠpÊ¼unchay":13189,"ĠÃ±ukch":13190,"ĠmoisÃ©s":13191,"america":13192,"ediciÃ³n":13193,"qaraÃ±awi":13194,"Ġthansam":13195,"Ġjusk":13196,"ĠkÃ«nÃ¶":13197,"ĠayÃ±im":13198,"Ġchhuka":13199,"ĠbongarÃ¡":13200,"Ġmayordo":13201,"Ġdiagnos":13202,"ĠjuntÊ¼a":13203,"Ġjisusqa":13204,"Ġsalazar":13205,"bispo":13206,"Ġsispay":13207,"benhav":13208,"awsanqati":13209,"kaÃ±ar":13210,"stantin":13211,"afgansuyu":13212,"Ġnillarqantaq":13213,"Ã¸benhav":13214,"Ġhenri":13215,"Ġruraykamayninmi":13216,"Ġkillkatina":13217,"Ġrantina":13218,"Ġespinoza":13219,"hurwatsuyu":13220,"inkinakusqa":13221,"Ġkankallu":13222,"Ġregional":13223,"Ġpilichuku":13224,"Ġawankay":13225,"Ġmichigan":13226,"Ġthansakunam":13227,"Ġtistam":13228,"ispaÃ±ulkuna":13229,"ä¸Ń":13230,"ĠjimÃ©nez":13231,"ijing":13232,"Ġcosudep":13233,"qallawap":13234,"furt":13235,"×ķ×":13236,"Ġchristian":13237,"Ġlanthanu":13238,"Ġreinon":13239,"Ġargentina":13240,"katidral":13241,"ĠnÃºmeros":13242,"Ġtarpunchik":13243,"usitur":13244,"tuktunkunaqa":13245,"apustulkunap":13246,"Ã¤nampaq":13247,"Ġqonqoriyku":13248,"Ġwiksayuq":13249,"Ġtiksimuyuntinpim":13250,"Ġlinguistics":13251,"Ġchicago":13252,"ĠapÃ³stol":13253,"Ġhttp":13254,"Ġlliphlli":13255,"Ġinsiklupidiya":13256,"å·ŀ":13257,"aramirin":13258,"Ġdresden":13259,"Ġnacesqan":13260,"Ġarabic":13261,"Ġdatabase":13262,"istotel":13263,"ĠbermÃºdez":13264,"Ã¸benhavn":13265,"440":13266,"achina":13267,"akunapas":13268,"apar":13269,"bona":13270,"dland":13271,"eza":13272,"far":13273,"itan":13274,"ichispa":13275,"jmanta":13276,"jÃ³":13277,"jÉª":13278,"kÃ«":13279,"lur":13280,"lÃŃn":13281,"mpaq":13282,"nÃ©":13283,"num":13284,"ochu":13285,"odus":13286,"pp":13287,"pter":13288,"ruq":13289,"rqun":13290,"sp":13291,"style":13292,"tusqa":13293,"tras":13294,"trans":13295,"zy":13296,"Äħ":13297,"ÄĻ":13298,"ÅŁ":13299,"Çİ":13300,"Ð·":13301,"Ñĭ":13302,"Ö¼":13303,"Øµ":13304,"äº":13305,"åħ":13306,"ĠÄī":13307,"anÃŃa":13308,"chusqa":13309,"qala":13310,"qasa":13311,"aypas":13312,"aykun":13313,"pikuna":13314,"Ġking":13315,"Ġklasiku":13316,"mapis":13317,"papi":13318,"paca":13319,"ĠsÃ¡":13320,"Ġsura":13321,"Ġsamp":13322,"wawra":13323,"kunallata":13324,"uyka":13325,"uytu":13326,"riyan":13327,"ticas":13328,"ĠhÃ©":13329,"Ġphuk":13330,"Ġpeni":13331,"chapas":13332,"llarqanku":13333,"llarahu":13334,"Ġkapuy":13335,"Ġkapinuta":13336,"kullay":13337,"Ġwapu":13338,"Ġwachakuq":13339,"Ã±uy":13340,"Ã±inta":13341,"kapa":13342,"Ġqanpaq":13343,"Ġ()":13344,"Ġabu":13345,"Ġadan":13346,"Ġnill":13347,"Ġnano":13348,"uqya":13349,"Ġchum":13350,"urs":13351,"usun":13352,"uslulu":13353,"ĠmÃ«":13354,"wanÃ±a":13355,"Ġmao":13356,"Ġmagal":13357,"Ġmawri":13358,"Ġmaurice":13359,"Ġmaterial":13360,"Ġsiqa":13361,"ruc":13362,"ruwarqa":13363,"Ġpac":13364,"Ġpallay":13365,"Ġpawqa":13366,"Ġpache":13367,"Ġpagan":13368,"Ġpallanqa":13369,"apusqan":13370,"Ġdesa":13371,"asuy":13372,"asyun":13373,"anqay":13374,"chikuna":13375,"chillanmi":13376,"Ġty":13377,"Ġtina":13378,"Ġtres":13379,"Ġtanti":13380,"Ġilli":13381,"Ġikuwa":13382,"Ġibero":13383,"Ġsimimantam":13384,"Ġhukkunata":13385,"ninkunapi":13386,"Ġries":13387,"Ġrivero":13388,"libre":13389,"iqu":13390,"iqkuna":13391,"Ġkaypas":13392,"Ġkayni":13393,"Ġkaykunawan":13394,"raqay":13395,"Ġyalli":13396,"kunsipsyun":13397,"sillo":13398,"illichu":13399,"esz":13400,"Ġchayasqa":13401,"Ġchaywampis":13402,"Ġpim":13403,"Ġpiura":13404,"Ġpierre":13405,"Ġpillapis":13406,"taqchus":13407,"coro":13408,"chaypaq":13409,"Ġmangl":13410,"ulun":13411,"entin":13412,"Ġwijch":13413,"ĠbÃŃ":13414,"Ġblu":13415,"Ġburinkin":13416,"Ġbologna":13417,"Ġbasadre":13418,"Ġqallun":13419,"Ġqaparinku":13420,"âĢł":13421,"kunatapis":13422,"Ġclas":13423,"Ġqillqakunaqa":13424,"Ġyi":13425,"Ġyuk":13426,"kayampi":13427,"guero":13428,"Ġdef":13429,"Ġkanqan":13430,"wayaqa":13431,"orani":13432,"Ġaypaq":13433,"Ġaypasqa":13434,"Ġayriwa":13435,"Ġastay":13436,"chisunchik":13437,"chisunkichis":13438,"Ġumasuyu":13439,"divi":13440,"Ã±apa":13441,"alto":13442,"Ġkaqtaqa":13443,"Ġpublica":13444,"Ġmikuna":13445,"Ġintin":13446,"Ġindus":13447,"Ã¡za":13448,"Ġpaqaqi":13449,"Ġallqucha":13450,"Ġchal":13451,"Ġchata":13452,"Ġgir":13453,"kankuna":13454,"kunapichus":13455,"puwan":13456,"payaspa":13457,"Ġmaychus":13458,"Ġ347":13459,"ĠwaÃ±unqa":13460,"Ġmunanchik":13461,"ision":13462,"ĠrurÃ«":13463,"Ġpaykunapa":13464,"Ġniwarqan":13465,"sac":13466,"sau":13467,"sami":13468,"ĠhinaÃ±a":13469,"ref":13470,"recht":13471,"Ġfin":13472,"Ġfra":13473,"Ġsankay":13474,"victoria":13475,"Ġlitunya":13476,"Ġkalindaryum":13477,"Ġuh":13478,"Ġyachaysuntur":13479,"doma":13480,"riykuna":13481,"Ġqhichwaman":13482,"Ã©chua":13483,"tanapaq":13484,"naciones":13485,"ĠÃ±awram":13486,"chiyqa":13487,"chiykuna":13488,"Ġdibu":13489,"Ġchiriya":13490,"Ġ1815":13491,"Ġ1850":13492,"Ġ1835":13493,"Ġ1832":13494,"Ġ1809":13495,"Ġ1842":13496,"Ġhuac":13497,"Ġ59":13498,"Ġlaqa":13499,"Ġladon":13500,"kunanpi":13501,"Ġparq":13502,"Ġparqu":13503,"manaÃ±a":13504,"punti":13505,"puncha":13506,"Ġkatiguriyakunam":13507,"chiqmi":13508,"utuyu":13509,"Ġkutitaq":13510,"1913":13511,"1978":13512,"Ġ450":13513,"chuspa":13514,"Ġvasco":13515,"ĠvÃ¡squez":13516,"llaykuna":13517,"Ġrikurisqa":13518,"Ġrikush":13519,"arakuna":13520,"oqqa":13521,"Ġatipasqa":13522,"Ġreac":13523,"Ġyurakunatam":13524,"itiwan":13525,"Ġmusyaq":13526,"Ġmustasa":13527,"umba":13528,"Ġmamallaqtakunapi":13529,"Ġgrimm":13530,"Ġarn":13531,"Ġaram":13532,"Ġarro":13533,"Ġarmin":13534,"Ġartes":13535,"Ġjuanta":13536,"Ġninasuyu":13537,"sand":13538,"ilar":13539,"bat":13540,"baÃ±as":13541,"ĠjaÃ©n":13542,"Ġmikhusqan":13543,"Ġkanqachu":13544,"Ġmishika":13545,"mungul":13546,"Ġastawanmi":13547,"Ġphaw":13548,"apusqakunata":13549,"Ġqankunan":13550,"Ġsutinkuna":13551,"Ġvideo":13552,"Ġsinku":13553,"cera":13554,"Ġ170":13555,"Ġ1799":13556,"cheandÃŃa":13557,"rasco":13558,"Ġkuchun":13559,"Ġpunti":13560,"Ġprovidencia":13561,"Ġproyecto":13562,"Ġyakumanta":13563,"ecu":13564,"Ġ125":13565,"Ġtaripana":13566,"Ġkawsaqkunata":13567,"sullana":13568,"mouth":13569,"med":13570,"metrio":13571,"Ġchuqllu":13572,"ananpaj":13573,"Ġsuyk":13574,"Ġsuysya":13575,"riqsisqa":13576,"Ġuywasqan":13577,"Ġuqsitan":13578,"pharsi":13579,"151":13580,"Ġkarqaku":13581,"Ġkarqachu":13582,"iyka":13583,"Ġkamachikuna":13584,"Ġkamachiptin":13585,"mulli":13586,"Ġsutisuy":13587,"Ġluri":13588,"Ġ135":13589,"160":13590,"Ġwaqan":13591,"136":13592,"Ġalimanruna":13593,"Ġpero":13594,"Ġatinkichu":13595,"Ġaktinyu":13596,"ĠneuquÃ©n":13597,"Ġkamachiyninta":13598,"Ġususi":13599,"dades":13600,"ĠwiÃ±arqan":13601,"Ġjinachu":13602,"Ġjesuspi":13603,"Ġconsti":13604,"beria":13605,"Ġkhus":13606,"Ġrumiyasqa":13607,"cuta":13608,"Ġllapanmi":13609,"Ġpampam":13610,"Ġ240":13611,"Ġawtu":13612,"Ġprovinciapi":13613,"Ġ230":13614,"job":13615,"jote":13616,"Ġloa":13617,"chejqa":13618,"tish":13619,"Ġcasti":13620,"carÃ¡":13621,"Ġunquyniyuq":13622,"Ġmetal":13623,"Ġpuchukayninpi":13624,"Ġchanincha":13625,"Ġchaqra":13626,"ĠzÃº":13627,"ĠzÃ¼rich":13628,"Ġ260":13629,"Ġcorte":13630,"271":13631,"Ġuniver":13632,"Ġtower":13633,"Ġtotora":13634,"souri":13635,"sociedad":13636,"chuqu":13637,"Ġyachankichis":13638,"Ġbrasilpa":13639,"desh":13640,"Ġapra":13641,"Ġbeijing":13642,"ĠmaÃ±akuq":13643,"ĠmaÃ±akush":13644,"Ġlatino":13645,"Ġsuyuntu":13646,"Ġkusikuni":13647,"Ã±anpi":13648,"Ġruraykunku":13649,"tampupata":13650,"Ġsonqoyoq":13651,"Ġwayrapi":13652,"Ð¸ÑĢ":13653,"Ġpurinmi":13654,"Ġtayik":13655,"connor":13656,"Ġunumanta":13657,"Ġbibliata":13658,"Ġbiblioteca":13659,"ologi":13660,"Ġport":13661,"Ġqamqa":13662,"Ġpuriqkuna":13663,"Ġhorizon":13664,"Ġsirya":13665,"Ġchinkari":13666,"Ġcomple":13667,"Ġvalor":13668,"Ġmurcia":13669,"Ġutqhay":13670,"porta":13671,"Ġ1873":13672,"Ġfire":13673,"Ġfiebre":13674,"http":13675,"Ġquntumasa":13676,"Ġpalawra":13677,"huaja":13678,"proven":13679,"qhallalla":13680,"Ġwasiq":13681,"bartolomÃ©":13682,"ulumi":13683,"allampam":13684,"Ġkinwa":13685,"Ġfeli":13686,"ĠÃ±isqapas":13687,"philipinakuna":13688,"Ġqelqasqan":13689,"Ġramran":13690,"Ġquijote":13691,"uchpa":13692,"uchukuy":13693,"aytuta":13694,"allinmi":13695,"mishikupi":13696,"Ġimayaymanta":13697,"atmayuq":13698,"Ġ1859":13699,"wiÃ±aypaq":13700,"Ġmasikuna":13701,"Ġsupaypa":13702,"banla":13703,"Ġchurakuspa":13704,"Ġkawsaykuqkunam":13705,"Ġkhuyay":13706,"raphi":13707,"kawsaykuq":13708,"warmikuna":13709,"Ġpaulus":13710,"display":13711,"pukllana":13712,"Ġupyay":13713,"Ġthani":13714,"Ġruwaqkuna":13715,"pariwanaqucha":13716,"ebla":13717,"Ġsaqraqa":13718,"Ġbusna":13719,"Ġakllasqan":13720,"imaynatataq":13721,"colÃ³gi":13722,"Ġmaskhas":13723,"Ġmamanpa":13724,"ninchikta":13725,"Ġmirachiy":13726,"Ġqosunkichis":13727,"Ġrimasqanta":13728,"Ġgrau":13729,"Ġrusiyapi":13730,"Ġparlaspa":13731,"Ġsonqonta":13732,"renta":13733,"imanaqtinmi":13734,"Ġuraman":13735,"ninchispi":13736,"Ġwitnampa":13737,"Ġkikiykita":13738,"tukri":13739,"Ġpuquchisqa":13740,"gnum":13741,"Ã¨s":13742,"amirika":13743,"greb":13744,"Ġempresakuna":13745,"Éµn":13746,"Ġkhata":13747,"niykichismi":13748,"Ġtiksimuyupi":13749,"Ġqhasi":13750,"Ġhasut":13751,"Ġatakama":13752,"Ġraymondi":13753,"mÃ©xico":13754,"Ġclara":13755,"Ġshinallatak":13756,"editorial":13757,"pachantin":13758,"Ġyallina":13759,"Ġethan":13760,"mikhuq":13761,"Ġqirupallqa":13762,"Ġwasanpi":13763,"Ġllaktakuna":13764,"Ġovejas":13765,"Ġqhawarina":13766,"nawal":13767,"Ġtupisa":13768,"lizaciÃ³n":13769,"ĠfermÃŃn":13770,"Ġcolom":13771,"cÃ¡zar":13772,"Ġshamayka":13773,"Ġhurqunku":13774,"Ġhelena":13775,"Ġthaski":13776,"Ġderechonchiskunata":13777,"Ġhurqunapaq":13778,"Ġhusse":13779,"kaÃ±iti":13780,"Ġverapaz":13781,"Ġpatronanmi":13782,"Ġqapariy":13783,"Ġuywakunappas":13784,"Ġurmaykuq":13785,"umuyku":13786,"Ġjerusalenpi":13787,"Ġprometes":13788,"Ġhoqarisqa":13789,"Ġqallta":13790,"grupo":13791,"Ġsilandapi":13792,"Ġá¼":13793,"Ġqhispisqa":13794,"Ġmype":13795,"Ġcornelio":13796,"Ġpresidente":13797,"Ġbellavista":13798,"Ġbacteri":13799,"Ġalmaymi":13800,"Ġapocalipsis":13801,"Ġmiyusapa":13802,"ĠkÃ¶ln":13803,"Ġmachaqway":13804,"Ġarchidona":13805,"chinchiru":13806,"Ġludwig":13807,"ĠaisÃ©n":13808,"Ġnayriri":13809,"Ġyumanayuqmi":13810,"ĠapurÃŃmac":13811,"joseph":13812,"chumpiwillka":13813,"Ġbambas":13814,"×Ļ×":13815,"rumanya":13816,"Ġsegundo":13817,"Ġdiscipulos":13818,"Ġhawaykawsay":13819,"ĠlingÃ¼":13820,"ĠmuÃ±ecas":13821,"ĠrikÃ¤tsi":13822,"Ġprimaria":13823,"Ġcategory":13824,"ĠperiÃ³dico":13825,"Ġrocafuerte":13826,"áĥĲáĥ":13827,"Ġplurinacional":13828,"Ġpuraqmanta":13829,"Ġriyad":13830,"Ġgrisyapi":13831,"Ġhiniral":13832,"Ġtokyo":13833,"wkaniya":13834,"thaysuyu":13835,"gasaki":13836,"useppe":13837,"dalajara":13838,"Ġconaie":13839,"Ġpacheco":13840,"Ġmanglares":13841,"qhallallaj":13842,"%).":13843,"'m":13844,")).":13845,"./":13846,"_(":13847,"aa":13848,"achun":13849,"bd":13850,"bes":13851,"dÃ¡n":13852,"eque":13853,"fra":13854,"gÃ³":13855,"iwi":13856,"ite":13857,"ipan":13858,"ichaq":13859,"ihiku":13860,"illas":13861,"jal":13862,"jerusal":13863,"krunikamanta":13864,"luru":13865,"mura":13866,"oa":13867,"ocia":13868,"puru":13869,"pÃ¡n":13870,"phun":13871,"ruy":13872,"rÃ«":13873,"rÃ©n":13874,"rosa":13875,"swa":13876,"sto":13877,"swick":13878,"uan":13879,"zet":13880,"àª":13881,"ìĸ":13882,"íķ":13883,"ĠâĨĴ":13884,"ankunaqa":13885,"ankichis":13886,"chhi":13887,"churu":13888,"tap":13889,"taza":13890,"qasi":13891,"pichincha":13892,"Ġkuk":13893,"inya":13894,"aqchus":13895,"aqtiy":13896,"isra":13897,"ishi":13898,"isanka":13899,"pallasqa":13900,"Ġsor":13901,"wach":13902,"wacha":13903,"waru":13904,"uyuy":13905,"uyari":13906,"millu":13907,"michiy":13908,"mium":13909,"richi":13910,"rientes":13911,"Ġhaq":13912,"Ġpwi":13913,"chakunatam":13914,"yaka":13915,"yala":13916,"manchay":13917,"mantÃ¡":13918,"Ġkachu":13919,"kuri":13920,"kapak":13921,"ĠqÊ¼":13922,"Ġae":13923,"Ġave":13924,"Ġabe":13925,"Ġaix":13926,"Ġadolfo":13927,"Ġnun":13928,"Ġraqch":13929,"ĠrÃ³mulo":13930,"Ġllaqtakama":13931,"usha":13932,"kipa":13933,"Ġmura":13934,"wantaj":13935,"Ġmamaqucha":13936,"Ġsig":13937,"Ġsiwara":13938,"Ġnisqatapas":13939,"Ġpallaq":13940,"Ġpasay":13941,"Ġpacari":13942,"apuq":13943,"Ġwatata":13944,"ĠtÅį":13945,"Ġtren":13946,"Ġimpu":13947,"Ġsimitas":13948,"ĠÃ±aqch":13949,"ninkunatam":13950,"ninkunaman":13951,"ningen":13952,"Ġrikunqaku":13953,"amÃ¡n":13954,"life":13955,"Ġsuyuta":13956,"Ġkiri":13957,"Ġkilta":13958,"Ġrunapaqmi":13959,"onpa":13960,"Ġkaypaq":13961,"Ġkayniyki":13962,"Ġkaynu":13963,"Ġkayapas":13964,"raf":13965,"rafo":13966,"kunchis":13967,"kunkuchu":13968,"tud":13969,"tulo":13970,"ĠqhuÃ±a":13971,"Ġsuple":13972,"Ġsuperi":13973,"Ġ220":13974,"yupunti":13975,"Ġpius":13976,"Ġpiyu":13977,"Ġpikch":13978,"coto":13979,"Ġjar":13980,"chaypas":13981,"chayoq":13982,"chaymantaqa":13983,"enti":13984,"Ġkillata":13985,"Ġkillamanta":13986,"quÃ©chua":13987,"Ġblas":13988,"Ġqatin":13989,"Ġqapari":13990,"Ġtaba":13991,"Ġtakis":13992,"Ġtatay":13993,"Ġcro":13994,"istanku":13995,"orgi":13996,"Ġayar":13997,"Ġsutiyuqpa":13998,"chispaqa":13999,"hapaska":14000,"Ġmanataj":14001,"Ġant":14002,"Ġange":14003,"dir":14004,"dimuk":14005,"Ġlur":14006,"ĠâĢľ":14007,"Ġpachapaq":14008,"Ġpachapis":14009,"montes":14010,"Ġtimp":14011,"Ġtierra":14012,"Ġkaqpaq":14013,"Ġkaqkunam":14014,"Ġkaqtinmi":14015,"Ġmich":14016,"tomas":14017,"higg":14018,"Ġalliya":14019,"Ġgam":14020,"Ġgrado":14021,"Ġhatuncha":14022,"chikkunata":14023,"putina":14024,"puwpu":14025,"ĠÃ±at":14026,"llantan":14027,"roberto":14028,"isio":14029,"isiyu":14030,"isiyay":14031,"Ġruranakuna":14032,"Ġpaytan":14033,"Ġimamayta":14034,"Ġimallatapas":14035,"huasi":14036,"Ġispana":14037,"Ġniki":14038,"Ġniptin":14039,"Ġnitinmi":14040,"sai":14041,"Ġkamarisqan":14042,"king":14043,"Ġsankt":14044,"virus":14045,"sham":14046,"Ġuhu":14047,"Ġutur":14048,"Ġufisyal":14049,"cario":14050,"chini":14051,"Ã³d":14052,"mpal":14053,"Ġqhati":14054,"chanan":14055,"chanki":14056,"chanchu":14057,"Ġdif":14058,"Ġchira":14059,"Ġchilu":14060,"ulio":14061,"kuqpa":14062,
[...]
